{
  "version": "1.0",
  "truncation": null,
  "padding": null,
  "added_tokens": [
    {
      "id": 0,
      "content": "<|endoftext|>",
      "single_word": false,
      "lstrip": false,
      "rstrip": false,
      "normalized": false,
      "special": true
    },
    {
      "id": 1,
      "content": "<|user|>",
      "single_word": false,
      "lstrip": false,
      "rstrip": false,
      "normalized": false,
      "special": true
    },
    {
      "id": 2,
      "content": "<|assistant|>",
      "single_word": false,
      "lstrip": false,
      "rstrip": false,
      "normalized": false,
      "special": true
    },
    {
      "id": 3,
      "content": "<|pad|>",
      "single_word": false,
      "lstrip": false,
      "rstrip": false,
      "normalized": false,
      "special": true
    }
  ],
  "normalizer": null,
  "pre_tokenizer": {
    "type": "ByteLevel",
    "add_prefix_space": false,
    "trim_offsets": true,
    "use_regex": true
  },
  "post_processor": {
    "type": "ByteLevel",
    "add_prefix_space": true,
    "trim_offsets": false,
    "use_regex": true
  },
  "decoder": {
    "type": "ByteLevel",
    "add_prefix_space": true,
    "trim_offsets": true,
    "use_regex": true
  },
  "model": {
    "type": "BPE",
    "dropout": null,
    "unk_token": null,
    "continuing_subword_prefix": null,
    "end_of_word_suffix": null,
    "fuse_unk": false,
    "byte_fallback": false,
    "ignore_merges": false,
    "vocab": {
      "<|endoftext|>": 0,
      "<|user|>": 1,
      "<|assistant|>": 2,
      "<|pad|>": 3,
      "!": 4,
      "\"": 5,
      "#": 6,
      "$": 7,
      "%": 8,
      "&": 9,
      "'": 10,
      "(": 11,
      ")": 12,
      "*": 13,
      "+": 14,
      ",": 15,
      "-": 16,
      ".": 17,
      "/": 18,
      "0": 19,
      "1": 20,
      "2": 21,
      "3": 22,
      "4": 23,
      "5": 24,
      "6": 25,
      "7": 26,
      "8": 27,
      "9": 28,
      ":": 29,
      ";": 30,
      "<": 31,
      "=": 32,
      ">": 33,
      "?": 34,
      "@": 35,
      "A": 36,
      "B": 37,
      "C": 38,
      "D": 39,
      "E": 40,
      "F": 41,
      "G": 42,
      "H": 43,
      "I": 44,
      "J": 45,
      "K": 46,
      "L": 47,
      "M": 48,
      "N": 49,
      "O": 50,
      "P": 51,
      "Q": 52,
      "R": 53,
      "S": 54,
      "T": 55,
      "U": 56,
      "V": 57,
      "W": 58,
      "X": 59,
      "Y": 60,
      "Z": 61,
      "[": 62,
      "\\": 63,
      "]": 64,
      "^": 65,
      "_": 66,
      "`": 67,
      "a": 68,
      "b": 69,
      "c": 70,
      "d": 71,
      "e": 72,
      "f": 73,
      "g": 74,
      "h": 75,
      "i": 76,
      "j": 77,
      "k": 78,
      "l": 79,
      "m": 80,
      "n": 81,
      "o": 82,
      "p": 83,
      "q": 84,
      "r": 85,
      "s": 86,
      "t": 87,
      "u": 88,
      "v": 89,
      "w": 90,
      "x": 91,
      "y": 92,
      "z": 93,
      "{": 94,
      "|": 95,
      "}": 96,
      "~": 97,
      "¡": 98,
      "¢": 99,
      "£": 100,
      "¤": 101,
      "¥": 102,
      "¦": 103,
      "§": 104,
      "¨": 105,
      "©": 106,
      "ª": 107,
      "«": 108,
      "¬": 109,
      "®": 110,
      "¯": 111,
      "°": 112,
      "±": 113,
      "²": 114,
      "³": 115,
      "´": 116,
      "µ": 117,
      "¶": 118,
      "·": 119,
      "¸": 120,
      "¹": 121,
      "º": 122,
      "»": 123,
      "¼": 124,
      "½": 125,
      "¾": 126,
      "¿": 127,
      "À": 128,
      "Á": 129,
      "Â": 130,
      "Ã": 131,
      "Ä": 132,
      "Å": 133,
      "Æ": 134,
      "Ç": 135,
      "È": 136,
      "É": 137,
      "Ê": 138,
      "Ë": 139,
      "Ì": 140,
      "Í": 141,
      "Î": 142,
      "Ï": 143,
      "Ð": 144,
      "Ñ": 145,
      "Ò": 146,
      "Ó": 147,
      "Ô": 148,
      "Õ": 149,
      "Ö": 150,
      "×": 151,
      "Ø": 152,
      "Ù": 153,
      "Ú": 154,
      "Û": 155,
      "Ü": 156,
      "Ý": 157,
      "Þ": 158,
      "ß": 159,
      "à": 160,
      "á": 161,
      "â": 162,
      "ã": 163,
      "ä": 164,
      "å": 165,
      "æ": 166,
      "ç": 167,
      "è": 168,
      "é": 169,
      "ê": 170,
      "ë": 171,
      "ì": 172,
      "í": 173,
      "î": 174,
      "ï": 175,
      "ð": 176,
      "ñ": 177,
      "ò": 178,
      "ó": 179,
      "ô": 180,
      "õ": 181,
      "ö": 182,
      "÷": 183,
      "ø": 184,
      "ù": 185,
      "ú": 186,
      "û": 187,
      "ü": 188,
      "ý": 189,
      "þ": 190,
      "ÿ": 191,
      "Ā": 192,
      "ā": 193,
      "Ă": 194,
      "ă": 195,
      "Ą": 196,
      "ą": 197,
      "Ć": 198,
      "ć": 199,
      "Ĉ": 200,
      "ĉ": 201,
      "Ċ": 202,
      "ċ": 203,
      "Č": 204,
      "č": 205,
      "Ď": 206,
      "ď": 207,
      "Đ": 208,
      "đ": 209,
      "Ē": 210,
      "ē": 211,
      "Ĕ": 212,
      "ĕ": 213,
      "Ė": 214,
      "ė": 215,
      "Ę": 216,
      "ę": 217,
      "Ě": 218,
      "ě": 219,
      "Ĝ": 220,
      "ĝ": 221,
      "Ğ": 222,
      "ğ": 223,
      "Ġ": 224,
      "ġ": 225,
      "Ģ": 226,
      "ģ": 227,
      "Ĥ": 228,
      "ĥ": 229,
      "Ħ": 230,
      "ħ": 231,
      "Ĩ": 232,
      "ĩ": 233,
      "Ī": 234,
      "ī": 235,
      "Ĭ": 236,
      "ĭ": 237,
      "Į": 238,
      "į": 239,
      "İ": 240,
      "ı": 241,
      "Ĳ": 242,
      "ĳ": 243,
      "Ĵ": 244,
      "ĵ": 245,
      "Ķ": 246,
      "ķ": 247,
      "ĸ": 248,
      "Ĺ": 249,
      "ĺ": 250,
      "Ļ": 251,
      "ļ": 252,
      "Ľ": 253,
      "ľ": 254,
      "Ŀ": 255,
      "ŀ": 256,
      "Ł": 257,
      "ł": 258,
      "Ń": 259,
      "wa": 260,
      "Ġt": 261,
      "Ġa": 262,
      "he": 263,
      "Ġk": 264,
      "in": 265,
      "Ġm": 266,
      "ha": 267,
      "Ġs": 268,
      "Ġn": 269,
      "Ġwa": 270,
      "li": 271,
      "an": 272,
      "čĊ": 273,
      "Ġthe": 274,
      "nd": 275,
      "ya": 276,
      "re": 277,
      "Ġb": 278,
      "at": 279,
      "is": 280,
      "on": 281,
      "Ġku": 282,
      "ed": 283,
      "en": 284,
      "it": 285,
      "Ġya": 286,
      "Ġc": 287,
      "er": 288,
      "Ġto": 289,
      "Ġna": 290,
      "Ġw": 291,
      "Ġf": 292,
      "ka": 293,
      "la": 294,
      "Ġand": 295,
      "Ġp": 296,
      "le": 297,
      "Ġh": 298,
      "ar": 299,
      "Ġu": 300,
      "ou": 301,
      "ĠT": 302,
      "Ġd": 303,
      "am": 304,
      "im": 305,
      "ing": 306,
      "Ġha": 307,
      "or": 308,
      "om": 309,
      "ia": 310,
      "es": 311,
      "ĠM": 312,
      "za": 313,
      "id": 314,
      "ot": 315,
      "ri": 316,
      "Ġma": 317,
      "ati": 318,
      "Ġin": 319,
      "un": 320,
      "ĠS": 321,
      "Ġo": 322,
      "ba": 323,
      "ku": 324,
      "ll": 325,
      "ili": 326,
      "Ġkwa": 327,
      "ke": 328,
      "um": 329,
      "Ġsa": 330,
      "Ġwas": 331,
      "ch": 332,
      "Ġv": 333,
      "ĠThe": 334,
      "Ġhe": 335,
      "Ġof": 336,
      "Ġg": 337,
      "as": 338,
      "et": 339,
      "zi": 340,
      "ĠK": 341,
      "ir": 342,
      "na": 343,
      "yo": 344,
      "lo": 345,
      "ki": 346,
      "ut": 347,
      "ĠH": 348,
      "hi": 349,
      "ad": 350,
      "ĠA": 351,
      "us": 352,
      "we": 353,
      "Ġy": 354,
      "ic": 355,
      "ji": 356,
      "ig": 357,
      "ĠI": 358,
      "Ġe": 359,
      "Ġli": 360,
      "al": 361,
      "ma": 362,
      "ĠB": 363,
      "Ġla": 364,
      "ent": 365,
      "ye": 366,
      "Ġit": 367,
      "ra": 368,
      "ta": 369,
      "ro": 370,
      "âĢ": 371,
      "ana": 372,
      "Ġza": 373,
      "ly": 374,
      "end": 375,
      "Ġbe": 376,
      "ve": 377,
      "hat": 378,
      "ini": 379,
      "Ġkati": 380,
      "ani": 381,
      "gu": 382,
      "Ġni": 383,
      "Ġhi": 384,
      "ko": 385,
      "mba": 386,
      "ld": 387,
      "ĠW": 388,
      "to": 389,
      "ith": 390,
      "se": 391,
      "fu": 392,
      "Ġre": 393,
      "ce": 394,
      "Ġwith": 395,
      "Ġkatika": 396,
      "Ġj": 397,
      "bu": 398,
      "Ġ\"": 399,
      "ay": 400,
      "Ġon": 401,
      "ow": 402,
      "ĠL": 403,
      "Ġhu": 404,
      "ja": 405,
      "st": 406,
      "pp": 407,
      "tu": 408,
      "ĠC": 409,
      "ĠThey": 410,
      "Ġ(": 411,
      "ge": 412,
      "ĠHe": 413,
      "Ġis": 414,
      "zo": 415,
      "nt": 416,
      "her": 417,
      "ĠN": 418,
      "Ġyou": 419,
      "Ġki": 420,
      "Ġba": 421,
      "and": 422,
      "sa": 423,
      "po": 424,
      "Ġfor": 425,
      "go": 426,
      "Ġpla": 427,
      "Ġwe": 428,
      "Ġthat": 429,
      "ga": 430,
      "ct": 431,
      "Ġ1": 432,
      "Ġcha": 433,
      "Ġali": 434,
      "Ġhis": 435,
      "ne": 436,
      "ina": 437,
      "ĠU": 438,
      "si": 439,
      "enye": 440,
      "Ġth": 441,
      "Ġsaid": 442,
      "Ġkuwa": 443,
      "Ġday": 444,
      "ama": 445,
      "Ġplay": 446,
      "di": 447,
      "ata": 448,
      "ur": 449,
      "ver": 450,
      "Ġst": 451,
      "ked": 452,
      "Ġup": 453,
      "me": 454,
      "if": 455,
      "Ġan": 456,
      "Ġlo": 457,
      "isha": 458,
      "Ġas": 459,
      "Ġher": 460,
      "ime": 461,
      "ĠP": 462,
      "Ġl": 463,
      "ho": 464,
      "ĠShe": 465,
      "kuwa": 466,
      "ck": 467,
      "ion": 468,
      "ter": 469,
      "ĠJ": 470,
      "ĠD": 471,
      "Ġnot": 472,
      "ĠTim": 473,
      "ika": 474,
      "Ġamba": 475,
      "Ġ2": 476,
      "oo": 477,
      "ĠMa": 478,
      "ara": 479,
      "ele": 480,
      "il": 481,
      "Ġthey": 482,
      "Ġbig": 483,
      "Ġdo": 484,
      "Ġmo": 485,
      "ari": 486,
      "Ġz": 487,
      "gh": 488,
      "Ġse": 489,
      "Ġili": 490,
      "Ġhad": 491,
      "ind": 492,
      "Ġso": 493,
      "out": 494,
      "fan": 495,
      "ĠR": 496,
      "ine": 497,
      "wenye": 498,
      "tt": 499,
      "ation": 500,
      "Ġta": 501,
      "Ġle": 502,
      "Ġne": 503,
      "Ġhapp": 504,
      "Ġr": 505,
      "ita": 506,
      "ily": 507,
      "ould": 508,
      "ote": 509,
      "ua": 510,
      "bo": 511,
      "Ġmwa": 512,
      "Ġfri": 513,
      "'s": 514,
      "Ġfriend": 515,
      "pe": 516,
      "mu": 517,
      "ĠF": 518,
      "pa": 519,
      "Ġare": 520,
      "el": 521,
      "ĠO": 522,
      "Ġwant": 523,
      "ound": 524,
      "ery": 525,
      "ome": 526,
      "Ġka": 527,
      "sh": 528,
      "00": 529,
      "The": 530,
      "ĠE": 531,
      "Ġat": 532,
      "Ġvery": 533,
      "ud": 534,
      "idi": 535,
      "Ġwana": 536,
      "Ġsh": 537,
      "Ġkuto": 538,
      "sha": 539,
      "cha": 540,
      "Ġwere": 541,
      "Ġshe": 542,
      "Ġhappy": 543,
      "ide": 544,
      "Ġtime": 545,
      "Ġkama": 546,
      "rom": 547,
      "ĠG": 548,
      "Ġbut": 549,
      "med": 550,
      "Ġsaw": 551,
      "ungu": 552,
      "bi": 553,
      "Ġthere": 554,
      "art": 555,
      "Ġde": 556,
      "red": 557,
      "ug": 558,
      "Ġbo": 559,
      "ttle": 560,
      ".\"": 561,
      "Ġlittle": 562,
      "Ġmom": 563,
      "vyo": 564,
      "ill": 565,
      "ĠâĢ": 566,
      "eng": 567,
      "ue": 568,
      "Ġwali": 569,
      "Ġvi": 570,
      "ved": 571,
      "Ġall": 572,
      "Ġcan": 573,
      "ish": 574,
      "ry": 575,
      "ĠY": 576,
      "che": 577,
      "kati": 578,
      "be": 579,
      "ĠčĊ": 580,
      "ul": 581,
      "mo": 582,
      "ys": 583,
      "ano": 584,
      "ate": 585,
      "Ġkwenye": 586,
      "est": 587,
      "ame": 588,
      "ĠIt": 589,
      "fa": 590,
      "Ġina": 591,
      "Ġor": 592,
      "ada": 593,
      "one": 594,
      "Ġex": 595,
      "Ġnamed": 596,
      "chi": 597,
      "lp": 598,
      "ers": 599,
      "ila": 600,
      "Ġal": 601,
      "Ġkup": 602,
      "ĠLily": 603,
      "Ġhave": 604,
      "Ġvya": 605,
      "nce": 606,
      "ird": 607,
      "te": 608,
      "Ġtheir": 609,
      "Ġwanted": 610,
      "ght": 611,
      "eo": 612,
      "Ġfriends": 613,
      "Ġtoo": 614,
      "Ġhelp": 615,
      "Ġca": 616,
      "han": 617,
      "âĢĻ": 618,
      "ĠTom": 619,
      "!\"": 620,
      "fanya": 621,
      "ss": 622,
      "Ġsi": 623,
      "Ġme": 624,
      "Ġi": 625,
      "ĠWa": 626,
      "kana": 627,
      "Ġtu": 628,
      "Ġny": 629,
      "ree": 630,
      "ca": 631,
      "hus": 632,
      "Ġpo": 633,
      "Ġman": 634,
      "Ġbird": 635,
      "ble": 636,
      "ong": 637,
      "Ġfrom": 638,
      "Ġloo": 639,
      "hen": 640,
      "other": 641,
      "âĢĿ": 642,
      "iti": 643,
      "oto": 644,
      "ol": 645,
      "de": 646,
      "Ġyake": 647,
      "Ġcon": 648,
      "Ġpro": 649,
      "ifa": 650,
      "weza": 651,
      "oni": 652,
      "get": 653,
      "Ġwent": 654,
      "ist": 655,
      "ze": 656,
      "ood": 657,
      "asi": 658,
      "lly": 659,
      "fe": 660,
      "Once": 661,
      "th": 662,
      "ung": 663,
      "Ġau": 664,
      "kiwa": 665,
      "Ġuna": 666,
      "iwa": 667,
      "Ġana": 668,
      "ru": 669,
      "anz": 670,
      "Ġupon": 671,
      "bwa": 672,
      "imu": 673,
      "uri": 674,
      "Ġfun": 675,
      "our": 676,
      "Ġmu": 677,
      "Ġro": 678,
      "uni": 679,
      "Ġout": 680,
      "Ġgo": 681,
      "Ġhiyo": 682,
      "ment": 683,
      "kini": 684,
      "Ġdid": 685,
      "fi": 686,
      "One": 687,
      "Ġ19": 688,
      "Ġmi": 689,
      "ep": 690,
      "Ġby": 691,
      "je": 692,
      "amo": 693,
      "Ġwatu": 694,
      "Ġar": 695,
      "ima": 696,
      "Ġcom": 697,
      "una": 698,
      "uli": 699,
      "Ġthem": 700,
      "igh": 701,
      "gether": 702,
      "Ġus": 703,
      "Ġwor": 704,
      "ust": 705,
      "cho": 706,
      "Ġkwamba": 707,
      "atu": 708,
      "Ġcould": 709,
      "amu": 710,
      "isi": 711,
      "ali": 712,
      "Ġam": 713,
      "Ġtogether": 714,
      "ant": 715,
      "Ġsu": 716,
      "qu": 717,
      "ple": 718,
      "Ġra": 719,
      "Ġcat": 720,
      "Ġ20": 721,
      "isa": 722,
      "ark": 723,
      "ingi": 724,
      "Ġen": 725,
      "ort": 726,
      "ĠV": 727,
      "Ġkut": 728,
      "ĠKi": 729,
      "ishi": 730,
      "ni": 731,
      "vi": 732,
      "em": 733,
      "ania": 734,
      "Ġhim": 735,
      "ema": 736,
      "Ġmwaka": 737,
      "Ġdog": 738,
      "Ġwan": 739,
      "uu": 740,
      "Ġpa": 741,
      "Ġother": 742,
      "sema": 743,
      "uma": 744,
      "Ġfa": 745,
      "Ġzaidi": 746,
      "Ġim": 747,
      "Ġmat": 748,
      "hiri": 749,
      "Ġhii": 750,
      "ard": 751,
      "ess": 752,
      "Ġwake": 753,
      "ti": 754,
      "uku": 755,
      "Ġkutoka": 756,
      "ĠâĢľ": 757,
      "irl": 758,
      "'t": 759,
      "bali": 760,
      "res": 761,
      "Ġthis": 762,
      "Ġsha": 763,
      "da": 764,
      "ice": 765,
      "Ġfound": 766,
      "endele": 767,
      "vu": 768,
      "very": 769,
      "Ġpia": 770,
      "ful": 771,
      "Ġgirl": 772,
      "?\"": 773,
      "my": 774,
      "Ġplayed": 775,
      "ast": 776,
      "king": 777,
      "anga": 778,
      "Ġwill": 779,
      "Ġball": 780,
      "kuu": 781,
      "ous": 782,
      "mb": 783,
      "Ma": 784,
      "ume": 785,
      "Ġwould": 786,
      "ĠMungu": 787,
      "Ġab": 788,
      "Ġnd": 789,
      "hari": 790,
      "od": 791,
      "uti": 792,
      "Ġmw": 793,
      "Ġlike": 794,
      "ond": 795,
      "Ġwakati": 796,
      "Ġyour": 797,
      "Ġuli": 798,
      "ang": 799,
      "Ġfe": 800,
      "lia": 801,
      "Ġnew": 802,
      "pot": 803,
      "Ġkum": 804,
      "Ġho": 805,
      "Ġwat": 806,
      "adi": 807,
      "ial": 808,
      "ng": 809,
      "ings": 810,
      "anzania": 811,
      "ach": 812,
      "Ġback": 813,
      "Ġtree": 814,
      "Ġsm": 815,
      "Ġsad": 816,
      "angu": 817,
      ").": 818,
      "ongo": 819,
      "ris": 820,
      "Ġsana": 821,
      "uc": 822,
      "ore": 823,
      "itu": 824,
      "wan": 825,
      "ito": 826,
      "ham": 827,
      "side": 828,
      "hu": 829,
      "Ġawa": 830,
      "erika": 831,
      "anda": 832,
      "Ġmore": 833,
      "Ġboy": 834,
      "now": 835,
      "Ġbaada": 836,
      "ite": 837,
      "ity": 838,
      "ona": 839,
      "Ġcar": 840,
      "Ġye": 841,
      "Ġlooked": 842,
      "Ġ3": 843,
      "Ġloved": 844,
      "husu": 845,
      "Ġwhi": 846,
      "ty": 847,
      "rou": 848,
      "omet": 849,
      "etu": 850,
      "ingine": 851,
      "Ġte": 852,
      "kia": 853,
      "so": 854,
      "pen": 855,
      "Ġkazi": 856,
      "per": 857,
      "nda": 858,
      "Ġsee": 859,
      "chini": 860,
      "Ġ201": 861,
      "ci": 862,
      "Ġlakini": 863,
      "hed": 864,
      "esha": 865,
      "Ġstart": 866,
      "rd": 867,
      "Ġpre": 868,
      "Ġambayo": 869,
      "Ġsome": 870,
      "Ġ-": 871,
      "Ġmake": 872,
      "Ġun": 873,
      "Ġwho": 874,
      "..": 875,
      "zwa": 876,
      "amoja": 877,
      "ĠSue": 878,
      "Ġhivyo": 879,
      "Ġwhat": 880,
      "ato": 881,
      "Ġmoja": 882,
      "umia": 883,
      "ambo": 884,
      "hing": 885,
      "Ġnchini": 886,
      "ĠBut": 887,
      "ĠBen": 888,
      "ĠIn": 889,
      "ĠMax": 890,
      "ouse": 891,
      "enda": 892,
      "Ġno": 893,
      "erikali": 894,
      "ĠOne": 895,
      "Ġabout": 896,
      "jia": 897,
      "Ġame": 898,
      "ction": 899,
      "Ġone": 900,
      "Ġgood": 901,
      "babu": 902,
      "kwa": 903,
      "Ġad": 904,
      "Ġco": 905,
      "ugha": 906,
      "onge": 907,
      "elt": 908,
      "Ġweng": 909,
      "mall": 910,
      "use": 911,
      "reat": 912,
      "ĠAf": 913,
      "ks": 914,
      "Ġwhen": 915,
      "Ġpark": 916,
      "ĠSam": 917,
      "Ġtoy": 918,
      "ran": 919,
      "Ġsmall": 920,
      "kea": 921,
      "Ġjuu": 922,
      "Ġnchi": 923,
      "ĠZ": 924,
      "Ġpamoja": 925,
      "Ġsomet": 926,
      "arn": 927,
      "uta": 928,
      "liwa": 929,
      "own": 930,
      "ishwa": 931,
      "Ġhuo": 932,
      "ven": 933,
      "Ġkus": 934,
      "Ġliked": 935,
      "wn": 936,
      "Ġfelt": 937,
      "Ġaf": 938,
      "ary": 939,
      "ight": 940,
      "Ġmade": 941,
      "Ġcame": 942,
      "Ġmb": 943,
      "Ġstarted": 944,
      "his": 945,
      "Ġkila": 946,
      "iled": 947,
      "Ġndi": 948,
      "ira": 949,
      "ĠTanzania": 950,
      "Ġasked": 951,
      "ob": 952,
      "Ġch": 953,
      "umu": 954,
      "Ġfind": 955,
      "Ġpic": 956,
      "ny": 957,
      "Ġzina": 958,
      "indi": 959,
      "Ġthou": 960,
      "Ġhas": 961,
      "Ġevery": 962,
      "Ġknow": 963,
      "ĠSa": 964,
      "umi": 965,
      "ive": 966,
      "Ġthan": 967,
      "Ġsp": 968,
      "les": 969,
      "Ġuta": 970,
      "ĠNa": 971,
      "ami": 972,
      "ited": 973,
      "ried": 974,
      "Ġ200": 975,
      "oma": 976,
      "bari": 977,
      "kubwa": 978,
      "fun": 979,
      "Ġsiku": 980,
      "ise": 981,
      "gain": 982,
      "ida": 983,
      "moja": 984,
      "co": 985,
      "koa": 986,
      "Ġime": 987,
      "Ġhome": 988,
      "bia": 989,
      "ure": 990,
      "Ġhali": 991,
      "zaji": 992,
      "Ġinto": 993,
      "fany": 994,
      "iny": 995,
      "Ġagain": 996,
      "Ġany": 997,
      "Ġwal": 998,
      "),": 999,
      "Ġput": 1000,
      "Ġmara": 1001,
      "Ġlearn": 1002,
      "ical": 1003,
      "ff": 1004,
      "Ġgr": 1005,
      "ene": 1006,
      "Ġmy": 1007,
      "Ġmany": 1008,
      "Ġthen": 1009,
      "oth": 1010,
      "dy": 1011,
      "Ġsomething": 1012,
      "asa": 1013,
      "Ġaway": 1014,
      "Ġmtu": 1015,
      "Ġdown": 1016,
      "ase": 1017,
      "pata": 1018,
      "eni": 1019,
      "Ġsmiled": 1020,
      "low": 1021,
      "Ġambao": 1022,
      "Ġsasa": 1023,
      "Ġthought": 1024,
      "ory": 1025,
      "ndi": 1026,
      "Ġms": 1027,
      "int": 1028,
      "Ġmbali": 1029,
      ",\"": 1030,
      "Ġget": 1031,
      "ĠYou": 1032,
      "ak": 1033,
      "pt": 1034,
      "nder": 1035,
      "jili": 1036,
      "Ġspe": 1037,
      "adhi": 1038,
      "Ġiliyo": 1039,
      "ated": 1040,
      "os": 1041,
      "Ġsababu": 1042,
      "ĠKwa": 1043,
      "Ġkab": 1044,
      "Ġran": 1045,
      "ogo": 1046,
      "zuri": 1047,
      "Ġaround": 1048,
      "cc": 1049,
      "Ġdec": 1050,
      "Ġmp": 1051,
      "endelea": 1052,
      "Ġ4": 1053,
      "ub": 1054,
      "Ġyao": 1055,
      "isho": 1056,
      "ves": 1057,
      "for": 1058,
      "Ġut": 1059,
      "Ġhilo": 1060,
      "Ġhuu": 1061,
      "pi": 1062,
      "Ġnje": 1063,
      "ĠSo": 1064,
      "Ġhata": 1065,
      "Ġsca": 1066,
      "ora": 1067,
      "Ġndani": 1068,
      "Ġplaying": 1069,
      "log": 1070,
      "Ġwhich": 1071,
      "no": 1072,
      "Ġaka": 1073,
      "Ġkuj": 1074,
      "Ġzili": 1075,
      "Ùİ": 1076,
      "kani": 1077,
      "Ġkuhusu": 1078,
      "Ġkwan": 1079,
      "Ġbec": 1080,
      "Ġfi": 1081,
      "Ġwater": 1082,
      "here": 1083,
      "anza": 1084,
      "Ġ5": 1085,
      "Ġres": 1086,
      "Ġthings": 1087,
      "Ġri": 1088,
      "Ġhouse": 1089,
      "Ġpl": 1090,
      "Ġhawa": 1091,
      "Ġkufanya": 1092,
      "Ġsur": 1093,
      "Ġmaj": 1094,
      "ump": 1095,
      "ving": 1096,
      "Ġmia": 1097,
      "ĠSpot": 1098,
      "cause": 1099,
      "Ġtook": 1100,
      "Ġits": 1101,
      "âĢľ": 1102,
      "Ġapp": 1103,
      "ces": 1104,
      "Ġstu": 1105,
      "ĠAn": 1106,
      "Ġsto": 1107,
      "Ġkubwa": 1108,
      "Ġbet": 1109,
      "Ġwalio": 1110,
      "Ġzi": 1111,
      "hemu": 1112,
      "Ġneed": 1113,
      "Ġpart": 1114,
      "Ġbad": 1115,
      "uda": 1116,
      "Ġalso": 1117,
      "ft": 1118,
      "Ġwame": 1119,
      "Ġred": 1120,
      "Ġkam": 1121,
      "imi": 1122,
      "ew": 1123,
      "eople": 1124,
      "Ġyana": 1125,
      "Ġmt": 1126,
      "ĠAfri": 1127,
      "lled": 1128,
      "Ġbox": 1129,
      "ence": 1130,
      "Ġsun": 1131,
      "Ġfam": 1132,
      "Ġunder": 1133,
      "Ġper": 1134,
      "port": 1135,
      "Ġkwe": 1136,
      "ars": 1137,
      "ance": 1138,
      "Ġwao": 1139,
      "Ġscared": 1140,
      "Ġif": 1141,
      "Ġbecause": 1142,
      "Ġmiaka": 1143,
      "pped": 1144,
      "Ġinc": 1145,
      "ook": 1146,
      "Ġhow": 1147,
      "Ġkuli": 1148,
      "ĠRa": 1149,
      "ations": 1150,
      "ĠHa": 1151,
      "taka": 1152,
      "ĠTa": 1153,
      "Ġtw": 1154,
      "Ġmag": 1155,
      "Ġshow": 1156,
      "ĠAnd": 1157,
      "Ġsays": 1158,
      "ilia": 1159,
      "zung": 1160,
      "kam": 1161,
      "Ġover": 1162,
      "umb": 1163,
      "umba": 1164,
      "Ġyali": 1165,
      "als": 1166,
      "Ġtoys": 1167,
      "ors": 1168,
      "Ġtuna": 1169,
      "ĠBa": 1170,
      "Ġkwanza": 1171,
      "Ġlong": 1172,
      "Ġkuna": 1173,
      "oa": 1174,
      "Ġga": 1175,
      "Ġfo": 1176,
      "Ġlot": 1177,
      "Ġlived": 1178,
      "lar": 1179,
      "zing": 1180,
      "Ġkid": 1181,
      "rent": 1182,
      "ĠWe": 1183,
      "zungum": 1184,
      "jini": 1185,
      "Ġhadi": 1186,
      "ons": 1187,
      "ition": 1188,
      "Ġcol": 1189,
      "Ġpeople": 1190,
      "Ġpe": 1191,
      "Ġalisema": 1192,
      "Ġkuji": 1193,
      "Ġmas": 1194,
      "Ġboth": 1195,
      "Ġcare": 1196,
      "hidi": 1197,
      "Ġkis": 1198,
      "hy": 1199,
      "Ġum": 1200,
      "gg": 1201,
      "hesh": 1202,
      "ĠSt": 1203,
      "ount": 1204,
      "any": 1205,
      "unge": 1206,
      "Ġak": 1207,
      "mer": 1208,
      "Ġpr": 1209,
      "cted": 1210,
      "kazi": 1211,
      "Ġhat": 1212,
      "ĠAl": 1213,
      "Ġgot": 1214,
      "ord": 1215,
      "ps": 1216,
      "ere": 1217,
      "ĠMia": 1218,
      "ugh": 1219,
      "Ġyako": 1220,
      "cial": 1221,
      "ents": 1222,
      "hali": 1223,
      "ways": 1224,
      "Ġdis": 1225,
      "zima": 1226,
      "heria": 1227,
      "Ġbest": 1228,
      "Ġqu": 1229,
      "wezi": 1230,
      "Tim": 1231,
      "va": 1232,
      "Ġhayo": 1233,
      "Ġuwe": 1234,
      "ĠKu": 1235,
      "Wa": 1236,
      "ins": 1237,
      "Ġkne": 1238,
      "Ġwote": 1239,
      "har": 1240,
      "ign": 1241,
      "Ġalikuwa": 1242,
      "Ġmuda": 1243,
      "ided": 1244,
      "Ġmaisha": 1245,
      "ucy": 1246,
      "Ġtried": 1247,
      "chuku": 1248,
      "mi": 1249,
      "uru": 1250,
      "Ġwenye": 1251,
      "eno": 1252,
      "irst": 1253,
      "mbali": 1254,
      "ĠKa": 1255,
      "wi": 1256,
      "Ġeach": 1257,
      "ress": 1258,
      "uzi": 1259,
      "000": 1260,
      "Ġdi": 1261,
      "lf": 1262,
      "Ġmuch": 1263,
      "imbo": 1264,
      "Ġcont": 1265,
      "Ġche": 1266,
      "itaji": 1267,
      "du": 1268,
      "ĠâĢĵ": 1269,
      "ony": 1270,
      "ans": 1271,
      "Ġuj": 1272,
      "Ġmwan": 1273,
      "ane": 1274,
      "ink": 1275,
      "ĠJo": 1276,
      "bad": 1277,
      "Ġmwenye": 1278,
      "gi": 1279,
      "Ġbecame": 1280,
      "ult": 1281,
      "Ġsta": 1282,
      "Ġaki": 1283,
      "row": 1284,
      "Ġopen": 1285,
      "atika": 1286,
      "ass": 1287,
      "Ġume": 1288,
      "lic": 1289,
      "Ġexc": 1290,
      "ungo": 1291,
      "kut": 1292,
      "Ġnjia": 1293,
      "ĠLa": 1294,
      "Ġinayo": 1295,
      "Ġalways": 1296,
      "chagu": 1297,
      "esema": 1298,
      "lewa": 1299,
      "himu": 1300,
      "ĠCh": 1301,
      "Ġjust": 1302,
      "enya": 1303,
      "ilaya": 1304,
      "Ġhabari": 1305,
      "ande": 1306,
      "ena": 1307,
      "wana": 1308,
      "Ġeat": 1309,
      "ambu": 1310,
      "heshim": 1311,
      "ick": 1312,
      "ened": 1313,
      "Ġrun": 1314,
      "ĠJa": 1315,
      "gr": 1316,
      "Ġlugha": 1317,
      "ally": 1318,
      "itia": 1319,
      "omba": 1320,
      "Lily": 1321,
      "Ġbu": 1322,
      "idia": 1323,
      "Ġmmoja": 1324,
      "ool": 1325,
      "Ġda": 1326,
      "heshimiwa": 1327,
      "usi": 1328,
      "jibu": 1329,
      "Ġknew": 1330,
      "llow": 1331,
      "Ġwengi": 1332,
      ".âĢĿ": 1333,
      "hitaji": 1334,
      "ziri": 1335,
      "umo": 1336,
      "Ġfeel": 1337,
      "Ġhatu": 1338,
      "Ġoff": 1339,
      "kwe": 1340,
      "kio": 1341,
      "shara": 1342,
      "AN": 1343,
      "Ġchi": 1344,
      "Ġoutside": 1345,
      "Ġambaye": 1346,
      "Ġajili": 1347,
      "lu": 1348,
      "Ġnyingi": 1349,
      "Ġkitu": 1350,
      "Ġsehemu": 1351,
      "ren": 1352,
      "Ġmad": 1353,
      "aribu": 1354,
      "Ġour": 1355,
      "Ġ6": 1356,
      "bit": 1357,
      "kisha": 1358,
      "20": 1359,
      "yote": 1360,
      "Ġfu": 1361,
      "Ġmbalimbali": 1362,
      "badili": 1363,
      "Ġend": 1364,
      "19": 1365,
      "Kwa": 1366,
      "Ġlearned": 1367,
      "amii": 1368,
      "Vi": 1369,
      "sion": 1370,
      "Ġlili": 1371,
      "ĠAfrika": 1372,
      "Ġbeen": 1373,
      "ĠMwenye": 1374,
      "Ġtake": 1375,
      "Ġhaki": 1376,
      "ule": 1377,
      "vent": 1378,
      "Ġ18": 1379,
      "Ġchini": 1380,
      "Ġkupata": 1381,
      "Ġsc": 1382,
      "Ġhili": 1383,
      "Ġuse": 1384,
      "oro": 1385,
      "icha": 1386,
      "Ġwata": 1387,
      "hiriki": 1388,
      "rekani": 1389,
      "anchi": 1390,
      "Ġvile": 1391,
      "Ġroom": 1392,
      "iz": 1393,
      "iki": 1394,
      "Ġbila": 1395,
      "Ġserikali": 1396,
      "Ġkim": 1397,
      "lamu": 1398,
      "Ġnaf": 1399,
      "Ġkili": 1400,
      "weka": 1401,
      "Ġclo": 1402,
      "Ġusa": 1403,
      "Ġhuyo": 1404,
      "limu": 1405,
      "kata": 1406,
      "ĠLucy": 1407,
      "inga": 1408,
      "ongeza": 1409,
      "man": 1410,
      "ombe": 1411,
      "Ġtra": 1412,
      "amba": 1413,
      "Ġhigh": 1414,
      "bili": 1415,
      "jwa": 1416,
      "Ġfood": 1417,
      "Ġstr": 1418,
      "Ġkuu": 1419,
      "engo": 1420,
      "Ġdecided": 1421,
      "Ġhand": 1422,
      "ĠThis": 1423,
      "Ġeven": 1424,
      "Ġdif": 1425,
      "Ġmeng": 1426,
      "ataifa": 1427,
      "ango": 1428,
      "endo": 1429,
      "xt": 1430,
      "pris": 1431,
      "Ġambapo": 1432,
      "Ġshould": 1433,
      "Ġafter": 1434,
      "era": 1435,
      "Ġmambo": 1436,
      "Ġanim": 1437,
      "ched": 1438,
      "ip": 1439,
      "Ġfirst": 1440,
      "Ġcle": 1441,
      "Ġes": 1442,
      "ughed": 1443,
      "Ġlaughed": 1444,
      "Ġkit": 1445,
      "Ġold": 1446,
      "Ġmwana": 1447,
      "urn": 1448,
      "gon": 1449,
      "Ġita": 1450,
      "cks": 1451,
      "Ġaliye": 1452,
      "Ġhuku": 1453,
      "Ġjump": 1454,
      "rit": 1455,
      "They": 1456,
      "arifa": 1457,
      "ket": 1458,
      "mbu": 1459,
      "ie": 1460,
      "ĠSerikali": 1461,
      "Ġcomp": 1462,
      "haa": 1463,
      "kes": 1464,
      "Ġwengine": 1465,
      "Ġid": 1466,
      "ĠAli": 1467,
      "ĠMom": 1468,
      "pita": 1469,
      "pig": 1470,
      "wala": 1471,
      "ĠPa": 1472,
      "Ġkuku": 1473,
      "risto": 1474,
      "Ġtwo": 1475,
      "ĠRe": 1476,
      "hirika": 1477,
      "anya": 1478,
      "wili": 1479,
      "Ġke": 1480,
      "cy": 1481,
      "Ġzao": 1482,
      "edha": 1483,
      "Ġkina": 1484,
      "shind": 1485,
      "Ġlook": 1486,
      "Ġsk": 1487,
      "Ġeneo": 1488,
      "futa": 1489,
      "ture": 1490,
      "Yes": 1491,
      "ens": 1492,
      "kala": 1493,
      "Ġlet": 1494,
      "Ø§": 1495,
      "Ġhaya": 1496,
      "ota": 1497,
      "Ġdad": 1498,
      "Ġmay": 1499,
      "Ġngu": 1500,
      "ms": 1501,
      "Ġtold": 1502,
      "kili": 1503,
      "Ġhapa": 1504,
      "Ġmet": 1505,
      "com": 1506,
      "Ġkutokana": 1507,
      "Ġinside": 1508,
      "lls": 1509,
      "Ġnice": 1510,
      "Ġide": 1511,
      "ĠKenya": 1512,
      "uka": 1513,
      "unga": 1514,
      "Ġexp": 1515,
      "fauti": 1516,
      "Ġsy": 1517,
      "ates": 1518,
      "Ġexcited": 1519,
      "fanyika": 1520,
      "ĠHis": 1521,
      "Ġhizo": 1522,
      "Ġnafasi": 1523,
      "rib": 1524,
      "ĠMwa": 1525,
      "Ġyote": 1526,
      "amini": 1527,
      "Ġway": 1528,
      "Ġsurpris": 1529,
      "Ġleo": 1530,
      "ĠMarekani": 1531,
      "Ġused": 1532,
      "ĠMas": 1533,
      "rt": 1534,
      "imba": 1535,
      "ath": 1536,
      "Ġ7": 1537,
      "Tom": 1538,
      "Ġnyingine": 1539,
      "ĠAs": 1540,
      "lama": 1541,
      "fore": 1542,
      "Ġmaana": 1543,
      "oud": 1544,
      "enzi": 1545,
      "Ġwork": 1546,
      "ber": 1547,
      "cts": 1548,
      "Ġprett": 1549,
      "Ġhivi": 1550,
      "Ġdes": 1551,
      "ĠRais": 1552,
      "eti": 1553,
      "gozi": 1554,
      "But": 1555,
      "ĠMt": 1556,
      "haki": 1557,
      "Ġzote": 1558,
      "Ġpretty": 1559,
      ",âĢĿ": 1560,
      "ling": 1561,
      "Ġchan": 1562,
      "Ġhatua": 1563,
      "ĠMu": 1564,
      "Ġmis": 1565,
      "Ġkutoa": 1566,
      "lew": 1567,
      "ning": 1568,
      "Ġbl": 1569,
      "Ġmar": 1570,
      "Ġnear": 1571,
      "Ġcla": 1572,
      "Ġlist": 1573,
      "Ġkip": 1574,
      "Ġac": 1575,
      "Ġhao": 1576,
      "dha": 1577,
      "tain": 1578,
      "Ġbetter": 1579,
      "ĠMkuu": 1580,
      "ÙĦ": 1581,
      "Ġgave": 1582,
      "Ġread": 1583,
      "Ġtr": 1584,
      "ĠHi": 1585,
      "land": 1586,
      "eneo": 1587,
      "Ġwhere": 1588,
      "Ġflow": 1589,
      "Ġonly": 1590,
      "atia": 1591,
      "Ġmap": 1592,
      "Ġkupitia": 1593,
      "fuata": 1594,
      "Ġ10": 1595,
      "Ġsw": 1596,
      "ile": 1597,
      "Ġkind": 1598,
      "Ġlina": 1599,
      "vid": 1600,
      "jua": 1601,
      "Ġmaji": 1602,
      "Ġyetu": 1603,
      "Ġasili": 1604,
      "Ġmuhimu": 1605,
      "Ġchild": 1606,
      "rough": 1607,
      "Ġdon": 1608,
      "Ġgreat": 1609,
      "Ta": 1610,
      "Ġcli": 1611,
      "rehe": 1612,
      "Ġilikuwa": 1613,
      "hn": 1614,
      "eshi": 1615,
      "||": 1616,
      "umbe": 1617,
      "ush": 1618,
      "In": 1619,
      "ea": 1620,
      "Viungo": 1621,
      "amb": 1622,
      "Ġfish": 1623,
      "Ġkia": 1624,
      "Ġfar": 1625,
      "Ġkuta": 1626,
      "sili": 1627,
      "iasa": 1628,
      "enga": 1629,
      "ibu": 1630,
      "Ġhuko": 1631,
      "asema": 1632,
      "Ġcomm": 1633,
      "Ġtry": 1634,
      "Ġkabisa": 1635,
      "Ġwananchi": 1636,
      "Ġsay": 1637,
      "form": 1638,
      "orry": 1639,
      "udd": 1640,
      "dhi": 1641,
      "Ġfast": 1642,
      "ono": 1643,
      "He": 1644,
      "Ġjina": 1645,
      "ĠMo": 1646,
      "Ġji": 1647,
      "Ġwanao": 1648,
      "iv": 1649,
      "lop": 1650,
      "Ġ8": 1651,
      "ĠâĢĺ": 1652,
      "Ġbeing": 1653,
      "bab": 1654,
      "Ġtena": 1655,
      "Ġkusa": 1656,
      "ies": 1657,
      "Ġyenye": 1658,
      "ced": 1659,
      "ational": 1660,
      "ions": 1661,
      "kiti": 1662,
      "Ġcl": 1663,
      "led": 1664,
      "omo": 1665,
      "waida": 1666,
      "Ġnow": 1667,
      "Ġwar": 1668,
      "ĠCha": 1669,
      "paka": 1670,
      "Ġmji": 1671,
      "Ġ199": 1672,
      "atibu": 1673,
      "Ġfore": 1674,
      "fari": 1675,
      "Ġhud": 1676,
      "up": 1677,
      "Ġbin": 1678,
      "Ġwatoto": 1679,
      "io": 1680,
      "zaliwa": 1681,
      "Ġkutumia": 1682,
      "uala": 1683,
      "Ġ9": 1684,
      "Ġmost": 1685,
      "Ġzake": 1686,
      "Ġanimals": 1687,
      "atizo": 1688,
      "Ġthese": 1689,
      "shi": 1690,
      "Ġstill": 1691,
      "lie": 1692,
      "yu": 1693,
      "ten": 1694,
      "Na": 1695,
      "Ġidea": 1696,
      "Ġthrough": 1697,
      "Ġhai": 1698,
      "ingia": 1699,
      "Ġhasa": 1700,
      "Ġdiffe": 1701,
      "Ġbr": 1702,
      "ilioni": 1703,
      "iashara": 1704,
      "Ġbado": 1705,
      "vers": 1706,
      "Ġkawaida": 1707,
      "Ġsorry": 1708,
      "ream": 1709,
      "alth": 1710,
      "Ġhuduma": 1711,
      "Ġlea": 1712,
      "arch": 1713,
      "ild": 1714,
      "As": 1715,
      "ĠBob": 1716,
      "onekana": 1717,
      "atikana": 1718,
      "Ġulio": 1719,
      "Ġwaki": 1720,
      "Ġbro": 1721,
      "ose": 1722,
      "Ġhapo": 1723,
      "Ġnever": 1724,
      "Ġwako": 1725,
      "zama": 1726,
      "Ġpoli": 1727,
      "Ġambazo": 1728,
      "inu": 1729,
      "Ġhard": 1730,
      "hank": 1731,
      "ereza": 1732,
      "husi": 1733,
      "mp": 1734,
      "Ġbar": 1735,
      "Ba": 1736,
      "Ġdidn": 1737,
      "chukua": 1738,
      "ĠSe": 1739,
      "Ġzilizo": 1740,
      "reen": 1741,
      "weze": 1742,
      "Ġamesema": 1743,
      "Ġcho": 1744,
      "Ġmkuu": 1745,
      "oke": 1746,
      "esa": 1747,
      "Ġwalked": 1748,
      "Ġturn": 1749,
      "Ġti": 1750,
      "Ġbear": 1751,
      "iongozi": 1752,
      "ern": 1753,
      "Ġdhidi": 1754,
      "Ġtal": 1755,
      "Ġmaeneo": 1756,
      "Ġaina": 1757,
      "Ġkweli": 1758,
      "Hi": 1759,
      "Ġwhile": 1760,
      "Ġmasha": 1761,
      "ĠAr": 1762,
      "ative": 1763,
      "Ġtofauti": 1764,
      "fsi": 1765,
      "Ġmbili": 1766,
      "fani": 1767,
      "lud": 1768,
      "Ġnili": 1769,
      "fiki": 1770,
      "sed": 1771,
      "jo": 1772,
      "unia": 1773,
      "puni": 1774,
      "ĠNi": 1775,
      "zu": 1776,
      "Ġkabla": 1777,
      "Ġbora": 1778,
      "Ġikiwa": 1779,
      "Ġfedha": 1780,
      "Ġshare": 1781,
      "Ġhappened": 1782,
      "ingereza": 1783,
      "hili": 1784,
      "ser": 1785,
      "Ġcome": 1786,
      "kele": 1787,
      "Ġimport": 1788,
      "hind": 1789,
      "Ġkita": 1790,
      "und": 1791,
      "Ġspecial": 1792,
      "Ġag": 1793,
      "Ġata": 1794,
      "rans": 1795,
      "by": 1796,
      "oria": 1797,
      "endeleo": 1798,
      "Ġwind": 1799,
      "Ġsho": 1800,
      "day": 1801,
      "imes": 1802,
      "ting": 1803,
      "Ġacc": 1804,
      "gged": 1805,
      "Ġsky": 1806,
      "ende": 1807,
      "Ġheard": 1808,
      "Ġele": 1809,
      "ĠDo": 1810,
      "Ġfamily": 1811,
      "Ġnguvu": 1812,
      "ĠPo": 1813,
      "Ali": 1814,
      "katifu": 1815,
      "Ġsuch": 1816,
      "ough": 1817,
      "ĠHer": 1818,
      "penda": 1819,
      "Ġbaadhi": 1820,
      "ĠDa": 1821,
      "Ġser": 1822,
      "bar": 1823,
      "anzi": 1824,
      "Ġmkubwa": 1825,
      "ener": 1826,
      "Ġzinazo": 1827,
      "ract": 1828,
      "vy": 1829,
      "Wali": 1830,
      "onyesha": 1831,
      "Ġwale": 1832,
      "Ġnini": 1833,
      "Ġblo": 1834,
      "Ġtaarifa": 1835,
      "Ha": 1836,
      "ined": 1837,
      "Ġmf": 1838,
      "Ġmpya": 1839,
      "kula": 1840,
      "ombo": 1841,
      "Ġupande": 1842,
      "Ġsheria": 1843,
      "ĠWhen": 1844,
      "ese": 1845,
      "Ġbasi": 1846,
      "Ġhizi": 1847,
      "mia": 1848,
      "Ġbug": 1849,
      "Ġbefore": 1850,
      "more": 1851,
      "hara": 1852,
      "cess": 1853,
      "ĠUn": 1854,
      "kubali": 1855,
      "Ġsafe": 1856,
      "uto": 1857,
      "Ġcalled": 1858,
      "ges": 1859,
      "ric": 1860,
      "gan": 1861,
      "Ġmon": 1862,
      "ward": 1863,
      "Ġfly": 1864,
      "Ġwak": 1865,
      "ster": 1866,
      "vel": 1867,
      "iko": 1868,
      "fikia": 1869,
      "Ġground": 1870,
      "ĠDar": 1871,
      "ific": 1872,
      "Ġinter": 1873,
      "chaguzi": 1874,
      "Ġmk": 1875,
      "aru": 1876,
      "lis": 1877,
      "stem": 1878,
      "Ġclean": 1879,
      "Ġcount": 1880,
      "Ġbara": 1881,
      "islamu": 1882,
      "Ġgra": 1883,
      "ĠAmy": 1884,
      "esi": 1885,
      "Ġvita": 1886,
      "jana": 1887,
      "Ġunt": 1888,
      "Ġlake": 1889,
      "Ġbiashara": 1890,
      "yari": 1891,
      "Ġright": 1892,
      "Ġndio": 1893,
      "ĠBo": 1894,
      "Ġakiwa": 1895,
      "ĠSp": 1896,
      "Ġsli": 1897,
      "velop": 1898,
      "baya": 1899,
      "faa": 1900,
      "Ġmcha": 1901,
      "ete": 1902,
      "self": 1903,
      "You": 1904,
      "adamu": 1905,
      "ĠDe": 1906,
      "Ġjo": 1907,
      "Ġkad": 1908,
      "Ġown": 1909,
      "It": 1910,
      "Ġplace": 1911,
      "iche": 1912,
      "Ġhist": 1913,
      "Ġbra": 1914,
      "ĠPro": 1915,
      "cent": 1916,
      "rej": 1917,
      "Ġkiasi": 1918,
      "Ġrep": 1919,
      "Ġwetu": 1920,
      "Ġcareful": 1921,
      "Ġlots": 1922,
      "itwa": 1923,
      "amani": 1924,
      "Ġyears": 1925,
      "ĠNew": 1926,
      "Ġhak": 1927,
      "ute": 1928,
      "zed": 1929,
      "Ġ15": 1930,
      "pected": 1931,
      "ib": 1932,
      "ĠThen": 1933,
      "Ġdifferent": 1934,
      "ron": 1935,
      "Ġjambo": 1936,
      "HA": 1937,
      "Ġhicho": 1938,
      "fano": 1939,
      "wango": 1940,
      "Ġuch": 1941,
      "chool": 1942,
      "Ġever": 1943,
      "Ġlove": 1944,
      "Ġflew": 1945,
      "refu": 1946,
      "ondo": 1947,
      "Ġtre": 1948,
      "Ġnam": 1949,
      "Ġinclud": 1950,
      "Thank": 1951,
      "ph": 1952,
      "Ġuntil": 1953,
      "Ġanymore": 1954,
      "ĠKit": 1955,
      "uch": 1956,
      "Ġusi": 1957,
      "Ġob": 1958,
      "Walio": 1959,
      "Ġvy": 1960,
      "We": 1961,
      "Ġfollow": 1962,
      "Ġrock": 1963,
      "Ġimportant": 1964,
      "Ġpu": 1965,
      "ughuli": 1966,
      "ments": 1967,
      "usha": 1968,
      "usa": 1969,
      "ino": 1970,
      "Ġwell": 1971,
      "Ġyeye": 1972,
      "yed": 1973,
      "LI": 1974,
      "ĠWaziri": 1975,
      "Ġkwenda": 1976,
      "Mom": 1977,
      "insi": 1978,
      "rew": 1979,
      "ics": 1980,
      "ater": 1981,
      "WA": 1982,
      "fect": 1983,
      "Ġmche": 1984,
      "ĠKam": 1985,
      "hisi": 1986,
      "Katika": 1987,
      "Ġvit": 1988,
      "udden": 1989,
      "ĠIs": 1990,
      "rel": 1991,
      "pas": 1992,
      "Ġdra": 1993,
      "arden": 1994,
      "Ġmit": 1995,
      "ĠCan": 1996,
      "Ġjamii": 1997,
      "engene": 1998,
      "Ġstrong": 1999,
      "Ġmwisho": 2000,
      "MA": 2001,
      "anisa": 2002,
      "Ġnext": 2003,
      "kee": 2004,
      "Ġgive": 2005,
      "ire": 2006,
      "ĠBe": 2007,
      "Ġchang": 2008,
      "Ġlazima": 2009,
      "laam": 2010,
      "ĠRo": 2011,
      "Ġidadi": 2012,
      "ĠAnna": 2013,
      "ger": 2014,
      "Ġuwezo": 2015,
      "ames": 2016,
      "ĠMkoa": 2017,
      "ongozi": 2018,
      "Ġworld": 2019,
      "Ġkufu": 2020,
      "Ġkaribu": 2021,
      "Ġyangu": 2022,
      "mber": 2023,
      "âĢ¦": 2024,
      "aji": 2025,
      "ishaji": 2026,
      "Ġiki": 2027,
      "lin": 2028,
      "ĠEvery": 2029,
      "Ġdoes": 2030,
      "ĠFrom": 2031,
      "su": 2032,
      "Ġyo": 2033,
      "uniani": 2034,
      "kari": 2035,
      "Ġshiny": 2036,
      "Ġchama": 2037,
      "Ġadd": 2038,
      "Ġkeep": 2039,
      "Ġ,": 2040,
      "Ġune": 2041,
      "Ġkwani": 2042,
      "umizi": 2043,
      "ather": 2044,
      "Ġunaweza": 2045,
      "Ġgarden": 2046,
      "ating": 2047,
      "ww": 2048,
      "Ġfur": 2049,
      "ĠAm": 2050,
      "Ġblue": 2051,
      "kur": 2052,
      "Let": 2053,
      "ample": 2054,
      "rog": 2055,
      "uddenly": 2056,
      "Ġwala": 2057,
      "lease": 2058,
      "mbe": 2059,
      "ork": 2060,
      "Ġkundi": 2061,
      "zia": 2062,
      "Ġtimu": 2063,
      "Ġsupp": 2064,
      "ĠMe": 2065,
      "anisha": 2066,
      "ĠJohn": 2067,
      "Ġclimb": 2068,
      "An": 2069,
      "ÙĲ": 2070,
      "Ġvis": 2071,
      "Mheshimiwa": 2072,
      "orn": 2073,
      "wake": 2074,
      "damu": 2075,
      "Ġstory": 2076,
      "eta": 2077,
      "vuti": 2078,
      "keza": 2079,
      "Ġmta": 2080,
      "biwa": 2081,
      "Ġmali": 2082,
      "Ġopened": 2083,
      "gonjwa": 2084,
      "Ġko": 2085,
      "Ġ.": 2086,
      "zini": 2087,
      "lugha": 2088,
      "Ġhurt": 2089,
      "roud": 2090,
      "Ġcake": 2091,
      "adili": 2092,
      "ash": 2093,
      "10": 2094,
      "'m": 2095,
      "Ġmbele": 2096,
      "fika": 2097,
      "Ġhakuna": 2098,
      "asha": 2099,
      "lam": 2100,
      "Ġwewe": 2101,
      "amuzi": 2102,
      "ped": 2103,
      "Ġtatu": 2104,
      "Ġmpaka": 2105,
      "its": 2106,
      "tle": 2107,
      "Ġgi": 2108,
      "Ġproud": 2109,
      "Ġsurprised": 2110,
      "Ġpos": 2111,
      "buni": 2112,
      "Ġmed": 2113,
      "Ġpers": 2114,
      "Ġama": 2115,
      "ĠÙ": 2116,
      "Ġvizuri": 2117,
      "ĠTo": 2118,
      "Ġwakazi": 2119,
      "Ġdoor": 2120,
      "Ġkipindi": 2121,
      "Ġbea": 2122,
      "Ġpicked": 2123,
      "Ġforest": 2124,
      "Ġkuanz": 2125,
      "Ġpili": 2126,
      "ĠØ": 2127,
      "Ġhum": 2128,
      "hud": 2129,
      "Ġkute": 2130,
      "Ġloud": 2131,
      "kutano": 2132,
      "Ġunex": 2133,
      "Ġdevelop": 2134,
      "wali": 2135,
      "No": 2136,
      "ower": 2137,
      "pokuwa": 2138,
      "Ġtarehe": 2139,
      "Ġ12": 2140,
      "Ġmawa": 2141,
      "Ġunexpected": 2142,
      "ĠKus": 2143,
      "Ġsystem": 2144,
      "hamu": 2145,
      "Ġviongozi": 2146,
      "zazi": 2147,
      "What": 2148,
      "Ġmor": 2149,
      "ĠYes": 2150,
      "Ġmin": 2151,
      "Ġph": 2152,
      "CM": 2153,
      "wer": 2154,
      "Ġsec": 2155,
      "bara": 2156,
      "Ġwaka": 2157,
      "patikana": 2158,
      "Ġset": 2159,
      "Ġkij": 2160,
      "uring": 2161,
      "ĠQ": 2162,
      "hani": 2163,
      "ataka": 2164,
      "lisha": 2165,
      "read": 2166,
      "ĠSara": 2167,
      "ezi": 2168,
      "illi": 2169,
      "Ġtayari": 2170,
      "eleza": 2171,
      "Ġbas": 2172,
      "Ġmn": 2173,
      "Ġkids": 2174,
      "Ġmaka": 2175,
      "ken": 2176,
      "unti": 2177,
      "Ġpres": 2178,
      "Ġjinsi": 2179,
      "Ġinv": 2180,
      "ĠCom": 2181,
      "babisha": 2182,
      "zingira": 2183,
      "lea": 2184,
      "Ġyaliyo": 2185,
      "Ġvitu": 2186,
      "Ġsing": 2187,
      "Ġbook": 2188,
      "ular": 2189,
      "zungumza": 2190,
      "yama": 2191,
      "Ġelimu": 2192,
      "ctor": 2193,
      "pewa": 2194,
      "que": 2195,
      "eter": 2196,
      "Ġshi": 2197,
      "Ġkuliko": 2198,
      "kay": 2199,
      "Ġtreat": 2200,
      "Ġhugged": 2201,
      "Ġthanked": 2202,
      "fungu": 2203,
      "con": 2204,
      "ries": 2205,
      "Ġmfano": 2206,
      "ret": 2207,
      "Ġras": 2208,
      "funzi": 2209,
      "ĠMwenyekiti": 2210,
      "kweli": 2211,
      "unguza": 2212,
      "Ġmwingine": 2213,
      "cher": 2214,
      "Ġduniani": 2215,
      "uck": 2216,
      "Ġkuka": 2217,
      "geme": 2218,
      "ution": 2219,
      "ĠLe": 2220,
      "orm": 2221,
      "Ġcons": 2222,
      "logy": 2223,
      "Ġpale": 2224,
      "Ġsub": 2225,
      "ummy": 2226,
      "ĠYesu": 2227,
      "umika": 2228,
      "Ġtown": 2229,
      "iga": 2230,
      "yes": 2231,
      "kuja": 2232,
      "Ġant": 2233,
      "ween": 2234,
      "mali": 2235,
      "Ġgrow": 2236,
      "umla": 2237,
      "Ġact": 2238,
      "ulu": 2239,
      "Ġsoft": 2240,
      "lojia": 2241,
      "chang": 2242,
      "enu": 2243,
      "iria": 2244,
      "LA": 2245,
      "Ġed": 2246,
      "Ġ'": 2247,
      "kt": 2248,
      "Ġuka": 2249,
      "rodha": 2250,
      "ĠAb": 2251,
      "Ġang": 2252,
      "When": 2253,
      "ĠWilaya": 2254,
      "ĠKis": 2255,
      "gy": 2256,
      "haribi": 2257,
      "huri": 2258,
      "outh": 2259,
      "Ġwam": 2260,
      "RI": 2261,
      "Ġwalikuwa": 2262,
      "Ġchildren": 2263,
      "ĠHo": 2264,
      "Ġless": 2265,
      "ĠKatika": 2266,
      "mw": 2267,
      "ton": 2268,
      "ÙĴ": 2269,
      "zani": 2270,
      "Ġndiyo": 2271,
      "Ġgani": 2272,
      "Ġnamna": 2273,
      "Ġhealth": 2274,
      "Ġjumped": 2275,
      "hes": 2276,
      "tur": 2277,
      "Ġmengi": 2278,
      "ĠNo": 2279,
      "ities": 2280,
      "Ġhuwa": 2281,
      "bunge": 2282,
      "paswa": 2283,
      "hati": 2284,
      "Ġuchaguzi": 2285,
      "ĠMar": 2286,
      "kosa": 2287,
      "Ġothers": 2288,
      "Ġhere": 2289,
      "Ġje": 2290,
      "llo": 2291,
      "Ġmengine": 2292,
      "gram": 2293,
      "utiful": 2294,
      "oun": 2295,
      "lish": 2296,
      "ants": 2297,
      "elekea": 2298,
      "Ġju": 2299,
      "kamili": 2300,
      "jer": 2301,
      "hakikisha": 2302,
      "Ġshowed": 2303,
      "amia": 2304,
      "Ġpop": 2305,
      "ĠSalaam": 2306,
      "pokea": 2307,
      "\".": 2308,
      "Ġmtoto": 2309,
      "Ġ0": 2310,
      "Ku": 2311,
      "Ġmwezi": 2312,
      "Ġkata": 2313,
      "anzibar": 2314,
      "TA": 2315,
      "Ġmjini": 2316,
      "shindi": 2317,
      "Ġkun": 2318,
      "Ġbeautiful": 2319,
      "Ġ17": 2320,
      "Ġambalo": 2321,
      "Ġwr": 2322,
      "Ġile": 2323,
      "Ġgreen": 2324,
      "ĠYa": 2325,
      "Ġwalk": 2326,
      "kama": 2327,
      "Ġbri": 2328,
      "Ġmsingi": 2329,
      "meric": 2330,
      "Ġ16": 2331,
      "Ġimp": 2332,
      "Ġbetween": 2333,
      "andao": 2334,
      "Ġmus": 2335,
      "Ġgame": 2336,
      "ature": 2337,
      "kw": 2338,
      "Ġsimu": 2339,
      "Ġthree": 2340,
      "ert": 2341,
      "ĠVi": 2342,
      "Ġlar": 2343,
      "Ġmwili": 2344,
      "Ġhelped": 2345,
      "Ġplan": 2346,
      "reed": 2347,
      "ĠSh": 2348,
      "Ġeveryone": 2349,
      "Ġshule": 2350,
      "Ġyoyote": 2351,
      "huru": 2352,
      "Ġmaneno": 2353,
      "juli": 2354,
      "Ġmean": 2355,
      "Ġcra": 2356,
      "wanja": 2357,
      "Ġhaving": 2358,
      "Ġdr": 2359,
      "Ġhead": 2360,
      "Ġvina": 2361,
      "Ġmaendeleo": 2362,
      "alme": 2363,
      "...": 2364,
      "Ġbus": 2365,
      "engine": 2366,
      "Ġasilimia": 2367,
      "Ġland": 2368,
      "aska": 2369,
      "igi": 2370,
      "huo": 2371,
      "gra": 2372,
      "amua": 2373,
      "Ġgoing": 2374,
      "Ġtangu": 2375,
      "ual": 2376,
      "ject": 2377,
      "ĠKusini": 2378,
      "Ġsio": 2379,
      "Ġint": 2380,
      "Ġwanawake": 2381,
      "ds": 2382,
      "Ġ198": 2383,
      "Ġkule": 2384,
      "Ġwazi": 2385,
      "Ġincre": 2386,
      "der": 2387,
      "inda": 2388,
      "laya": 2389,
      "ugu": 2390,
      "Ùı": 2391,
      "izara": 2392,
      "ĠLakini": 2393,
      "ctions": 2394,
      "Ġwh": 2395,
      "dai": 2396,
      "vo": 2397,
      "thing": 2398,
      "Ġlisten": 2399,
      "Ġrain": 2400,
      "cus": 2401,
      "Ġboat": 2402,
      "Ġnyumba": 2403,
      "Ġbed": 2404,
      "Ġlin": 2405,
      "Ġtuli": 2406,
      "inafsi": 2407,
      "ambia": 2408,
      "Ġdata": 2409,
      "py": 2410,
      "ots": 2411,
      "ÙĨ": 2412,
      "Ġgu": 2413,
      "Ġful": 2414,
      "18": 2415,
      "Ġsame": 2416,
      "age": 2417,
      "Ġafya": 2418,
      "Ġmujibu": 2419,
      "Ġmust": 2420,
      "Ġschool": 2421,
      "Ġkile": 2422,
      "Ġtrans": 2423,
      "Ġmove": 2424,
      "wani": 2425,
      "ĠInt": 2426,
      "qua": 2427,
      "ĠAt": 2428,
      "Ġtop": 2429,
      "Ġkui": 2430,
      "Ġhara": 2431,
      "Ġtri": 2432,
      "formation": 2433,
      "gue": 2434,
      "Ġmilioni": 2435,
      "Ġnumb": 2436,
      "leep": 2437,
      "Ġsawa": 2438,
      "Ġkadhaa": 2439,
      "Ġanother": 2440,
      "ict": 2441,
      "Ġkuongeza": 2442,
      "penzi": 2443,
      "Ġwarm": 2444,
      "Ġinst": 2445,
      "Ġkiwango": 2446,
      "Ġfrog": 2447,
      "ĠLet": 2448,
      "umiwa": 2449,
      "Ġnod": 2450,
      "Ġlost": 2451,
      "Ġatt": 2452,
      "ished": 2453,
      "zea": 2454,
      "SA": 2455,
      "ishia": 2456,
      "Ġhappily": 2457,
      "rejeo": 2458,
      "Ġcry": 2459,
      "lah": 2460,
      "Ġtru": 2461,
      "ĠMwaka": 2462,
      "ĠĠ": 2463,
      "ĠInd": 2464,
      "Ġmsa": 2465,
      "Ġlife": 2466,
      "fariki": 2467,
      "Ġkusema": 2468,
      "Ġsign": 2469,
      "ĠGe": 2470,
      "cle": 2471,
      "Ġsit": 2472,
      "Ġsim": 2473,
      "biti": 2474,
      "adala": 2475,
      "ĠZanzibar": 2476,
      "ĠMi": 2477,
      "ex": 2478,
      "kta": 2479,
      "ui": 2480,
      "Tazama": 2481,
      "Ġflo": 2482,
      "Ġkuv": 2483,
      "Ġstud": 2484,
      "Ġyanayo": 2485,
      "ĠWat": 2486,
      "This": 2487,
      "Ġbuild": 2488,
      "wepo": 2489,
      "ĠKristo": 2490,
      "Ġuk": 2491,
      "nivers": 2492,
      "Ġmfumo": 2493,
      "Ġrese": 2494,
      "andi": 2495,
      "Ġmimi": 2496,
      "Ġlight": 2497,
      "Can": 2498,
      "hudi": 2499,
      "umbani": 2500,
      "Ġdunia": 2501,
      "lima": 2502,
      "cheza": 2503,
      "Ġmaking": 2504,
      "Ġwatch": 2505,
      "unny": 2506,
      "stand": 2507,
      "12": 2508,
      "ĠWA": 2509,
      "ĠTaifa": 2510,
      "laka": 2511,
      "askazini": 2512,
      "ls": 2513,
      "ĠCon": 2514,
      "ĠJu": 2515,
      "org": 2516,
      "Ġfamilia": 2517,
      "iro": 2518,
      "Ġsat": 2519,
      "eb": 2520,
      "Ġcent": 2521,
      "ther": 2522,
      "umbu": 2523,
      "less": 2524,
      "Af": 2525,
      "Ġsuala": 2526,
      "Ġprom": 2527,
      "Ġmazingira": 2528,
      "Ġgener": 2529,
      "hariki": 2530,
      "dogo": 2531,
      "ring": 2532,
      "Ġsoon": 2533,
      "Marejeo": 2534,
      "ĠThere": 2535,
      "umani": 2536,
      "idhaa": 2537,
      "Ġent": 2538,
      "Ġnzuri": 2539,
      "Ġmaal": 2540,
      "Ġsqu": 2541,
      "Ġhut": 2542,
      "ĠCo": 2543,
      "tern": 2544,
      "Ġmkoa": 2545,
      "ner": 2546,
      "La": 2547,
      "Ġtaifa": 2548,
      "ĠAmeric": 2549,
      "Ġkua": 2550,
      "Ġ14": 2551,
      "andishi": 2552,
      "Ġinaweza": 2553,
      "IN": 2554,
      "amad": 2555,
      "Ġfin": 2556,
      "Ġstopped": 2557,
      "ichezo": 2558,
      "ept": 2559,
      "Ġmatumizi": 2560,
      "ria": 2561,
      "Ġzime": 2562,
      "kundi": 2563,
      "wanda": 2564,
      "pes": 2565,
      "Ġsound": 2566,
      "Ġcre": 2567,
      "uliwa": 2568,
      "Ġdha": 2569,
      "Ġub": 2570,
      "anu": 2571,
      "ches": 2572,
      "Ġkwake": 2573,
      "ince": 2574,
      "eld": 2575,
      "Ġfulani": 2576,
      "arne": 2577,
      "So": 2578,
      "Ġthose": 2579,
      "ross": 2580,
      "aratibu": 2581,
      "fo": 2582,
      "Ġhands": 2583,
      "Ġhus": 2584,
      "Ġreg": 2585,
      "Ġhug": 2586,
      "âĢĶ": 2587,
      "aran": 2588,
      "asisi": 2589,
      "sive": 2590,
      "Ġmagic": 2591,
      "Ġprodu": 2592,
      "ĠSi": 2593,
      "Ġnamba": 2594,
      "Ġkampuni": 2595,
      "arufu": 2596,
      "Ġflowers": 2597,
      "Ġart": 2598,
      "Ġpoint": 2599,
      "okeo": 2600,
      "ety": 2601,
      "Ġproble": 2602,
      "Ġng": 2603,
      "KA": 2604,
      "Ġmatokeo": 2605,
      "Ġpekee": 2606,
      "Ġvili": 2607,
      "Ġvijana": 2608,
      "Ġmko": 2609,
      "ade": 2610,
      "ĠKati": 2611,
      "Ġsisi": 2612,
      "Ġmwenyewe": 2613,
      "Ġhot": 2614,
      "Ġrais": 2615,
      "fiti": 2616,
      "vern": 2617,
      "ĠKim": 2618,
      "husiano": 2619,
      "Ġjana": 2620,
      "rid": 2621,
      "ĠMr": 2622,
      "Ġmouse": 2623,
      "rest": 2624,
      "hariri": 2625,
      "ffy": 2626,
      "ublic": 2627,
      "Ġbinadamu": 2628,
      "ĠJe": 2629,
      "jerumani": 2630,
      "ness": 2631,
      "Ġrest": 2632,
      "do": 2633,
      "Ġ11": 2634,
      "Ġpower": 2635,
      "Ġfell": 2636,
      "Ġexper": 2637,
      "lack": 2638,
      "zuia": 2639,
      "Ġce": 2640,
      "Ġdham": 2641,
      "Ġlooking": 2642,
      "vis": 2643,
      "Ġthink": 2644,
      "Ġ|": 2645,
      "ĠMtume": 2646,
      "Ġate": 2647,
      "ining": 2648,
      "Ġukweli": 2649,
      "Ġkuhakikisha": 2650,
      "200": 2651,
      "goni": 2652,
      "Ġ13": 2653,
      "ĠYA": 2654,
      "Ġisi": 2655,
      "ĠWhat": 2656,
      "Ġyummy": 2657,
      "hibit": 2658,
      "Ġcouldn": 2659,
      "Ġangry": 2660,
      "pri": 2661,
      "ĠBara": 2662,
      "ded": 2663,
      "Ġface": 2664,
      "Ġsen": 2665,
      "zy": 2666,
      "Ġkidogo": 2667,
      "ists": 2668,
      "Ġnoise": 2669,
      "ĠUmoja": 2670,
      "Ġprote": 2671,
      "Ġrel": 2672,
      "Ġkuona": 2673,
      "jiji": 2674,
      "ĠCCM": 2675,
      "Ġstick": 2676,
      "Mto": 2677,
      "Ġlaugh": 2678,
      "zito": 2679,
      "Ġchakula": 2680,
      "Ġwangu": 2681,
      "line": 2682,
      "Ġmama": 2683,
      "Ġambacho": 2684,
      "Ġmwanam": 2685,
      "kika": 2686,
      "Ġ[": 2687,
      "pos": 2688,
      "Ġrea": 2689,
      "atukio": 2690,
      "Ġmkono": 2691,
      "Ġmakubwa": 2692,
      "Ġbali": 2693,
      "ĠMheshimiwa": 2694,
      "ungwa": 2695,
      "Ġmod": 2696,
      "luffy": 2697,
      "Ki": 2698,
      "Ġbirds": 2699,
      "Ġair": 2700,
      "Ġanaye": 2701,
      "inally": 2702,
      "Ġshughuli": 2703,
      "Ġpie": 2704,
      "Ġvo": 2705,
      "pit": 2706,
      "Ni": 2707,
      "Ġris": 2708,
      "ĠMwenyezi": 2709,
      "wapo": 2710,
      "ĠAll": 2711,
      "amlaka": 2712,
      "Ġpicha": 2713,
      "lad": 2714,
      "kua": 2715,
      "bbit": 2716,
      "ĠKitty": 2717,
      "Ġmion": 2718,
      "pend": 2719,
      "illy": 2720,
      "ori": 2721,
      "Ġunao": 2722,
      "Ġlead": 2723,
      "kus": 2724,
      "Ġef": 2725,
      "chu": 2726,
      "Ġnde": 2727,
      "Ġkura": 2728,
      "Ġiko": 2729,
      "ĠMashariki": 2730,
      "kato": 2731,
      "Ġbrave": 2732,
      "15": 2733,
      "Ben": 2734,
      "andika": 2735,
      "Ġname": 2736,
      "Ġ30": 2737,
      "Ġdist": 2738,
      "ĠKama": 2739,
      "uth": 2740,
      "Ġbegan": 2741,
      "ĠSally": 2742,
      "Ġyear": 2743,
      "Ùħ": 2744,
      "At": 2745,
      "Ġtun": 2746,
      "ĠFor": 2747,
      "ON": 2748,
      "lling": 2749,
      "ices": 2750,
      "Ġ197": 2751,
      "Ġkept": 2752,
      "Ġter": 2753,
      "Ġimani": 2754,
      "Ġ2012": 2755,
      "ones": 2756,
      "oney": 2757,
      "biri": 2758,
      "cept": 2759,
      "Ġhar": 2760,
      "âĢĵ": 2761,
      "Ġchake": 2762,
      "amizi": 2763,
      "That": 2764,
      "vor": 2765,
      "Ġuki": 2766,
      "Ġfix": 2767,
      "Ġdri": 2768,
      "Ġstore": 2769,
      "Ġhole": 2770,
      "Ġpur": 2771,
      "ĠSpika": 2772,
      "Ã©": 2773,
      "angaza": 2774,
      "Ġmash": 2775,
      "ĠIf": 2776,
      "gn": 2777,
      "ukumu": 2778,
      "EN": 2779,
      "Ġtume": 2780,
      "Ġkush": 2781,
      "endaji": 2782,
      "Ġfull": 2783,
      "Ġinte": 2784,
      "alm": 2785,
      "ĠBwana": 2786,
      "Ġty": 2787,
      "Ġmaha": 2788,
      "baki": 2789,
      "ĠTu": 2790,
      "atana": 2791,
      "RA": 2792,
      "ĠNA": 2793,
      "inzani": 2794,
      "ideo": 2795,
      "Ġperson": 2796,
      "Ka": 2797,
      "Ġ&": 2798,
      "kristo": 2799,
      "wemo": 2800,
      "jali": 2801,
      "chen": 2802,
      "piga": 2803,
      "Ġhumo": 2804,
      "ead": 2805,
      "Ġthing": 2806,
      "Ġnaye": 2807,
      "ĠNow": 2808,
      "ged": 2809,
      "Ġkula": 2810,
      "Ġsleep": 2811,
      "cient": 2812,
      "Ġnyumbani": 2813,
      "Ġmrefu": 2814,
      "Ġmight": 2815,
      "gemea": 2816,
      "ifaa": 2817,
      "zee": 2818,
      "Ġusha": 2819,
      "zungu": 2820,
      "IS": 2821,
      "wahi": 2822,
      "Baada": 2823,
      "kuta": 2824,
      "lim": 2825,
      "Ġdawa": 2826,
      "Ġenjo": 2827,
      "Ġrabbit": 2828,
      "iron": 2829,
      "ĠMA": 2830,
      "Ġslide": 2831,
      "ÙĬ": 2832,
      "Ġtruck": 2833,
      "angalia": 2834,
      "Ġcoo": 2835,
      "Ġmg": 2836,
      "sta": 2837,
      "udi": 2838,
      "wever": 2839,
      "Ġmoyo": 2840,
      "Ġswe": 2841,
      "Ġeyes": 2842,
      "funga": 2843,
      "badiliko": 2844,
      "ted": 2845,
      "Ġear": 2846,
      "irrel": 2847,
      "Ġpot": 2848,
      "Ġunderstand": 2849,
      "Ġmwe": 2850,
      "ĠMis": 2851,
      "Ġgrou": 2852,
      "kim": 2853,
      "him": 2854,
      "saidia": 2855,
      "ĠMan": 2856,
      "eto": 2857,
      "ĠUlaya": 2858,
      "Ġcond": 2859,
      "Ġalipo": 2860,
      "ungano": 2861,
      "fanywa": 2862,
      "Ġpartic": 2863,
      "fadhi": 2864,
      "Ġmchezo": 2865,
      "Ġtalk": 2866,
      "niversity": 2867,
      "Ġsna": 2868,
      "Ġlime": 2869,
      "Ġinformation": 2870,
      "Ġcour": 2871,
      "aransa": 2872,
      "Ġ196": 2873,
      "Ġloc": 2874,
      "Ġsand": 2875,
      "Ġpaper": 2876,
      "ts": 2877,
      "ĠThat": 2878,
      "fic": 2879,
      "engu": 2880,
      "Ġkushind": 2881,
      "Then": 2882,
      "ĠMwan": 2883,
      "Ġwiki": 2884,
      "50": 2885,
      "hile": 2886,
      "ambua": 2887,
      "16": 2888,
      "ndo": 2889,
      "duc": 2890,
      "Ġrasmi": 2891,
      "Ġmwanadamu": 2892,
      "Ġreme": 2893,
      "Ø§ÙĦ": 2894,
      "Ġbidhaa": 2895,
      "af": 2896,
      "Ġresult": 2897,
      "cer": 2898,
      "kumbu": 2899,
      "labu": 2900,
      "Ġsquirrel": 2901,
      "julikana": 2902,
      "Ġsmile": 2903,
      "Ġneeded": 2904,
      "zesha": 2905,
      "Ġnight": 2906,
      "ters": 2907,
      "kutana": 2908,
      "ĠUf": 2909,
      "13": 2910,
      "Ġcold": 2911,
      "Ġcatch": 2912,
      "Ġstudy": 2913,
      ".,": 2914,
      "Ġule": 2915,
      "illa": 2916,
      "idhi": 2917,
      "poti": 2918,
      "--": 2919,
      "hesa": 2920,
      "ually": 2921,
      "Ġcur": 2922,
      "Ġnao": 2923,
      "Ġtech": 2924,
      "tures": 2925,
      "Ġkimataifa": 2926,
      "fahamu": 2927,
      "Ġkuendelea": 2928,
      "Ġstand": 2929,
      "enza": 2930,
      "bility": 2931,
      "husika": 2932,
      "Ġtatizo": 2933,
      "Ġpaint": 2934,
      "amaa": 2935,
      "pect": 2936,
      "Ġkushiriki": 2937,
      "ĠNy": 2938,
      "Look": 2939,
      "Ġduring": 2940,
      "bb": 2941,
      "17": 2942,
      "ĠLo": 2943,
      "hihi": 2944,
      "kataba": 2945,
      "elewa": 2946,
      "Ġrequ": 2947,
      "Ġwait": 2948,
      "Ġwithout": 2949,
      "Ġtea": 2950,
      "Ġass": 2951,
      "anii": 2952,
      "Ġkuanza": 2953,
      "gin": 2954,
      "Ġnodded": 2955,
      "ras": 2956,
      "enge": 2957,
      "Ġform": 2958,
      "Ġcomple": 2959,
      "Ġparty": 2960,
      "riki": 2961,
      "Ġcommun": 2962,
      "Ġyame": 2963,
      "Ġumri": 2964,
      "esh": 2965,
      "ziki": 2966,
      "Ġext": 2967,
      "bs": 2968,
      "Ġtest": 2969,
      ".)": 2970,
      "Ġusing": 2971,
      "ashauri": 2972,
      "Ġref": 2973,
      "Ġmaele": 2974,
      "sis": 2975,
      "ek": 2976,
      "atwa": 2977,
      "Ġcolor": 2978,
      "Ġtable": 2979,
      "Ġkisha": 2980,
      "Ġprocess": 2981,
      "Ġchanzo": 2982,
      "ĠUingereza": 2983,
      "Ġharaka": 2984,
      "pu": 2985,
      "Ġbre": 2986,
      "Ġtrees": 2987,
      "Ġmnamo": 2988,
      "Ġzo": 2989,
      "eth": 2990,
      "Ġnumber": 2991,
      "Ġel": 2992,
      "Ġpond": 2993,
      "Ġstay": 2994,
      "Ġdark": 2995,
      "Ġawali": 2996,
      "shwa": 2997,
      "sy": 2998,
      "ĠFa": 2999,
      "Ġtabia": 3000,
      "Ġfunny": 3001,
      "goro": 3002,
      "Ġbaadaye": 3003,
      "ugenzi": 3004,
      "ansi": 3005,
      "Ġworked": 3006,
      "Ġwafanya": 3007,
      "Ġwom": 3008,
      "ĠAd": 3009,
      "TI": 3010,
      "ism": 3011,
      "Ġkuanzia": 3012,
      "sible": 3013,
      "14": 3014,
      "ĠJack": 3015,
      "ury": 3016,
      "ongoza": 3017,
      "Ġbehind": 3018,
      "ĠWakati": 3019,
      "ĠChina": 3020,
      "Ġpri": 3021,
      "Ġhaku": 3022,
      "Ġval": 3023,
      "ooks": 3024,
      "Ġhold": 3025,
      "ilamu": 3026,
      "ongeze": 3027,
      "Ġclose": 3028,
      "Ġdir": 3029,
      "uro": 3030,
      "Ġprov": 3031,
      "amoto": 3032,
      "ĠHata": 3033,
      "Ġwanafunzi": 3034,
      "chezaji": 3035,
      "Ġstudents": 3036,
      "ĠMad": 3037,
      "gani": 3038,
      "Ġdro": 3039,
      "Ġfire": 3040,
      "ishe": 3041,
      "//": 3042,
      "cia": 3043,
      "Ġtired": 3044,
      "ĠEng": 3045,
      "tani": 3046,
      "amhuri": 3047,
      "....": 3048,
      "zidi": 3049,
      "ĠTh": 3050,
      "ĠUs": 3051,
      "cies": 3052,
      "Ġwhy": 3053,
      "uliza": 3054,
      "Ġbit": 3055,
      "Ġexplo": 3056,
      "angi": 3057,
      "Waliozaliwa": 3058,
      "jiri": 3059,
      "ombea": 3060,
      "Ġmpango": 3061,
      "Ġsaa": 3062,
      "Ġnime": 3063,
      "Ġlevel": 3064,
      "ondoa": 3065,
      "ĠMus": 3066,
      "Ġkuweka": 3067,
      "Ġhiki": 3068,
      "Ġwakiwa": 3069,
      "ike": 3070,
      "radi": 3071,
      "Ġkitchen": 3072,
      "ĠOn": 3073,
      "kurugenzi": 3074,
      "ĠFluffy": 3075,
      "chama": 3076,
      "Ġshared": 3077,
      "ĠCa": 3078,
      "ĠMp": 3079,
      "Ġnina": 3080,
      "toa": 3081,
      "Ġamani": 3082,
      "zim": 3083,
      "Ġzetu": 3084,
      "ught": 3085,
      "Ġfru": 3086,
      "Ġfavor": 3087,
      "Ġmbaya": 3088,
      "firi": 3089,
      "Ġtem": 3090,
      "Ġleft": 3091,
      "Ġconf": 3092,
      "Ġflower": 3093,
      "br": 3094,
      "pon": 3095,
      "rist": 3096,
      "Ġind": 3097,
      "mon": 3098,
      "Ġlengo": 3099,
      "ĠYe": 3100,
      "kwenda": 3101,
      "Ġrace": 3102,
      "ĠHii": 3103,
      "atic": 3104,
      "Ġmiongoni": 3105,
      "Ġbunny": 3106,
      "ĠUnited": 3107,
      "Ġwhe": 3108,
      "Ġdraw": 3109,
      "elea": 3110,
      "Ġbelie": 3111,
      "itaka": 3112,
      "Ġlarge": 3113,
      "Ġwood": 3114,
      "Ġleg": 3115,
      "ĠNe": 3116,
      "the": 3117,
      "ĠOrodha": 3118,
      "Ġsunny": 3119,
      "Ġice": 3120,
      "zalisha": 3121,
      "Ġvifaa": 3122,
      "Ġadvent": 3123,
      "Ġmwanamke": 3124,
      "Ġmig": 3125,
      "pote": 3126,
      "ĠGu": 3127,
      "induzi": 3128,
      "val": 3129,
      "Ġhid": 3130,
      "Ġmahali": 3131,
      "Ġdress": 3132,
      "idha": 3133,
      "Ġmkutano": 3134,
      "wezesha": 3135,
      "Don": 3136,
      "iger": 3137,
      "://": 3138,
      "ĠSy": 3139,
      "Ġwenyewe": 3140,
      "Ġet": 3141,
      "Ġdone": 3142,
      "fupi": 3143,
      "Ġyaani": 3144,
      "nga": 3145,
      "ator": 3146,
      "NA": 3147,
      "Ġima": 3148,
      "Ġmka": 3149,
      "ĠWizara": 3150,
      "Ġgrass": 3151,
      "rown": 3152,
      "Ġmoral": 3153,
      "Ġoften": 3154,
      "Ġ25": 3155,
      "Ġcuri": 3156,
      "ĠCent": 3157,
      "Ġmabadiliko": 3158,
      "fund": 3159,
      "Ġmaarufu": 3160,
      "ĠUniversity": 3161,
      "Ġbinafsi": 3162,
      "Lugha": 3163,
      "gest": 3164,
      "Ġndege": 3165,
      "amaduni": 3166,
      "Ġwilaya": 3167,
      "cked": 3168,
      "umishi": 3169,
      "ĠMta": 3170,
      "lot": 3171,
      "ines": 3172,
      "bor": 3173,
      "Ġkuingia": 3174,
      "Ġkufikia": 3175,
      "ĠKanisa": 3176,
      "Ġulimw": 3177,
      "Ġ/": 3178,
      "ases": 3179,
      "gen": 3180,
      "wasili": 3181,
      "Tan": 3182,
      "Ġsupport": 3183,
      "Ġdamu": 3184,
      "Ġlililo": 3185,
      "Ġusalama": 3186,
      "Ġbag": 3187,
      "Ġleaves": 3188,
      "Ġkuya": 3189,
      "Ġzamani": 3190,
      "Ġanasema": 3191,
      "ĠMay": 3192,
      "ered": 3193,
      "Ġika": 3194,
      "Ġkud": 3195,
      "Ġbright": 3196,
      "ĠMs": 3197,
      "Ġdesign": 3198,
      "Ġdini": 3199,
      "ties": 3200,
      "Ġmommy": 3201,
      "Ġmke": 3202,
      "bihi": 3203,
      "Je": 3204,
      "Ġquest": 3205,
      "ici": 3206,
      "Ġfavorite": 3207,
      "Ġbody": 3208,
      "Ġtuta": 3209,
      "ĠKU": 3210,
      "wahili": 3211,
      "Ġpicture": 3212,
      "Ġappro": 3213,
      "Ġplease": 3214,
      "Ġfree": 3215,
      "Ġambavyo": 3216,
      "Hello": 3217,
      "Ġpolisi": 3218,
      "ef": 3219,
      "pele": 3220,
      "where": 3221,
      "lied": 3222,
      "atoa": 3223,
      "Ġstate": 3224,
      "Ġve": 3225,
      "Ġseen": 3226,
      "Ġnyuma": 3227,
      "Ġlim": 3228,
      "Ġkari": 3229,
      "ĠKuu": 3230,
      "viron": 3231,
      "Ġclass": 3232,
      "Ġexample": 3233,
      "Ġmita": 3234,
      "After": 3235,
      "Ġmatatizo": 3236,
      "araji": 3237,
      "ingwa": 3238,
      "pia": 3239,
      "ĠGo": 3240,
      "bore": 3241,
      "Ġkilicho": 3242,
      "ĠGa": 3243,
      "Ġwawili": 3244,
      "Ġuf": 3245,
      "Ġsure": 3246,
      "Ġzin": 3247,
      "Ġcurious": 3248,
      "nal": 3249,
      "Ġura": 3250,
      "11": 3251,
      "Ġstop": 3252,
      "Ġtas": 3253,
      "kufu": 3254,
      "Ġkumu": 3255,
      "Ġardhi": 3256,
      "Ġkujua": 3257,
      "ray": 3258,
      "Ġhig": 3259,
      "Ġfew": 3260,
      "ĠNaibu": 3261,
      "Ġsug": 3262,
      "Tanbihi": 3263,
      "Ġsong": 3264,
      "Ġyard": 3265,
      "inge": 3266,
      "Ġkutu": 3267,
      "Ġ100": 3268,
      "Ġjijini": 3269,
      "30": 3270,
      "engeneza": 3271,
      "Ġslow": 3272,
      "ban": 3273,
      "Ġtall": 3274,
      "BA": 3275,
      "bao": 3276,
      "ik": 3277,
      "Ġquick": 3278,
      "Ġinf": 3279,
      "Ġchange": 3280,
      "Ġhos": 3281,
      "Ġinterest": 3282,
      "Ġcor": 3283,
      "Ġturned": 3284,
      "Ġsita": 3285,
      "Ġthin": 3286,
      "Ġgovern": 3287,
      "Ġhuman": 3288,
      "pan": 3289,
      "Ġokay": 3290,
      "ĠBunge": 3291,
      "Ġneno": 3292,
      "22": 3293,
      "Ġvari": 3294,
      "heni": 3295,
      "Ġmichezo": 3296,
      "Ġmir": 3297,
      "Ġkuchukua": 3298,
      "Ġkan": 3299,
      "Ġmechi": 3300,
      "Ġste": 3301,
      "Ġfloor": 3302,
      "ĠWana": 3303,
      "Ġagreed": 3304,
      "Ġbadala": 3305,
      "Ġsurprise": 3306,
      "ukuru": 3307,
      "Ùĳ": 3308,
      "Ġujenzi": 3309,
      "Ġhistoria": 3310,
      "Ġila": 3311,
      "iliki": 3312,
      "Ġwalking": 3313,
      "Ġalim": 3314,
      "Ġvideo": 3315,
      "Ġru": 3316,
      "ĠEm": 3317,
      "endesha": 3318,
      "__": 3319,
      "usu": 3320,
      "Ġwin": 3321,
      "Ġkisiasa": 3322,
      "ĠUna": 3323,
      "Ġparent": 3324,
      "DA": 3325,
      "bio": 3326,
      "Ġhill": 3327,
      "ĠBu": 3328,
      "Ġuko": 3329,
      "Ġsour": 3330,
      "ain": 3331,
      "of": 3332,
      "Ġdise": 3333,
      "ĠMw": 3334,
      "nia": 3335,
      "Ġhung": 3336,
      "Ġvir": 3337,
      "ero": 3338,
      "rence": 3339,
      "Ġcontinu": 3340,
      "Ġcolors": 3341,
      "Ġchangamoto": 3342,
      "Ġusiku": 3343,
      "Ġnya": 3344,
      "Ġfact": 3345,
      "Ġmess": 3346,
      "Ġpract": 3347,
      "Ġplant": 3348,
      "fanikiwa": 3349,
      "Ġkaribuni": 3350,
      "kit": 3351,
      "Ġmada": 3352,
      "Ġsahihi": 3353,
      "fanikio": 3354,
      "ondoka": 3355,
      "harama": 3356,
      "ories": 3357,
      "Ġuchumi": 3358,
      "aster": 3359,
      "Ġfield": 3360,
      "ĠSep": 3361,
      "ÙĪ": 3362,
      "Ġfeeling": 3363,
      "keleza": 3364,
      "Ġprogram": 3365,
      "zingatia": 3366,
      "Ġhuyu": 3367,
      "ĠMat": 3368,
      "Ġmaoni": 3369,
      "lizi": 3370,
      "Ġdeli": 3371,
      "Ġpesa": 3372,
      "ĠUjerumani": 3373,
      "istoria": 3374,
      "inal": 3375,
      "Ġfla": 3376,
      "imar": 3377,
      "ĠFran": 3378,
      "Ġworry": 3379,
      "Ġfursa": 3380,
      "pitali": 3381,
      "Ġkuling": 3382,
      "ĠIm": 3383,
      "Ġspa": 3384,
      "Wakati": 3385,
      "Mwa": 3386,
      "Ġpati": 3387,
      "amp": 3388,
      "Ġumma": 3389,
      "funzo": 3390,
      "Ġvyombo": 3391,
      "Ġhatari": 3392,
      "ES": 3393,
      "Ġumeme": 3394,
      "ĠRu": 3395,
      "Ġdire": 3396,
      "Ġndogo": 3397,
      "KI": 3398,
      "Ġcars": 3399,
      "alamu": 3400,
      "engwa": 3401,
      "Ġujumbe": 3402,
      "funza": 3403,
      "Ġside": 3404,
      "ndishi": 3405,
      "ĠJum": 3406,
      "Ġvoice": 3407,
      "jito": 3408,
      "Ġwatched": 3409,
      "Ġresearch": 3410,
      "Ġhair": 3411,
      "ĠJamhuri": 3412,
      "ically": 3413,
      "let": 3414,
      "Ġemp": 3415,
      "Wow": 3416,
      "ĠMag": 3417,
      "Ġkubadili": 3418,
      "bin": 3419,
      "Ġmana": 3420,
      "hip": 3421,
      "Ġwond": 3422,
      "Ġdoll": 3423,
      "Ġpar": 3424,
      "Why": 3425,
      "cture": 3426,
      "Ġcontro": 3427,
      "Ġ50": 3428,
      "Ġyale": 3429,
      "KU": 3430,
      "Ġilivyo": 3431,
      "Ġmradi": 3432,
      "jaa": 3433,
      "Ġrunning": 3434,
      "Ġrec": 3435,
      "ĠAfter": 3436,
      "Ġtail": 3437,
      "Ġreali": 3438,
      "biashara": 3439,
      "Ġmakes": 3440,
      "Ġiliy": 3441,
      "Makala": 3442,
      "ral": 3443,
      "Ġocc": 3444,
      "Ġute": 3445,
      "Ġugonjwa": 3446,
      "To": 3447,
      "Ġlast": 3448,
      "not": 3449,
      "Ġcloser": 3450,
      "Ġkiny": 3451,
      "Ġhear": 3452,
      "Ġsweet": 3453,
      "omu": 3454,
      "weke": 3455,
      "ĠWas": 3456,
      "ĠPia": 3457,
      "ident": 3458,
      "cing": 3459,
      "wekwa": 3460,
      "ĠJanu": 3461,
      "Ġfight": 3462,
      "She": 3463,
      "unua": 3464,
      "Ġkey": 3465,
      "gle": 3466,
      "orth": 3467,
      "Ġcolle": 3468,
      "25": 3469,
      "Ġyellow": 3470,
      "vironment": 3471,
      "Ġdoing": 3472,
      "Ġheld": 3473,
      "Ġmuziki": 3474,
      "II": 3475,
      "ĠKK": 3476,
      "ĠMataifa": 3477,
      "Ġbarabara": 3478,
      "Ġwet": 3479,
      "mis": 3480,
      "Ġable": 3481,
      "room": 3482,
      "Ġblack": 3483,
      "Ġuhuru": 3484,
      "Hata": 3485,
      "Ġtoday": 3486,
      "rudi": 3487,
      "Ġjob": 3488,
      "Ġactiv": 3489,
      "vice": 3490,
      "Ġwag": 3491,
      "Ġmito": 3492,
      "Ġsometimes": 3493,
      "Ġpus": 3494,
      "asure": 3495,
      "dhibiti": 3496,
      "Ra": 3497,
      "Ġhea": 3498,
      "ongezeka": 3499,
      "fia": 3500,
      "ĠBar": 3501,
      "Ġndugu": 3502,
      "Mia": 3503,
      "Ġbutter": 3504,
      "jumbe": 3505,
      "bles": 3506,
      "dio": 3507,
      "ious": 3508,
      "Ġmafuta": 3509,
      "ilima": 3510,
      "Ġmasuala": 3511,
      "Ġready": 3512,
      "Ġcut": 3513,
      "las": 3514,
      "ĠX": 3515,
      "Ġtouch": 3516,
      "ĠId": 3517,
      "Ġbot": 3518,
      "ĠZa": 3519,
      "Ġwhite": 3520,
      "Ġrahisi": 3521,
      "Ùĩ": 3522,
      "ures": 3523,
      "Ġtum": 3524,
      "Ġklabu": 3525,
      "Ġlangu": 3526,
      "ĠDad": 3527,
      "Ġcool": 3528,
      "ange": 3529,
      "lay": 3530,
      "arth": 3531,
      "kao": 3532,
      "rah": 3533,
      "ĠBaada": 3534,
      "Ġja": 3535,
      "Ġpass": 3536,
      "Ġmamlaka": 3537,
      "ĠCol": 3538,
      "ER": 3539,
      "Ġbooks": 3540,
      "Ġpat": 3541,
      "wam": 3542,
      "Ġallow": 3543,
      "used": 3544,
      "bila": 3545,
      "ĠTr": 3546,
      "Ġreach": 3547,
      "ifu": 3548,
      "Waliofariki": 3549,
      "Ġwords": 3550,
      "ural": 3551,
      "Ġtovuti": 3552,
      "Ġanaweza": 3553,
      "Ġtell": 3554,
      "ĠAust": 3555,
      "Ġ24": 3556,
      "Ġhaja": 3557,
      "Ġjimbo": 3558,
      "Ġjumla": 3559,
      "Ġmain": 3560,
      "uaji": 3561,
      "Ġkitabu": 3562,
      "Ġ2011": 3563,
      "Ġnne": 3564,
      "Ġwrit": 3565,
      "riwa": 3566,
      "Max": 3567,
      "leta": 3568,
      "Ġpost": 3569,
      "son": 3570,
      "eli": 3571,
      "husiana": 3572,
      "Ġmsaada": 3573,
      "Ġmaalum": 3574,
      "Ġanga": 3575,
      "imo": 3576,
      "Ġndoa": 3577,
      "isy": 3578,
      "Ġwasema": 3579,
      "Jo": 3580,
      "Ġsensa": 3581,
      "lt": 3582,
      "Ġkuzi": 3583,
      "ĠØ§ÙĦ": 3584,
      "ĠTe": 3585,
      "ttp": 3586,
      "Ġkuf": 3587,
      "wezekana": 3588,
      "ler": 3589,
      "Ġbow": 3590,
      "rika": 3591,
      "zeti": 3592,
      "cket": 3593,
      "Ġnia": 3594,
      "SI": 3595,
      "Ġdays": 3596,
      "hesabiwa": 3597,
      "Ġkikubwa": 3598,
      "lisi": 3599,
      "Ġsea": 3600,
      "Ġkujenga": 3601,
      "Ġreport": 3602,
      "Ġeas": 3603,
      "Ġgharama": 3604,
      "tend": 3605,
      "teja": 3606,
      "uba": 3607,
      "Ġinay": 3608,
      "Ġkiongozi": 3609,
      "anger": 3610,
      "Ġsekta": 3611,
      "omb": 3612,
      "Ġheart": 3613,
      "'re": 3614,
      "Al": 3615,
      "ately": 3616,
      "Ġeffect": 3617,
      "Ġdeep": 3618,
      "Ġpresent": 3619,
      "Ġutawala": 3620,
      "Ġhalisi": 3621,
      "ĠSha": 3622,
      "Ġreally": 3623,
      "ased": 3624,
      "ergy": 3625,
      "Ġfilamu": 3626,
      "unguzi": 3627,
      "min": 3628,
      "Ġlady": 3629,
      "Mi": 3630,
      "conom": 3631,
      "ider": 3632,
      "Ġkw": 3633,
      "Ġben": 3634,
      "iness": 3635,
      "Ġtrying": 3636,
      "Ġbroken": 3637,
      "wl": 3638,
      "Ġkusi": 3639,
      "Ġins": 3640,
      "ulation": 3641,
      "Ġmtandao": 3642,
      "Ġmafanikio": 3643,
      "wards": 3644,
      "Ġkilimo": 3645,
      "itive": 3646,
      "Ġdan": 3647,
      "Ġshout": 3648,
      "Kama": 3649,
      "aro": 3650,
      "ĠUfaransa": 3651,
      "hic": 3652,
      "Ġkinacho": 3653,
      "Ġwasemaji": 3654,
      "lace": 3655,
      "linzi": 3656,
      "mbo": 3657,
      "ĠEx": 3658,
      "zz": 3659,
      "andaa": 3660,
      "ppy": 3661,
      "Anna": 3662,
      "itions": 3663,
      "Ġwap": 3664,
      "Ġbei": 3665,
      "ĠAna": 3666,
      "Ġuongozi": 3667,
      "âĢĿ.": 3668,
      "Ġspo": 3669,
      "chote": 3670,
      "ĠIsra": 3671,
      "kaa": 3672,
      "ets": 3673,
      "Ġbaby": 3674,
      "ĠMap": 3675,
      "Ġcoming": 3676,
      "Ġfriendly": 3677,
      "Ġyeyote": 3678,
      "mad": 3679,
      "ĠGr": 3680,
      "Ġlaw": 3681,
      "liki": 3682,
      "changia": 3683,
      "Ġdef": 3684,
      "Watu": 3685,
      "ĠFin": 3686,
      "Ġkesi": 3687,
      "Ġmot": 3688,
      "Sam": 3689,
      "Ġkifo": 3690,
      "Ġsifa": 3691,
      "ption": 3692,
      "kano": 3693,
      "stit": 3694,
      "Ġenough": 3695,
      "ĠPr": 3696,
      "Ġkijamii": 3697,
      "ganda": 3698,
      "Ġcommon": 3699,
      "Ġtaasisi": 3700,
      "ĠYork": 3701,
      "ister": 3702,
      "Mkoa": 3703,
      "Ġfair": 3704,
      "Ġswing": 3705,
      "Ġwindow": 3706,
      "nolojia": 3707,
      "ĠJane": 3708,
      "ĠChe": 3709,
      "Wilaya": 3710,
      "Ġhelping": 3711,
      "fik": 3712,
      "Ġhala": 3713,
      "logue": 3714,
      "ĠSuddenly": 3715,
      "Ġreached": 3716,
      "Ġgone": 3717,
      "boresha": 3718,
      "kosi": 3719,
      "Ġking": 3720,
      "Ġkituo": 3721,
      "Ġask": 3722,
      "Ġhungry": 3723,
      "Ġswim": 3724,
      "otolewa": 3725,
      "ĠSepte": 3726,
      "Ġgari": 3727,
      "!!": 3728,
      "dies": 3729,
      "zungumzwa": 3730,
      "Ġdance": 3731,
      "ĠApri": 3732,
      "Ġbuy": 3733,
      "Sa": 3734,
      "Ġakili": 3735,
      "Ġexplore": 3736,
      "HI": 3737,
      "cri": 3738,
      "ĠGod": 3739,
      "Ġforg": 3740,
      "ombi": 3741,
      "Ġmix": 3742,
      "Ġpublic": 3743,
      "Ġcried": 3744,
      "Ġbaba": 3745,
      "lala": 3746,
      "Ġwear": 3747,
      "ccess": 3748,
      "Ġbahari": 3749,
      "Ġmto": 3750,
      "**": 3751,
      "Ġkuishi": 3752,
      "pedia": 3753,
      "andikwa": 3754,
      "gund": 3755,
      "Ġmoto": 3756,
      "Ġdu": 3757,
      "Ġcourse": 3758,
      "Ġjeshi": 3759,
      "Ġbecome": 3760,
      "keo": 3761,
      "Ġmaelezo": 3762,
      "Ġknown": 3763,
      "lity": 3764,
      "Ġyoung": 3765,
      "hifadhi": 3766,
      "21": 3767,
      "Ġiliyofanyika": 3768,
      "Si": 3769,
      "jaribu": 3770,
      "ĠEd": 3771,
      "ĠUta": 3772,
      "Ġeduc": 3773,
      "FA": 3774,
      "ĠKiingereza": 3775,
      "Sue": 3776,
      "ĠOf": 3777,
      "Ġlater": 3778,
      "ude": 3779,
      "Ġaliwa": 3780,
      "Ġglo": 3781,
      "Ġincluding": 3782,
      "Ġsme": 3783,
      "chap": 3784,
      "oko": 3785,
      "ĠMed": 3786,
      "Ġlion": 3787,
      "Ġwanas": 3788,
      "ley": 3789,
      "UN": 3790,
      "Ġmdogo": 3791,
      "Ġmoment": 3792,
      "iced": 3793,
      "ming": 3794,
      "ĠIntern": 3795,
      "www": 3796,
      "jea": 3797,
      "chers": 3798,
      "lished": 3799,
      "Ġski": 3800,
      "Ġfill": 3801,
      "Ġsafari": 3802,
      "bal": 3803,
      "Ġyule": 3804,
      "Ġtukio": 3805,
      "sel": 3806,
      "Ġkaunti": 3807,
      "Ġhigher": 3808,
      "Ġcooki": 3809,
      "Ġutu": 3810,
      "chwa": 3811,
      "Ġwapata": 3812,
      "Ġreal": 3813,
      "ats": 3814,
      "Alisema": 3815,
      "Ġfaida": 3816,
      "imaye": 3817,
      "Ġkumi": 3818,
      "key": 3819,
      "phy": 3820,
      "rought": 3821,
      "Ġexperi": 3822,
      "Ġsiasa": 3823,
      "sti": 3824,
      "Ġkupunguza": 3825,
      "Ġkulingana": 3826,
      "ZI": 3827,
      "Ġulikuwa": 3828,
      "Ġchochote": 3829,
      "ongea": 3830,
      "Ġasi": 3831,
      "cific": 3832,
      "Ġquickly": 3833,
      "Ġclimbed": 3834,
      "Ġpen": 3835,
      "Ġcir": 3836,
      "imamia": 3837,
      "ĠHu": 3838,
      "ĠChi": 3839,
      "chagua": 3840,
      "fuatana": 3841,
      "Ġwapatao": 3842,
      "par": 3843,
      "mar": 3844,
      "ank": 3845,
      "linda": 3846,
      "umwa": 3847,
      "ĠMuungano": 3848,
      "ĠNove": 3849,
      "Do": 3850,
      "erial": 3851,
      "Ġkwao": 3852,
      "Ġblocks": 3853,
      "Ġgroup": 3854,
      "ĠMimi": 3855,
      "Ġkima": 3856,
      "Ġmv": 3857,
      "Ø±": 3858,
      "Ġmzuri": 3859,
      "onesha": 3860,
      "imamizi": 3861,
      "Ġtano": 3862,
      "imiza": 3863,
      "ĠAmerican": 3864,
      "bye": 3865,
      "hirikiano": 3866,
      "Ġvisit": 3867,
      "ĠChama": 3868,
      "cience": 3869,
      "Ġ2015": 3870,
      "ndu": 3871,
      "Ġmsimu": 3872,
      "icro": 3873,
      "Aki": 3874,
      "Ġkuk": 3875,
      "fully": 3876,
      "Ġvip": 3877,
      "fungua": 3878,
      "Ġorig": 3879,
      "Ġindi": 3880,
      "lor": 3881,
      "Ġsnow": 3882,
      "ĠEn": 3883,
      "Ġkamili": 3884,
      "gramu": 3885,
      "guzi": 3886,
      "Ġorgani": 3887,
      "set": 3888,
      "Ġndiye": 3889,
      "ĠHar": 3890,
      "vaila": 3891,
      "Ġmacho": 3892,
      "Ġstre": 3893,
      "bada": 3894,
      "Ġlooks": 3895,
      "esho": 3896,
      "Ġenergy": 3897,
      "lit": 3898,
      "Ġmafunzo": 3899,
      "ĠCar": 3900,
      "hamani": 3901,
      "Ġdhambi": 3902,
      "ĠĠčĊ": 3903,
      "pende": 3904,
      "hirik": 3905,
      "pper": 3906,
      "Ġoper": 3907,
      "ently": 3908,
      "Ġmal": 3909,
      "lii": 3910,
      "kulima": 3911,
      "Ġ2016": 3912,
      "zungumzia": 3913,
      "Ġagainst": 3914,
      "Ġmil": 3915,
      "habu": 3916,
      "ĠKig": 3917,
      "pping": 3918,
      "mit": 3919,
      "ason": 3920,
      "arabu": 3921,
      "isema": 3922,
      "ĠKaskazini": 3923,
      "PA": 3924,
      "Ġpick": 3925,
      "ĠBi": 3926,
      "une": 3927,
      "ĠSu": 3928,
      "vol": 3929,
      "ĠOk": 3930,
      "lingi": 3931,
      "ĠAllah": 3932,
      "ĠChrist": 3933,
      "way": 3934,
      "Ġwanaweza": 3935,
      "ainishaji": 3936,
      "Ġproblem": 3937,
      "HE": 3938,
      "Ġuhusiano": 3939,
      "Ġpretend": 3940,
      "ĠWiki": 3941,
      "Ġtak": 3942,
      "Ġlow": 3943,
      "Ġmik": 3944,
      "Ġliving": 3945,
      "ned": 3946,
      "Ġanything": 3947,
      "ĠKili": 3948,
      "Ġaj": 3949,
      "view": 3950,
      "logical": 3951,
      "Se": 3952,
      "24": 3953,
      "ĠWor": 3954,
      "Ġzile": 3955,
      "Ġlistened": 3956,
      "Ġmip": 3957,
      "hai": 3958,
      "come": 3959,
      "ĠIta": 3960,
      "iya": 3961,
      "ĠUt": 3962,
      "Ġmata": 3963,
      "Ġbran": 3964,
      "eshwa": 3965,
      "ĠIS": 3966,
      "Ġlab": 3967,
      "ĠDk": 3968,
      "zation": 3969,
      "can": 3970,
      "Ġkarne": 3971,
      "lan": 3972,
      "Ġwachezaji": 3973,
      "Ġhimself": 3974,
      "itiza": 3975,
      "eri": 3976,
      "ayansi": 3977,
      "Ġitakuwa": 3978,
      "Ġdream": 3979,
      "Ġmusic": 3980,
      "Ġiliyopita": 3981,
      "ushwa": 3982,
      "ĠFeb": 3983,
      "Ġbrother": 3984,
      "fuli": 3985,
      "Ġyu": 3986,
      "ĠWar": 3987,
      "Ġearly": 3988,
      "ĠMtakatifu": 3989,
      "Ġ194": 3990,
      "Ġlive": 3991,
      "illion": 3992,
      "lue": 3993,
      "Ġnayo": 3994,
      "Ġmach": 3995,
      "Ġimpro": 3996,
      "Ġshirika": 3997,
      "pema": 3998,
      "van": 3999,
      "Ġnga": 4000,
      "ĠâĢĶ": 4001,
      "Ġsauti": 4002,
      "Ġkuz": 4003,
      "jui": 4004,
      "Ġshar": 4005,
      "Ġaliyo": 4006,
      "ĠUr": 4007,
      "riri": 4008,
      "Ġband": 4009,
      "atibabu": 4010,
      "ney": 4011,
      "ĠKo": 4012,
      "Ġalone": 4013,
      "Ġparents": 4014,
      "Ġhuru": 4015,
      "Suddenly": 4016,
      "work": 4017,
      "ised": 4018,
      "atilia": 4019,
      "fad": 4020,
      "Ġmna": 4021,
      "ear": 4022,
      "ĠMult": 4023,
      "odoma": 4024,
      "ĠBobo": 4025,
      "ĠThese": 4026,
      "Ġorder": 4027,
      "ithi": 4028,
      "Ġsees": 4029,
      "Ġyan": 4030,
      "lai": 4031,
      "Ġmouth": 4032,
      "por": 4033,
      "ĠChuo": 4034,
      "Ġcloud": 4035,
      "hir": 4036,
      "Ġuainishaji": 4037,
      "Ġglad": 4038,
      "vered": 4039,
      "LAC": 4040,
      "uk": 4041,
      "lass": 4042,
      "andy": 4043,
      "chan": 4044,
      "IA": 4045,
      "Ġduck": 4046,
      "ording": 4047,
      "Ġulimwengu": 4048,
      "Sara": 4049,
      "ife": 4050,
      "nologue": 4051,
      "rud": 4052,
      "gawa": 4053,
      "Ġuwanja": 4054,
      "ĠHivyo": 4055,
      "ĠMagu": 4056,
      "Lakini": 4057,
      "tolog": 4058,
      "fuko": 4059,
      "Ġkin": 4060,
      "Ġcream": 4061,
      "sia": 4062,
      "Ġtrain": 4063,
      "icy": 4064,
      "ok": 4065,
      "Ġelect": 4066,
      "Ġwow": 4067,
      "ĠDr": 4068,
      "vun": 4069,
      "Ġhit": 4070,
      "Ġmeans": 4071,
      "Ġtakrib": 4072,
      "Ġvol": 4073,
      "ambana": 4074,
      "Ġfarm": 4075,
      "Ġbarua": 4076,
      "Ġconc": 4077,
      "Ġmaand": 4078,
      "Ġalong": 4079,
      "ental": 4080,
      "lig": 4081,
      "imbi": 4082,
      "pha": 4083,
      "fafan": 4084,
      "Ġataka": 4085,
      "hamia": 4086,
      "ering": 4087,
      "ential": 4088,
      "she": 4089,
      "Ġ40": 4090,
      "Ġhoja": 4091,
      "mok": 4092,
      "?âĢĿ": 4093,
      "ctive": 4094,
      "Ġkutosha": 4095,
      "Ġprin": 4096,
      "Ġpushed": 4097,
      "nde": 4098,
      "kiliza": 4099,
      "Ġkutafuta": 4100,
      "iblia": 4101,
      "Ġupendo": 4102,
      "Ġgames": 4103,
      "ingawa": 4104,
      "Ġnet": 4105,
      "lex": 4106,
      "Ġushindi": 4107,
      "Ġsecond": 4108,
      "Ġfour": 4109,
      "Ġsol": 4110,
      "Ġmoney": 4111,
      "Ġspot": 4112,
      "atua": 4113,
      "Ġline": 4114,
      "Ġtiny": 4115,
      "raha": 4116,
      "Ġdia": 4117,
      "Ġgovernment": 4118,
      "Ġwithin": 4119,
      "ĠOLAC": 4120,
      "Ġmiezi": 4121,
      "Ġenvironment": 4122,
      "Ġutaratibu": 4123,
      "arajiwa": 4124,
      "Ġfruit": 4125,
      "Ġdevelopment": 4126,
      "Ġhy": 4127,
      "Ġstuck": 4128,
      "vailable": 4129,
      "itoa": 4130,
      "ĠGlot": 4131,
      "ĠGlottolog": 4132,
      "Ġ21": 4133,
      "Ġzenye": 4134,
      "Am": 4135,
      "Ġthamani": 4136,
      "andma": 4137,
      "itree": 4138,
      "Ġfollowed": 4139,
      "Ġdry": 4140,
      "Ġdisease": 4141,
      "Ġ2017": 4142,
      "Ġdig": 4143,
      "ĠKufuatana": 4144,
      "mwa": 4145,
      "Ġwon": 4146,
      "Ġmahitaji": 4147,
      "Ġwafu": 4148,
      "Ġbutterf": 4149,
      "ĠMultitree": 4150,
      "Ġraia": 4151,
      "Ġkuch": 4152,
      "Ġcast": 4153,
      "kataa": 4154,
      "Ġequ": 4155,
      "Ġarea": 4156,
      "amano": 4157,
      "23": 4158,
      "Ġhistory": 4159,
      "Ġmadara": 4160,
      "Ġkuweza": 4161,
      "Ġwowote": 4162,
      "Ġmab": 4163,
      "ĠLi": 4164,
      "ertain": 4165,
      "ĠEuro": 4166,
      "Ġheavy": 4167,
      "Ġ2010": 4168,
      "Ġindivid": 4169,
      "col": 4170,
      "ambuki": 4171,
      "Ġwanyama": 4172,
      "Be": 4173,
      "Ġug": 4174,
      "Ġeff": 4175,
      "toba": 4176,
      "biki": 4177,
      "ĠSimba": 4178,
      "Ġnest": 4179,
      "Ġfall": 4180,
      "ĠAir": 4181,
      "Ġans": 4182,
      "Ġkanuni": 4183,
      "AM": 4184,
      "Ġtimes": 4185,
      "Ġsuccess": 4186,
      "indo": 4187,
      "Ġupo": 4188,
      "Ġgoodbye": 4189,
      "Ġange": 4190,
      "hindi": 4191,
      "Ġapple": 4192,
      "Ġmalipo": 4193,
      "Ġteach": 4194,
      "Ġuku": 4195,
      "ĠEveryone": 4196,
      "Ġ$": 4197,
      "imama": 4198,
      "Ġutafiti": 4199,
      "ĠSheria": 4200,
      "Ġinclude": 4201,
      "Ġaliyekuwa": 4202,
      "Ġwomen": 4203,
      "hada": 4204,
      "sions": 4205,
      "Ġlinalo": 4206,
      "jijini": 4207,
      "Ġmiradi": 4208,
      "ging": 4209,
      "Ġhide": 4210,
      "ĠFebru": 4211,
      "Ġvyote": 4212,
      "kab": 4213,
      "Ġ2007": 4214,
      "Ġsiyo": 4215,
      "Ġsomeone": 4216,
      "ID": 4217,
      "Ġkuzuia": 4218,
      "atakiwa": 4219,
      "Ġclot": 4220,
      "bile": 4221,
      "Ġdakika": 4222,
      "ap": 4223,
      "kofu": 4224,
      "lio": 4225,
      "ĠNational": 4226,
      "Ġalit": 4227,
      "Ġrema": 4228,
      "Ġingawa": 4229,
      "Ġwasio": 4230,
      "Ġ23": 4231,
      "Ġident": 4232,
      "Ġmid": 4233,
      "almashauri": 4234,
      "amin": 4235,
      "Ġviwanda": 4236,
      "Ġbreak": 4237,
      "ils": 4238,
      "makala": 4239,
      "Ġbrought": 4240,
      "Ġbeha": 4241,
      "Ġpictures": 4242,
      "Ġinayozungumzwa": 4243,
      "Ġview": 4244,
      "Ġpress": 4245,
      "kilishi": 4246,
      "ĠDodoma": 4247,
      "\",": 4248,
      "athiri": 4249,
      "26": 4250,
      "hoji": 4251,
      "Ġopp": 4252,
      "begu": 4253,
      "Ġcul": 4254,
      "Ġrangi": 4255,
      "Ġlesson": 4256,
      "Ġhazi": 4257,
      "ifi": 4258,
      "angany": 4259,
      "hadi": 4260,
      "atumia": 4261,
      "lozi": 4262,
      "Ġpast": 4263,
      "Ġmaterial": 4264,
      "pital": 4265,
      "Ġvyama": 4266,
      "ĠRi": 4267,
      "ĠRoho": 4268,
      "keb": 4269,
      "atakatifu": 4270,
      "Ġdirty": 4271,
      "ĠTimmy": 4272,
      "Ġhewa": 4273,
      "elezea": 4274,
      "husisha": 4275,
      "ĠMagufuli": 4276,
      "oms": 4277,
      "mbia": 4278,
      "ĠWatanzania": 4279,
      "Ġchair": 4280,
      "ungua": 4281,
      "Ġfre": 4282,
      "Ġcountry": 4283,
      "Ġwrong": 4284,
      "Ġcreat": 4285,
      "hammad": 4286,
      "Ġmwanzo": 4287,
      "ĠMaha": 4288,
      "Ġmeet": 4289,
      "anzishwa": 4290,
      "Ġwenza": 4291,
      "Ġtele": 4292,
      "ĠMara": 4293,
      "cious": 4294,
      "ĠKamati": 4295,
      "ii": 4296,
      "ĠKia": 4297,
      "kezo": 4298,
      "izi": 4299,
      "shukuru": 4300,
      "Ġmataifa": 4301,
      "Ġwise": 4302,
      "Ġmawazo": 4303,
      "uddy": 4304,
      "utia": 4305,
      "ention": 4306,
      "Ġ2008": 4307,
      "Ġalama": 4308,
      "aria": 4309,
      "ĠSte": 4310,
      "Ġwanaume": 4311,
      "Ġprof": 4312,
      "els": 4313,
      "Ġacross": 4314,
      "ĠPolisi": 4315,
      "Ġclear": 4316,
      "light": 4317,
      "Ġmchakato": 4318,
      "imarisha": 4319,
      "Ġkucheza": 4320,
      "Ġstru": 4321,
      "jumu": 4322,
      "Ġtechno": 4323,
      "ĠProf": 4324,
      "veral": 4325,
      "endeleza": 4326,
      "Ġuamuzi": 4327,
      "umiaji": 4328,
      "kabili": 4329,
      "Ġsaba": 4330,
      "Ġnye": 4331,
      "Ġgif": 4332,
      "board": 4333,
      "Ġuweze": 4334,
      "iet": 4335,
      "Ġimekuwa": 4336,
      "iss": 4337,
      "utu": 4338,
      "Ġprovide": 4339,
      "ides": 4340,
      "shima": 4341,
      "Ġself": 4342,
      "ĠIna": 4343,
      "iri": 4344,
      "Ġkasi": 4345,
      "Ġwished": 4346,
      "Ġlearning": 4347,
      "Ġmaa": 4348,
      "Ġround": 4349,
      "erv": 4350,
      "Ġkuja": 4351,
      "Ġconst": 4352,
      "Ġballo": 4353,
      "Ġnut": 4354,
      "TO": 4355,
      "Tu": 4356,
      "ency": 4357,
      "Ġambako": 4358,
      "Ġcase": 4359,
      "ĠMy": 4360,
      "Ġworking": 4361,
      "Ġkumali": 4362,
      "Ġufu": 4363,
      "ĠWan": 4364,
      "Ġdisa": 4365,
      "chukuliwa": 4366,
      "ĠWatu": 4367,
      "Ġcost": 4368,
      "Ġeconom": 4369,
      "uchumi": 4370,
      "Ġbal": 4371,
      "Ġbat": 4372,
      "ÙİÙĳ": 4373,
      "bika": 4374,
      "muhimu": 4375,
      "Ġdeter": 4376,
      "Ġbring": 4377,
      "ĠKuna": 4378,
      "bbed": 4379,
      "Ġpercent": 4380,
      "nam": 4381,
      "ĠLeo": 4382,
      "ses": 4383,
      "ĠWikipedia": 4384,
      "Ġmapema": 4385,
      "Ġscary": 4386,
      "Ġregu": 4387,
      "Ġzinaz": 4388,
      "TU": 4389,
      "ĠHalmashauri": 4390,
      "Ġimehesabiwa": 4391,
      "zungumzo": 4392,
      "Ġkusoma": 4393,
      "Ġmkataba": 4394,
      "Ġkupiga": 4395,
      "199": 4396,
      "Ġmbinu": 4397,
      "ĠAustra": 4398,
      "hur": 4399,
      "Ġkusini": 4400,
      "ngo": 4401,
      "Ġ22": 4402,
      "hanga": 4403,
      "Ġmkoani": 4404,
      "umaini": 4405,
      "Ġvingine": 4406,
      "ĠKatibu": 4407,
      "ĠÂ": 4408,
      "baini": 4409,
      "Ġupinzani": 4410,
      "Ġzako": 4411,
      "Ġproper": 4412,
      "Ġwafanyakazi": 4413,
      "irth": 4414,
      "Ġavailable": 4415,
      "Ġshilingi": 4416,
      "ĠIli": 4417,
      "Ġkusaidia": 4418,
      "Ġnani": 4419,
      "ĠAg": 4420,
      "ĠBaraza": 4421,
      "Ġblood": 4422,
      "cum": 4423,
      "Ġpig": 4424,
      "ĠKiswahili": 4425,
      "Ġelse": 4426,
      "ĠGer": 4427,
      "Ġpink": 4428,
      "leo": 4429,
      "atural": 4430,
      "pwa": 4431,
      "KO": 4432,
      "Ġwaandishi": 4433,
      "Ġdola": 4434,
      "Ġwoods": 4435,
      "ĠRob": 4436,
      "Mo": 4437,
      "Ġreplied": 4438,
      "ĠWaislamu": 4439,
      "Ġvye": 4440,
      "If": 4441,
      "Ġrece": 4442,
      "ences": 4443,
      "Ġpulled": 4444,
      "bet": 4445,
      "rekeb": 4446,
      "kofi": 4447,
      "ĠOktoba": 4448,
      "Ġvig": 4449,
      "Ġ26": 4450,
      "ĠYeye": 4451,
      "patia": 4452,
      "Ġmapenzi": 4453,
      "Ġbigger": 4454,
      "Matukio": 4455,
      "Ġud": 4456,
      "zam": 4457,
      "Ġ195": 4458,
      "emy": 4459,
      "ĠWith": 4460,
      "Ġowl": 4461,
      "ĠEl": 4462,
      "Ġ2009": 4463,
      "ither": 4464,
      "Ġkauli": 4465,
      "peni": 4466,
      "Ġphys": 4467,
      "Ġfl": 4468,
      "ĠJuni": 4469,
      "gua": 4470,
      "ĠPapa": 4471,
      "ucky": 4472,
      "rejea": 4473,
      "Ġeverything": 4474,
      "Ġbilioni": 4475,
      "Ġatta": 4476,
      "Ġuhaki": 4477,
      "Ġmshindi": 4478,
      "Ġfuraha": 4479,
      "Ġstep": 4480,
      "otswana": 4481,
      "ĠAnt": 4482,
      "Ġenjoyed": 4483,
      "Ġpet": 4484,
      "yahudi": 4485,
      "kuwepo": 4486,
      "Ġkali": 4487,
      "Ġtur": 4488,
      "Ġdanger": 4489,
      "Ja": 4490,
      "ĠJanuari": 4491,
      "vile": 4492,
      "Ġthank": 4493,
      "Ġofisi": 4494,
      "Ġturns": 4495,
      "Ġhau": 4496,
      "acha": 4497,
      "stic": 4498,
      "rasia": 4499,
      "Una": 4500,
      "Ġinde": 4501,
      "ours": 4502,
      "Ġprovid": 4503,
      "bur": 4504,
      "Ġwacha": 4505,
      "Ġstar": 4506,
      "Ġsince": 4507,
      "Ġmume": 4508,
      "Ġham": 4509,
      "range": 4510,
      "Ġx": 4511,
      "Ġcomput": 4512,
      "Ġwide": 4513,
      "Ġhatimaye": 4514,
      "Ġsmo": 4515,
      "knolojia": 4516,
      "Ġpi": 4517,
      "Ġjuhudi": 4518,
      "Ġrisk": 4519,
      "Ġcontinued": 4520,
      "Ġmind": 4521,
      "Ġkodi": 4522,
      "Ġparticular": 4523,
      "Ġamet": 4524,
      "Ġkuo": 4525,
      "Ġnoticed": 4526,
      "Ġmother": 4527,
      "uthor": 4528,
      "pl": 4529,
      "Ġexpla": 4530,
      "Ġlol": 4531,
      "Ġroad": 4532,
      "ration": 4533,
      "Ġvitabu": 4534,
      "kodi": 4535,
      "Ġmajor": 4536,
      "waji": 4537,
      "fungwa": 4538,
      "Ġclapped": 4539,
      "Ġshouted": 4540,
      "ĠNje": 4541,
      "mokrasia": 4542,
      "Ġiwe": 4543,
      "Ġmen": 4544,
      "Ġndipo": 4545,
      "Ġgetting": 4546,
      "dau": 4547,
      "Ġsocial": 4548,
      "Ġ28": 4549,
      "Ġkuleta": 4550,
      "bn": 4551,
      "Ġund": 4552,
      "itional": 4553,
      "Ġinahusu": 4554,
      "Ġuchunguzi": 4555,
      "Ġ27": 4556,
      "Ġscient": 4557,
      "Ġstayed": 4558,
      "Ġpain": 4559,
      "Ġsent": 4560,
      "Ġeating": 4561,
      "Ġkuacha": 4562,
      "Ġvitendo": 4563,
      "Ġreco": 4564,
      "bamu": 4565,
      "Ġisiyo": 4566,
      "Ġhariri": 4567,
      "ANA": 4568,
      "ĠBw": 4569,
      "anishwa": 4570,
      "araja": 4571,
      "Ġretur": 4572,
      "ĠUislamu": 4573,
      "ĠKing": 4574,
      "ĠUganda": 4575,
      "mbered": 4576,
      "Ġwimbo": 4577,
      "gosti": 4578,
      "most": 4579,
      "Ġwhole": 4580,
      "Ġhakika": 4581,
      "Ġmbegu": 4582,
      "cially": 4583,
      "Ġmpira": 4584,
      "Ġmchezaji": 4585,
      "cr": 4586,
      "Ġushirikiano": 4587,
      "Ġmatibabu": 4588,
      "Ġur": 4589,
      "ĠIr": 4590,
      "ĠHowever": 4591,
      "alili": 4592,
      "zamo": 4593,
      "Ġradi": 4594,
      "Ġsou": 4595,
      "TE": 4596,
      "Ġwall": 4597,
      "ĠCat": 4598,
      "IC": 4599,
      "ĠJulai": 4600,
      "Ġdoctor": 4601,
      "Ġthough": 4602,
      "From": 4603,
      "Ġkutaka": 4604,
      "Ġbene": 4605,
      "ards": 4606,
      "Ġrespon": 4607,
      "Ġremembered": 4608,
      "Ġmsha": 4609,
      "Ġtight": 4610,
      "Ġfil": 4611,
      "BC": 4612,
      "irani": 4613,
      "Ġprogramu": 4614,
      "Ġadventure": 4615,
      "ĠTuna": 4616,
      "Ġheshima": 4617,
      "ĠWorld": 4618,
      "Ġcolorful": 4619,
      "tab": 4620,
      "Ġcr": 4621,
      "table": 4622,
      "Ġ2000": 4623,
      "Oh": 4624,
      "unch": 4625,
      "ĠUp": 4626,
      "Ġkusababisha": 4627,
      "bati": 4628,
      "jenga": 4629,
      "wel": 4630,
      "Ġbutterfly": 4631,
      "zalishaji": 4632,
      "Ġnzima": 4633,
      "embe": 4634,
      "umuiya": 4635,
      "Ġclothes": 4636,
      "Ġshort": 4637,
      "LE": 4638,
      "Ġpossible": 4639,
      "Ġ=": 4640,
      "Ġkuki": 4641,
      "Ġcannot": 4642,
      "Ġkuwasili": 4643,
      "Ġkaskazini": 4644,
      "Ġlikes": 4645,
      "Ġmawasili": 4646,
      "fir": 4647,
      "ĠMuhammad": 4648,
      "Ġcontrol": 4649,
      "shu": 4650,
      "Ġkimo": 4651,
      "inyi": 4652,
      "Ġbroke": 4653,
      "Ġmanu": 4654,
      "ĠChar": 4655,
      "selves": 4656,
      "iod": 4657,
      "Okay": 4658,
      "Habari": 4659,
      "40": 4660,
      "hibitisha": 4661,
      "Ġhappen": 4662,
      "hern": 4663,
      "Makofi": 4664,
      "ont": 4665,
      "Ġumuhimu": 4666,
      "kelezaji": 4667,
      "Ġ2013": 4668,
      "akuna": 4669,
      "Ġchu": 4670,
      "sing": 4671,
      "Ġplants": 4672,
      "Ġgrabbed": 4673,
      "Ġmatukio": 4674,
      "Ġtrad": 4675,
      "illiam": 4676,
      "ĠNiger": 4677,
      "Ġdiffic": 4678,
      "undo": 4679,
      "mini": 4680,
      "ĠArusha": 4681,
      "ziwa": 4682,
      "Ġvilivyo": 4683,
      "name": 4684,
      "ashi": 4685,
      "angwa": 4686,
      "Ġdisco": 4687,
      "Ġqua": 4688,
      "Ġenc": 4689,
      "Ġkiuchumi": 4690,
      "ian": 4691,
      "ĠKin": 4692,
      "jabu": 4693,
      "Ġdep": 4694,
      "Ġcurrent": 4695,
      "Ġwaited": 4696,
      "otokea": 4697,
      "ĠAbd": 4698,
      "ility": 4699,
      "Ġcup": 4700,
      "vious": 4701,
      "Ġmawasiliano": 4702,
      "Ġikiwemo": 4703,
      "ando": 4704,
      "Ġsecret": 4705,
      "itch": 4706,
      "zoe": 4707,
      "Ġanimal": 4708,
      "ĠCity": 4709,
      "Ġsoko": 4710,
      "Ġperfect": 4711,
      "ĠMoro": 4712,
      "Ġabo": 4713,
      "Ġwateja": 4714,
      "Ġmetho": 4715,
      "iling": 4716,
      "Ġtast": 4717,
      "ĠNd": 4718,
      "ĠDkt": 4719,
      "ĠMachi": 4720,
      "Ġkutekeleza": 4721,
      "Ġrecord": 4722,
      "Ġkutengeneza": 4723,
      "fects": 4724,
      "ĠStates": 4725,
      "Ġseveral": 4726,
      "Ġzita": 4727,
      "beba": 4728,
      "Ġuni": 4729,
      "Ġmif": 4730,
      "John": 4731,
      "ĠBiblia": 4732,
      "Ġmazungumzo": 4733,
      "ĠMaka": 4734,
      "Ġwaved": 4735,
      "Ġmakundi": 4736,
      "Ġaliy": 4737,
      "Ġwonder": 4738,
      "Ġkusha": 4739,
      "ĠTume": 4740,
      "ĠBotswana": 4741,
      "Ġproblems": 4742,
      "Ġwants": 4743,
      "lm": 4744,
      "Ġprevent": 4745,
      "chaguliwa": 4746,
      "Ġkime": 4747,
      "Ġkuwepo": 4748,
      "Ġfollowing": 4749,
      "Ġsuggest": 4750,
      "Ġjoto": 4751,
      "Ġcause": 4752,
      "cis": 4753,
      "Ġujumla": 4754,
      "Ġtower": 4755,
      "Ġegg": 4756,
      "ĠMagharibi": 4757,
      "Ġusawa": 4758,
      "Her": 4759,
      "lazim": 4760,
      "Ġ2006": 4761,
      "Ġspace": 4762,
      "Ġkwako": 4763,
      "Ġforgot": 4764,
      "ĠAgosti": 4765,
      "Ġwamekuwa": 4766,
      "Ġnyota": 4767,
      "Ġblew": 4768,
      "Ġmj": 4769,
      "Ġtaking": 4770,
      "Ġoccur": 4771,
      "Ġyaliy": 4772,
      "Ġfit": 4773,
      "obel": 4774,
      "mail": 4775,
      "Ġwild": 4776,
      "wo": 4777,
      "Ġriver": 4778,
      "ilt": 4779,
      "Ġbure": 4780,
      "Ġbelieve": 4781,
      "Ġlenye": 4782,
      "Ġcells": 4783,
      "ĠBr": 4784,
      "ĠMommy": 4785,
      "Ġyata": 4786,
      "ica": 4787,
      "Aidha": 4788,
      "ĠJuma": 4789,
      "Ġmiji": 4790,
      "ĠHabari": 4791,
      "ubu": 4792,
      "On": 4793,
      "Ġchuo": 4794,
      "Ġver": 4795,
      "Ġmazo": 4796,
      "Ġjour": 4797,
      "Ġperiod": 4798,
      "Ġsmart": 4799,
      "ĠOff": 4800,
      "Orodha": 4801,
      "ĠNobel": 4802,
      "Ġpolit": 4803,
      "panga": 4804,
      "Ġucha": 4805,
      "!âĢĿ": 4806,
      "zao": 4807,
      "fikiri": 4808,
      "Pia": 4809,
      "though": 4810,
      "poteza": 4811,
      "Ġbuilding": 4812,
      "While": 4813,
      "Ġ:": 4814,
      "Ġyasi": 4815,
      "long": 4816,
      "Ġulinzi": 4817,
      "ĠMkurugenzi": 4818,
      "Ġbath": 4819,
      "Ġmahakama": 4820,
      "Ġinvol": 4821,
      "Ġmakosa": 4822,
      "fla": 4823,
      "ĠMhe": 4824,
      "Ġmawili": 4825,
      "bon": 4826,
      "Ġkuboresha": 4827,
      "ĠAss": 4828,
      "jeti": 4829,
      "atiwa": 4830,
      "Ġeverywhere": 4831,
      "net": 4832,
      "Ġnusu": 4833,
      "Ġwazazi": 4834,
      "Ġmonth": 4835,
      "Ġartic": 4836,
      "Ġgen": 4837,
      "Ġamong": 4838,
      "Ġspecies": 4839,
      "eru": 4840,
      "Ny": 4841,
      "kin": 4842,
      "wishi": 4843,
      "ĠSan": 4844,
      "ĠJer": 4845,
      "ems": 4846,
      "ids": 4847,
      "Ġcomes": 4848,
      "Ġlate": 4849,
      "MB": 4850,
      "alia": 4851,
      "ella": 4852,
      "Ġshida": 4853,
      "Ġteknolojia": 4854,
      "Ġalivyo": 4855,
      "Ġwanachama": 4856,
      "ront": 4857,
      "urch": 4858,
      "kizo": 4859,
      "ĠSome": 4860,
      "Kuna": 4861,
      "Ġwel": 4862,
      "Ġteam": 4863,
      "shinda": 4864,
      "ĠMei": 4865,
      "Re": 4866,
      "afisa": 4867,
      "ĠDunia": 4868,
      "ĠDon": 4869,
      "mbelea": 4870,
      "Ġathari": 4871,
      "Ġnon": 4872,
      "ĠShirika": 4873,
      "ĠUS": 4874,
      "Ġword": 4875,
      "ichana": 4876,
      "ongozwa": 4877,
      "Ġwaliokuwa": 4878,
      "Ġneeds": 4879,
      "Ġgiven": 4880,
      "Ġareas": 4881,
      "Ġwataka": 4882,
      "ĠJose": 4883,
      "Ġleave": 4884,
      "kwete": 4885,
      "Ġngazi": 4886,
      "80": 4887,
      "resent": 4888,
      "Ġkote": 4889,
      "Ġpay": 4890,
      "ĠTuzo": 4891,
      "Ġfaster": 4892,
      "lies": 4893,
      "Ġkuelekea": 4894,
      "Ġmazuri": 4895,
      "There": 4896,
      "had": 4897,
      "Ġgha": 4898,
      "Ġkig": 4899,
      "inali": 4900,
      "Ġtreatment": 4901,
      "Ġfr": 4902,
      "Ġnika": 4903,
      "Ġshaka": 4904,
      "ĠInternational": 4905,
      "itumia": 4906,
      "Ġbased": 4907,
      "Ġmipango": 4908,
      "Ġuja": 4909,
      "ĠWakristo": 4910,
      "Miji": 4911,
      "rot": 4912,
      "top": 4913,
      "Ġthrew": 4914,
      "ĠEurope": 4915,
      "Ø¨": 4916,
      "Ġbirth": 4917,
      "Ġvid": 4918,
      "Ġmiwili": 4919,
      "ĠKikuu": 4920,
      "90": 4921,
      "ico": 4922,
      "Ġhopped": 4923,
      "Ġaut": 4924,
      "Ġcertain": 4925,
      "oura": 4926,
      "âĢ¢": 4927,
      "ired": 4928,
      "orge": 4929,
      "Ġhospitali": 4930,
      "au": 4931,
      "zika": 4932,
      "Ġakawa": 4933,
      "Ġcharact": 4934,
      "Ġwapi": 4935,
      "ĠPar": 4936,
      "hitajika": 4937,
      "kufa": 4938,
      "ortun": 4939,
      "Ġkisheria": 4940,
      "Ġlay": 4941,
      "Ġmakala": 4942,
      "gundua": 4943,
      "Ġkisasa": 4944,
      "Ġnita": 4945,
      "dle": 4946,
      "ado": 4947,
      "ĠKatiba": 4948,
      "utes": 4949,
      "Ġseed": 4950,
      "ĠKil": 4951,
      "Ġarri": 4952,
      "omes": 4953,
      "ĠMtu": 4954,
      "Ġmno": 4955,
      "ledge": 4956,
      "Ġziliz": 4957,
      "example": 4958,
      "zoefu": 4959,
      "lahi": 4960,
      "Ġfig": 4961,
      "ĠBahari": 4962,
      "hindwa": 4963,
      "Ġquiet": 4964,
      "Ġanaly": 4965,
      "ĠSeptemba": 4966,
      "Ġwajibu": 4967,
      "ĠMji": 4968,
      "Ġhealthy": 4969,
      "Ġwish": 4970,
      "ĠAbu": 4971,
      "Ġik": 4972,
      "Ġevent": 4973,
      "ruhusu": 4974,
      "Ġ2018": 4975,
      "Ġmedic": 4976,
      "DE": 4977,
      "Ġleaf": 4978,
      "Ġvinavyo": 4979,
      "Wan": 4980,
      "ĠKan": 4981,
      "Ġkil": 4982,
      "Ġhusika": 4983,
      "otaka": 4984,
      "Ġcomplete": 4985,
      "wanza": 4986,
      "ĠKe": 4987,
      "Ġvilla": 4988,
      "Ġspecific": 4989,
      "ĠHist": 4990,
      "ustr": 4991,
      "Ġabove": 4992,
      "Ġage": 4993,
      "jects": 4994,
      "uture": 4995,
      "Ġkushinda": 4996,
      "ĠOr": 4997,
      "hama": 4998,
      "Ġsila": 4999,
      "arat": 5000,
      "Ġenjoy": 5001,
      "Ġsharing": 5002,
      "Ġmagari": 5003,
      "Ġcastle": 5004,
      "BN": 5005,
      "ĠBuddy": 5006,
      "Ġkuangalia": 5007,
      "olf": 5008,
      "ĠWilliam": 5009,
      "fuku": 5010,
      "Ġyenu": 5011,
      "Ġmadai": 5012,
      "lus": 5013,
      "Ġbaina": 5014,
      "hana": 5015,
      "ĠMbe": 5016,
      "Ġmwandishi": 5017,
      "Ġkuny": 5018,
      "Ġkushindwa": 5019,
      "Ġmoved": 5020,
      "Ġjar": 5021,
      "neo": 5022,
      "Ġ2005": 5023,
      "Mito": 5024,
      "pania": 5025,
      "Ġswam": 5026,
      "Ġmasomo": 5027,
      "Ġmum": 5028,
      "ĠUrusi": 5029,
      "27": 5030,
      "ression": 5031,
      "Ġbio": 5032,
      "CO": 5033,
      "Ġcity": 5034,
      "ĠAfrica": 5035,
      "Ġkinyume": 5036,
      "ishio": 5037,
      "):": 5038,
      "Ġhawana": 5039,
      "uza": 5040,
      "Ġripoti": 5041,
      "Ġmti": 5042,
      "verse": 5043,
      "ĠItalia": 5044,
      "Ġcreate": 5045,
      "YA": 5046,
      "ĠMahakama": 5047,
      "Ġmicro": 5048,
      "Ġmonster": 5049,
      "Ġwapo": 5050,
      "Ġpiece": 5051,
      "Lucy": 5052,
      "ĠDaisy": 5053,
      "ifanya": 5054,
      "ĠYanga": 5055,
      "onjwa": 5056,
      "adhim": 5057,
      "fanyia": 5058,
      "Ġjoin": 5059,
      "Ġmalengo": 5060,
      "Ġpea": 5061,
      "Ġwakulima": 5062,
      "Ġtoka": 5063,
      "ĠKikwete": 5064,
      "ciety": 5065,
      "Ġmarket": 5066,
      "ishati": 5067,
      "ĠNili": 5068,
      "Ġamewa": 5069,
      "Karne": 5070,
      "turu": 5071,
      "ilar": 5072,
      "Ġvituo": 5073,
      "Ġconta": 5074,
      "idh": 5075,
      "Ġajira": 5076,
      "asiri": 5077,
      "Øª": 5078,
      "istics": 5079,
      "Ġperform": 5080,
      "Ġsalama": 5081,
      "Ġwadau": 5082,
      "Ġkif": 5083,
      "Rais": 5084,
      "Ġkuzingatia": 5085,
      "Ġvif": 5086,
      "ended": 5087,
      "ĠRes": 5088,
      "Ġhor": 5089,
      "ĠCor": 5090,
      "Ġstat": 5091,
      "mbulia": 5092,
      "Ġinvest": 5093,
      "ZA": 5094,
      "Ġuto": 5095,
      "fer": 5096,
      "Ġnyimbo": 5097,
      "Ġmajina": 5098,
      "Ġlonger": 5099,
      "Ġutekelezaji": 5100,
      "ĠMwana": 5101,
      "St": 5102,
      "Ġsig": 5103,
      "kumb": 5104,
      "Ġkupig": 5105,
      "Ġride": 5106,
      "Ġimpa": 5107,
      "ĠHA": 5108,
      "angazo": 5109,
      "cu": 5110,
      "Ġmapato": 5111,
      "Ġkufuata": 5112,
      "Ġrocks": 5113,
      "ondon": 5114,
      "face": 5115,
      "Ġlita": 5116,
      "Ġkijiji": 5117,
      "vices": 5118,
      "inner": 5119,
      "Ġchar": 5120,
      "ĠNigeria": 5121,
      "soci": 5122,
      "His": 5123,
      "ĠNovemba": 5124,
      "60": 5125,
      "ror": 5126,
      "Ġfinished": 5127,
      "Ġmaalumu": 5128,
      "Ġziara": 5129,
      "Ġpieces": 5130,
      "liza": 5131,
      "ingu": 5132,
      "sababisha": 5133,
      "Ġuhakika": 5134,
      "Ġflying": 5135,
      "Ġubora": 5136,
      "Ġviwango": 5137,
      "Spot": 5138,
      "Ġconne": 5139,
      "Ġremember": 5140,
      "ĠEnglish": 5141,
      "uce": 5142,
      "Ġprint": 5143,
      "imbaji": 5144,
      "ĠSer": 5145,
      "ĠStu": 5146,
      "Ġbi": 5147,
      "kurasa": 5148,
      "Ġquestion": 5149,
      "Kam": 5150,
      "Ġsoka": 5151,
      "Ġmorning": 5152,
      "jitokeza": 5153,
      "Ġkurudi": 5154,
      "Ġdeterm": 5155,
      "ional": 5156,
      "wele": 5157,
      "Ġlocal": 5158,
      "gele": 5159,
      "ctly": 5160,
      "Ġchache": 5161,
      "den": 5162,
      "esemba": 5163,
      "iles": 5164,
      "ĠPe": 5165,
      "elele": 5166,
      "Ġstri": 5167,
      "ĠAprili": 5168,
      "Ġsera": 5169,
      "Ġutamaduni": 5170,
      "hika": 5171,
      "Ġactu": 5172,
      "Ġ2014": 5173,
      "Ġnews": 5174,
      "ĠJoe": 5175,
      "ĠHam": 5176,
      "Ġzingine": 5177,
      "mbi": 5178,
      "Ġbrown": 5179,
      "hio": 5180,
      "sen": 5181,
      "aa": 5182,
      "ormal": 5183,
      "ĠKila": 5184,
      "Ġcarry": 5185,
      "Ġap": 5186,
      "Ġkufa": 5187,
      "Ġtalked": 5188,
      "Ġsilaha": 5189,
      "Ġresour": 5190,
      "Ġkukubali": 5191,
      "fanye": 5192,
      "Ġwageni": 5193,
      "Ġdangerous": 5194,
      "Po": 5195,
      "fikiria": 5196,
      "book": 5197,
      "Ġcookies": 5198,
      "Mat": 5199,
      "28": 5200,
      "Ġtowards": 5201,
      "imamo": 5202,
      "ĠBaba": 5203,
      "Ġvyema": 5204,
      "ĠSasa": 5205,
      "Ġbeach": 5206,
      "Ġhur": 5207,
      "ĠCHA": 5208,
      "Ġfilled": 5209,
      "ws": 5210,
      "ĠMisri": 5211,
      "anzisha": 5212,
      "Ġwaziri": 5213,
      "hit": 5214,
      "pecially": 5215,
      "ĠPress": 5216,
      "Ġkutokea": 5217,
      "Ġamount": 5218,
      "kamilika": 5219,
      "Ġ29": 5220,
      "Ġnap": 5221,
      "Ġyes": 5222,
      "May": 5223,
      "gement": 5224,
      "Ġmingi": 5225,
      "Ġrecent": 5226,
      "Ġlilikuwa": 5227,
      "Ġcell": 5228,
      "Ġkumbu": 5229,
      "sp": 5230,
      "Ġpub": 5231,
      "ĠMaendeleo": 5232,
      "Ġphoto": 5233,
      "Ġtaken": 5234,
      "Ġsignific": 5235,
      "ĠDi": 5236,
      "Ġkuonyesha": 5237,
      "Ġkadi": 5238,
      "Ġmagonjwa": 5239,
      "chie": 5240,
      "Ġuv": 5241,
      "Ġkujifunza": 5242,
      "Ġkukabili": 5243,
      "Ġkampeni": 5244,
      "Ġinstead": 5245,
      "ĠWest": 5246,
      "ĠJi": 5247,
      "Ġbranch": 5248,
      "Ġdiscus": 5249,
      "hudia": 5250,
      "ĠTur": 5251,
      "Ġmemb": 5252,
      "Ġlanguage": 5253,
      "ĠNg": 5254,
      "oring": 5255,
      "rodu": 5256,
      "kamilifu": 5257,
      "ubuhi": 5258,
      "ĠMito": 5259,
      "onga": 5260,
      "Ġkanisa": 5261,
      "ju": 5262,
      "ĠSc": 5263,
      "anyiko": 5264,
      "tural": 5265,
      "ĠOfisi": 5266,
      "RE": 5267,
      "Ġkitaifa": 5268,
      "Ġcentury": 5269,
      "Ġhisia": 5270,
      "rehemu": 5271,
      "ĠIndia": 5272,
      "Ġfocus": 5273,
      "ĠII": 5274,
      "Ġkug": 5275,
      "Ġvalue": 5276,
      "Ġtrue": 5277,
      "ĠKir": 5278,
      "And": 5279,
      "Ġbou": 5280,
      "ĠTV": 5281,
      "Ġmillion": 5282,
      "ĠKita": 5283,
      "Ġmagharibi": 5284,
      "Ġkm": 5285,
      "Waziri": 5286,
      "ference": 5287,
      "Ġroho": 5288,
      "Ġtaratibu": 5289,
      "Ġzisi": 5290,
      "ĠAfya": 5291,
      "Ġcow": 5292,
      "idizi": 5293,
      "Ġoffic": 5294,
      "Ġkuni": 5295,
      "Ġhuenda": 5296,
      "Ġpatient": 5297,
      "Ġuma": 5298,
      "Ġdalili": 5299,
      "Ġobser": 5300,
      "isaidia": 5301,
      "ĠJust": 5302,
      "bii": 5303,
      "ĠNorth": 5304,
      "Mwaka": 5305,
      "inisha": 5306,
      "Ġjamaa": 5307,
      "Ġtakriban": 5308,
      "Ġmak": 5309,
      "Ġkukaa": 5310,
      "Ġeducation": 5311,
      "kond": 5312,
      "Ġcarefully": 5313,
      "Ġkushirikiana": 5314,
      "Ġmiti": 5315,
      "Ġlevels": 5316,
      "ononi": 5317,
      "sea": 5318,
      "kamatwa": 5319,
      "Ġmfalme": 5320,
      "Ġdanced": 5321,
      "Ġmashind": 5322,
      "ready": 5323,
      "Ġada": 5324,
      "Ġbunge": 5325,
      "imam": 5326,
      "Ġwasi": 5327,
      "Ġdest": 5328,
      "Ġassoci": 5329,
      "eral": 5330,
      "Ġproduc": 5331,
      "Ġways": 5332,
      "ĠDesemba": 5333,
      "Ġkununua": 5334,
      "ĠISBN": 5335,
      "ĠUN": 5336,
      "cul": 5337,
      "Ġkisiwa": 5338,
      "Ġcam": 5339,
      "atory": 5340,
      "Ġnatural": 5341,
      "Ġakasema": 5342,
      "Ġchem": 5343,
      "Ġiwapo": 5344,
      "atures": 5345,
      "Ġeasy": 5346,
      "isadi": 5347,
      "etea": 5348,
      "ĠAustralia": 5349,
      "Ġmadini": 5350,
      "ĠMak": 5351,
      "Ġkupote": 5352,
      "dom": 5353,
      "Ġwatumishi": 5354,
      "Ġmashindano": 5355,
      "Ġteacher": 5356,
      "isitiza": 5357,
      "ession": 5358,
      "ushi": 5359,
      "haba": 5360,
      "ingiza": 5361,
      "kezaji": 5362,
      "Ġkupokea": 5363,
      "Ġmaga": 5364,
      "Ġva": 5365,
      "ĠÙĪ": 5366,
      "Ġsum": 5367,
      "ĠNye": 5368,
      "ĠMama": 5369,
      "odha": 5370,
      "ĠĠĠĠ": 5371,
      "Ġcontain": 5372,
      "Ġuzalishaji": 5373,
      "Ġess": 5374,
      "sage": 5375,
      "Ġmakuu": 5376,
      "Ġkatikati": 5377,
      "Ġ193": 5378,
      "ĠFred": 5379,
      "ford": 5380,
      "Ġdinner": 5381,
      "Ġsingle": 5382,
      "ĠBrit": 5383,
      "Ġtype": 5384,
      "Ġvika": 5385,
      "Ġjukumu": 5386,
      "ĠMaj": 5387,
      "orts": 5388,
      "HO": 5389,
      "omas": 5390,
      "ĠSiku": 5391,
      "ura": 5392,
      "Ġsister": 5393,
      "Ġfox": 5394,
      "Ġprotect": 5395,
      "men": 5396,
      "Ġkuanzisha": 5397,
      "ĠAsia": 5398,
      "Pa": 5399,
      "Ġavo": 5400,
      "Ġunge": 5401,
      "Ġmaadili": 5402,
      "ĠSud": 5403,
      "ĠInside": 5404,
      "Ġtam": 5405,
      "ĠRep": 5406,
      "pitia": 5407,
      "Ġinat": 5408,
      "jiunga": 5409,
      "Ġhaz": 5410,
      "hamed": 5411,
      "ĠDavid": 5412,
      "Ġfunction": 5413,
      "Ġmatu": 5414,
      "Ġclosed": 5415,
      "Ġhalafu": 5416,
      "lder": 5417,
      "eso": 5418,
      "ĠHindi": 5419,
      "Ġwabunge": 5420,
      "Ġkipa": 5421,
      "Ġsearch": 5422,
      "Ġ60": 5423,
      "Ġorange": 5424,
      "Ġalmost": 5425,
      "ĠKitu": 5426,
      "Ġmikoa": 5427,
      "ĠHow": 5428,
      "Ġpopulation": 5429,
      "comm": 5430,
      "Ġfuture": 5431,
      "ĠMb": 5432,
      "Ġsiri": 5433,
      "Ġushauri": 5434,
      "Ġhana": 5435,
      "Siku": 5436,
      "onya": 5437,
      "Ġbegin": 5438,
      "ĠBra": 5439,
      "Ġsite": 5440,
      "utokana": 5441,
      "Ġdrink": 5442,
      "Ġproject": 5443,
      "Ġworried": 5444,
      "ffe": 5445,
      "lini": 5446,
      "Ġdeath": 5447,
      "Ġpas": 5448,
      "ĠLondon": 5449,
      "crib": 5450,
      "hamini": 5451,
      "phic": 5452,
      "Ġlolote": 5453,
      "Ġeither": 5454,
      "Ġumoja": 5455,
      "JI": 5456,
      "29": 5457,
      "Just": 5458,
      "MU": 5459,
      "Ġfinally": 5460,
      "ĠMaybe": 5461,
      "Ġtakes": 5462,
      "ĠEth": 5463,
      "Ġincrease": 5464,
      "onames": 5465,
      "Ġban": 5466,
      "Ġdue": 5467,
      "ĠAfrican": 5468,
      "Ġhawaku": 5469,
      "DI": 5470,
      "Ġfoot": 5471,
      "Hii": 5472,
      "Ġwrite": 5473,
      "Ġonce": 5474,
      "ĠGeonames": 5475,
      "ĠMapinduzi": 5476,
      "ĠKar": 5477,
      "Ġkikosi": 5478,
      "Ġmaombi": 5479,
      "arajia": 5480,
      "Ġkale": 5481,
      "Ġworks": 5482,
      "ĠLigi": 5483,
      "Ġsnake": 5484,
      "ĠFebruari": 5485,
      "Ġaskari": 5486,
      "oti": 5487,
      "ĠNchi": 5488,
      "mpt": 5489,
      "Ġuwezekano": 5490,
      "'ll": 5491,
      "peleka": 5492,
      "ators": 5493,
      "giza": 5494,
      "Ġrob": 5495,
      "ky": 5496,
      "Ġalready": 5497,
      "Ġkupambana": 5498,
      "Ġcorn": 5499,
      "ĠAh": 5500,
      "Ġlicha": 5501,
      "uses": 5502,
      "Ġasilia": 5503,
      "taa": 5504,
      "fanana": 5505,
      "Wana": 5506,
      "ĠSouth": 5507,
      "Ġcal": 5508,
      "ĠMary": 5509,
      "ĠCali": 5510,
      "ĠOb": 5511,
      "Ġamazing": 5512,
      "âĢ¦âĢ¦": 5513,
      "enn": 5514,
      "istan": 5515,
      "ify": 5516,
      "Ġamekuwa": 5517,
      "ĠYake": 5518,
      "Ġauthor": 5519,
      "Ġvingi": 5520,
      "dugu": 5521,
      "Ġballoon": 5522,
      "Ġbrain": 5523,
      "Ġimet": 5524,
      "Ġitaka": 5525,
      "Ġexperience": 5526,
      "ovu": 5527,
      "Ġengine": 5528,
      "Ġleast": 5529,
      "ĠSarah": 5530,
      "Ġkufika": 5531,
      "ĠCount": 5532,
      "Ġevid": 5533,
      "ĠNya": 5534,
      "ĠUsa": 5535,
      "GU": 5536,
      "Ġthemselves": 5537,
      "Ġill": 5538,
      "emb": 5539,
      "str": 5540,
      "Ġgas": 5541,
      "ulo": 5542,
      "Ġmatter": 5543,
      "Ġimprove": 5544,
      "zoni": 5545,
      "Ġkamati": 5546,
      "Ġrealized": 5547,
      "hol": 5548,
      "Ġkubadilisha": 5549,
      "aribio": 5550,
      "ulti": 5551,
      "Ġtemper": 5552,
      "pili": 5553,
      "ĠUm": 5554,
      "ĠRoma": 5555,
      "Ġdisp": 5556,
      "Ġusually": 5557,
      "Ġreli": 5558,
      "ĠPer": 5559,
      "Ġcancer": 5560,
      "Ġespecially": 5561,
      "Ġblan": 5562,
      "Ġsus": 5563,
      "was": 5564,
      "ĠPaul": 5565,
      "Ġtalking": 5566,
      "ision": 5567,
      "ruction": 5568,
      "Ġasubuhi": 5569,
      "Ġest": 5570,
      "Ġthrow": 5571,
      "Ġfive": 5572,
      "ĠMbeya": 5573,
      "Ġlikely": 5574,
      "Ġzim": 5575,
      "Ġcross": 5576,
      "hau": 5577,
      "Ġfund": 5578,
      "zunguka": 5579,
      "Ġwalipo": 5580,
      "Ġmud": 5581,
      "lete": 5582,
      "Ġuzoefu": 5583,
      "Ġquestions": 5584,
      "omi": 5585,
      "Ġcall": 5586,
      "Ġmfupi": 5587,
      "Ġkuimarisha": 5588,
      "uawa": 5589,
      "Ġmodern": 5590,
      "hirikisho": 5591,
      "inea": 5592,
      "Ġmaamuzi": 5593,
      "Ġupya": 5594,
      "Ġcommunity": 5595,
      "Ġmbo": 5596,
      "ĠMos": 5597,
      "Ġresults": 5598,
      "Ġbowl": 5599,
      "Ġngumu": 5600,
      "Ili": 5601,
      "xy": 5602,
      "Ġkuondoa": 5603,
      "ht": 5604,
      "Ġbelong": 5605,
      "Ġstone": 5606,
      "Ġstra": 5607,
      "Ġmajukumu": 5608,
      "enz": 5609,
      "Ġissu": 5610,
      "paa": 5611,
      "Ġfat": 5612,
      "ĠLu": 5613,
      "Ġbike": 5614,
      "utions": 5615,
      "Ġitself": 5616,
      "Ġkulinda": 5617,
      "Ġwalimu": 5618,
      "turuki": 5619,
      "Ġstories": 5620,
      "oogle": 5621,
      "Ùĥ": 5622,
      "ĠEthnologue": 5623,
      "Ġsilly": 5624,
      "zigo": 5625,
      "ĠAmerika": 5626,
      "vin": 5627,
      "Ġtut": 5628,
      "Ġaccess": 5629,
      "Ġdifficult": 5630,
      "Ġmazao": 5631,
      "Ġyanay": 5632,
      "Ġhowever": 5633,
      "Ġhalf": 5634,
      "Ġrafiki": 5635,
      "Ġpromised": 5636,
      "Mas": 5637,
      "Ġexist": 5638,
      "Ġbite": 5639,
      "Ġtar": 5640,
      "Ġmiguu": 5641,
      "ĠSA": 5642,
      "Ġbee": 5643,
      "list": 5644,
      "Ġkuko": 5645,
      "78": 5646,
      "Ġchanges": 5647,
      "volution": 5648,
      "wany": 5649,
      "eared": 5650,
      "wadi": 5651,
      "Ġtrou": 5652,
      "MI": 5653,
      "Ġkuhusiana": 5654,
      "yle": 5655,
      "Ġremo": 5656,
      "Ġkutumika": 5657,
      "fornia": 5658,
      "pigwa": 5659,
      "Ġsitting": 5660,
      "iction": 5661,
      "ĠJeshi": 5662,
      "70": 5663,
      "Ġmasi": 5664,
      "Ġestab": 5665,
      "Ġpan": 5666,
      "ilit": 5667,
      "ĠShetani": 5668,
      "endi": 5669,
      "Ġpath": 5670,
      "iting": 5671,
      "orrow": 5672,
      "vaa": 5673,
      "kers": 5674,
      "Ġshoes": 5675,
      "Ġruns": 5676,
      "Ġnasi": 5677,
      "ĠMorogoro": 5678,
      "udia": 5679,
      "ĠSoon": 5680,
      "ĠBy": 5681,
      "Ġbajeti": 5682,
      "yal": 5683,
      "Ġskin": 5684,
      "igizaji": 5685,
      "Ġmabao": 5686,
      "ball": 5687,
      "ĠJapan": 5688,
      "umivu": 5689,
      "ille": 5690,
      "Ġkwetu": 5691,
      "Ġmilima": 5692,
      "Ġbehavi": 5693,
      "ĠPat": 5694,
      "ald": 5695,
      "ĠMwanza": 5696,
      "eddy": 5697,
      "ĠShu": 5698,
      "Ġemb": 5699,
      "Ġkujiunga": 5700,
      "mission": 5701,
      "insia": 5702,
      "engenezwa": 5703,
      "ĠMin": 5704,
      "Ġrub": 5705,
      "Ġwanadamu": 5706,
      "Ġbenef": 5707,
      "Ġmitandao": 5708,
      "Ġ2002": 5709,
      "Ġmazoezi": 5710,
      "Ġcap": 5711,
      "Ġmaswali": 5712,
      "yar": 5713,
      "Ġsmiles": 5714,
      "pengele": 5715,
      "last": 5716,
      "Ġpurple": 5717,
      "Ġnaomba": 5718,
      "Ġkatiba": 5719,
      "Ġsura": 5720,
      "Ġfurther": 5721,
      "For": 5722,
      "ĠRus": 5723,
      "Ġpeace": 5724,
      "Historia": 5725,
      "ĠKiislamu": 5726,
      "Ġtechnology": 5727,
      "Ġhuge": 5728,
      "Ġkike": 5729,
      "ancy": 5730,
      "rey": 5731,
      "ubiri": 5732,
      "Ġblanket": 5733,
      "Ġkichwa": 5734,
      "Ġyasiyo": 5735,
      "Ġnad": 5736,
      "loni": 5737,
      "ĠBlue": 5738,
      "Ġbelow": 5739,
      "kundu": 5740,
      "Ġgift": 5741,
      "asing": 5742,
      "fsiri": 5743,
      "Ġsystems": 5744,
      "Ġhttp": 5745,
      "itisha": 5746,
      "archers": 5747,
      "ĠIndi": 5748,
      "ĠEt": 5749,
      "Ġsuper": 5750,
      "ountain": 5751,
      "Ġcrit": 5752,
      "Ġmashariki": 5753,
      "bsite": 5754,
      "Ġkimoja": 5755,
      "Ø¯": 5756,
      "shauri": 5757,
      "ungaji": 5758,
      "rere": 5759,
      "Ġmakam": 5760,
      "Tuna": 5761,
      "anja": 5762,
      "gizo": 5763,
      "amond": 5764,
      "Ġfeed": 5765,
      "Ġfra": 5766,
      "ĠMala": 5767,
      "Ġkutambua": 5768,
      "Ġcomputer": 5769,
      "lele": 5770,
      "Ġonline": 5771,
      "Ġshows": 5772,
      "Ġnecess": 5773,
      "ishoni": 5774,
      "irobi": 5775,
      "Ġvime": 5776,
      "Ġconditions": 5777,
      "enea": 5778,
      "Ġkikao": 5779,
      "Ġmodel": 5780,
      "rie": 5781,
      "Ġthi": 5782,
      "ĠUhuru": 5783,
      "ĠSudan": 5784,
      "Ġmakini": 5785,
      "Ġligi": 5786,
      "ME": 5787,
      "ĠJames": 5788,
      "lest": 5789,
      "Ø¹": 5790,
      "kwisha": 5791,
      "Ġmeasure": 5792,
      "unganisha": 5793,
      "bly": 5794,
      "Ġmilk": 5795,
      "badilisha": 5796,
      "ĠPh": 5797,
      "Ġkufunga": 5798,
      "Ġkikuu": 5799,
      "dema": 5800,
      "ingana": 5801,
      "GA": 5802,
      "Ġwingi": 5803,
      "Ġpande": 5804,
      "amuziki": 5805,
      "athmini": 5806,
      "Ġlako": 5807,
      "Ġmwanaume": 5808,
      "hand": 5809,
      "Ġyalikuwa": 5810,
      "Ġsignificant": 5811,
      "Ġwasanii": 5812,
      "Ch": 5813,
      "bra": 5814,
      "Ġkuomba": 5815,
      "lenga": 5816,
      "ridge": 5817,
      "iba": 5818,
      "Ġweek": 5819,
      "Ġorodha": 5820,
      "Ġspread": 5821,
      "ĠKale": 5822,
      "falme": 5823,
      "Ġ2019": 5824,
      "Ġkulipa": 5825,
      "rahia": 5826,
      "jengwa": 5827,
      "Ġlift": 5828,
      "ĠChan": 5829,
      "Ġasks": 5830,
      "ĠMpya": 5831,
      "Ġpoor": 5832,
      "fua": 5833,
      "Ġcharacter": 5834,
      "Ġpudd": 5835,
      "Ġletter": 5836,
      "Ġoriginal": 5837,
      "ĠKA": 5838,
      "Ġem": 5839,
      "Ġmikono": 5840,
      "Ġwelcome": 5841,
      "Ġvillage": 5842,
      "CC": 5843,
      "Ġhusa": 5844,
      "umini": 5845,
      "Ġcountries": 5846,
      "Ġuba": 5847,
      "Ġbottle": 5848,
      "ĠKag": 5849,
      "Ġisipokuwa": 5850,
      "kamilisha": 5851,
      "GO": 5852,
      "Ġlile": 5853,
      "ands": 5854,
      "ĠUturuki": 5855,
      "Ġsource": 5856,
      "ises": 5857,
      "Ġwanaj": 5858,
      "Ġprim": 5859,
      "ĠApp": 5860,
      "Ġyet": 5861,
      "yuo": 5862,
      "ĠJumat": 5863,
      "Ġkukabiliana": 5864,
      "Ġsang": 5865,
      "Ġawe": 5866,
      "zaa": 5867,
      "Ġmatendo": 5868,
      "Ġukiwa": 5869,
      "Ġusimamizi": 5870,
      "Ġsimilar": 5871,
      "Ġcrying": 5872,
      "Ġnothing": 5873,
      "Ġbur": 5874,
      "Ġtax": 5875,
      "ĠGeorge": 5876,
      "ĠJen": 5877,
      "faham": 5878,
      "Ġcomb": 5879,
      "Ġserious": 5880,
      "aliwa": 5881,
      "Ġhuto": 5882,
      "Ġinfe": 5883,
      "ware": 5884,
      "gaji": 5885,
      "Ġbuilt": 5886,
      "iroho": 5887,
      "huria": 5888,
      "Ġorgan": 5889,
      "Ġamri": 5890,
      "Ġowner": 5891,
      "Ġfeet": 5892,
      "ĠMal": 5893,
      "ĠPeter": 5894,
      "Ġukurasa": 5895,
      "Ġcaught": 5896,
      "Ġtext": 5897,
      "Maybe": 5898,
      "Ġwadogo": 5899,
      "irs": 5900,
      "Ġrespect": 5901,
      "Ġmakazi": 5902,
      "Ġfront": 5903,
      "ĠYo": 5904,
      "asiasa": 5905,
      "Ġhop": 5906,
      "ĠKimataifa": 5907,
      "ĠCentral": 5908,
      "omy": 5909,
      "Ġstrange": 5910,
      "kondari": 5911,
      "Ġzinaweza": 5912,
      "Ġtamaa": 5913,
      "Ġushahidi": 5914,
      "Ġwasiwa": 5915,
      "ĠSal": 5916,
      "Ġsize": 5917,
      "juma": 5918,
      "Ġcard": 5919,
      "Ġjirani": 5920,
      "ĠElimu": 5921,
      "75": 5922,
      "erc": 5923,
      "Ġakisema": 5924,
      "Bob": 5925,
      "Ġutendaji": 5926,
      "Ġsepar": 5927,
      "toka": 5928,
      "udu": 5929,
      "ier": 5930,
      "ĠUchaguzi": 5931,
      "Ġhope": 5932,
      "kubaliano": 5933,
      "Ġanswer": 5934,
      "tokea": 5935,
      "Ġrolled": 5936,
      "ambi": 5937,
      "ground": 5938,
      "engi": 5939,
      "Ġswali": 5940,
      "Ġkur": 5941,
      "Ġmsi": 5942,
      "Ġwakuu": 5943,
      "ĠMany": 5944,
      "Ġtuzo": 5945,
      "Ġhon": 5946,
      "Ġoil": 5947,
      "Ġnormal": 5948,
      "ĠHos": 5949,
      "ĠLila": 5950,
      "jumuisha": 5951,
      "Of": 5952,
      "ungufu": 5953,
      "Ġutakuwa": 5954,
      "Ø³": 5955,
      "Ġwagonjwa": 5956,
      "http": 5957,
      "Ġnguo": 5958,
      "ĠSchool": 5959,
      "kra": 5960,
      "Ġer": 5961,
      "Ġmzima": 5962,
      "tumia": 5963,
      "umbo": 5964,
      "ĠCalifornia": 5965,
      "Ġapples": 5966,
      "Ġmadhara": 5967,
      "Ġzangu": 5968,
      "Ġkib": 5969,
      "Ġsold": 5970,
      "zer": 5971,
      "Ġ+": 5972,
      "ĠMbunge": 5973,
      "onely": 5974,
      "Ġshop": 5975,
      "Ġcases": 5976,
      "ĠMark": 5977,
      "Ġishara": 5978,
      "Ġsounds": 5979,
      "phant": 5980,
      "Ġkuonekana": 5981,
      "pro": 5982,
      "Ġmine": 5983,
      "ĠIkiwa": 5984,
      "ĠIsrael": 5985,
      "Ġknowledge": 5986,
      "cles": 5987,
      "pared": 5988,
      "Ġtom": 5989,
      "ĠSyria": 5990,
      "Ġ2020": 5991,
      "mun": 5992,
      "Ġcy": 5993,
      "Tanzania": 5994,
      "rea": 5995,
      "Ġuzito": 5996,
      "ital": 5997,
      "ĠJoseph": 5998,
      "Ġnature": 5999,
      "Ġvarious": 6000,
      "ĠAc": 6001,
      "buri": 6002,
      "Ġmajibu": 6003,
      "ĠFo": 6004,
      "OK": 6005,
      "Ġmauaji": 6006,
      "ulizo": 6007,
      "put": 6008,
      "Mwenye": 6009,
      "Ġarm": 6010,
      "Ġstudies": 6011,
      "Ġlaughing": 6012,
      "Ġpill": 6013,
      "Ġrepresent": 6014,
      "ĠJimbo": 6015,
      "ĠPet": 6016,
      "73": 6017,
      "wara": 6018,
      "ĠTA": 6019,
      "EC": 6020,
      "lation": 6021,
      "Ġkuondoka": 6022,
      "atoliki": 6023,
      "ĠArt": 6024,
      "Ġgrew": 6025,
      "mptoms": 6026,
      "Ġpush": 6027,
      "asili": 6028,
      "vana": 6029,
      "uduma": 6030,
      "Ġipo": 6031,
      "Ġinteresting": 6032,
      "pyuta": 6033,
      "Ġgazeti": 6034,
      "upe": 6035,
      "Ġbahati": 6036,
      "Amy": 6037,
      "cil": 6038,
      "ĠÃ": 6039,
      "kimbia": 6040,
      "Akizungumza": 6041,
      "ĠBilly": 6042,
      "Ġhadithi": 6043,
      "kan": 6044,
      "pinga": 6045,
      "Ġnose": 6046,
      "Ġsoup": 6047,
      "ĠRed": 6048,
      "ĠBK": 6049,
      "ĠNairobi": 6050,
      "ination": 6051,
      "Ġmashabiki": 6052,
      "Ġwanam": 6053,
      "Ġbread": 6054,
      "Ġcover": 6055,
      "shindwa": 6056,
      "Ġwasiwasi": 6057,
      "RC": 6058,
      "ĠState": 6059,
      "Ġmm": 6060,
      "Ġhote": 6061,
      "Ġajabu": 6062,
      "Ġeffective": 6063,
      "HU": 6064,
      "ompyuta": 6065,
      "Ġpopular": 6066,
      "Ġmembers": 6067,
      "Ġkn": 6068,
      "ĠWal": 6069,
      "Ġplaces": 6070,
      "Ġkulikuwa": 6071,
      "Ġwaweze": 6072,
      "Ġmail": 6073,
      "ified": 6074,
      "Ġobject": 6075,
      "Ġemail": 6076,
      "ense": 6077,
      "fanyiwa": 6078,
      "tari": 6079,
      "Ġearth": 6080,
      "Ġkumaliza": 6081,
      "Ġziki": 6082,
      "Ġwafuasi": 6083,
      "Ġlonely": 6084,
      "Ġapplic": 6085,
      "ĠWali": 6086,
      "Ġkosa": 6087,
      "Ġzisizo": 6088,
      "Ġanat": 6089,
      "Ġclim": 6090,
      "Ġgives": 6091,
      "bow": 6092,
      "Ġmahusiano": 6093,
      "Ġrather": 6094,
      "ungeni": 6095,
      "eneja": 6096,
      "Ġrecei": 6097,
      "Ġwaishio": 6098,
      "kumbuka": 6099,
      "Ġago": 6100,
      "Ġcou": 6101,
      "Ġmole": 6102,
      "Ġrelations": 6103,
      "ambukizi": 6104,
      "ĠAug": 6105,
      "Ġ190": 6106,
      "ricul": 6107,
      "Ġevidence": 6108,
      "choche": 6109,
      "ĠMambo": 6110,
      "Ġkudhibiti": 6111,
      "ĠPart": 6112,
      "ĠQur": 6113,
      "otoa": 6114,
      "Ġgrandma": 6115,
      "fundisha": 6116,
      "Ġsail": 6117,
      "Ġlower": 6118,
      "Ġwings": 6119,
      "fululizo": 6120,
      "Ġmtazamo": 6121,
      "Ġibada": 6122,
      "ĠMon": 6123,
      "ĠKongo": 6124,
      "Ġletu": 6125,
      "Ġanti": 6126,
      "nel": 6127,
      "Ġemplo": 6128,
      "Ġmsimamo": 6129,
      "hudhuria": 6130,
      "ĠAmerica": 6131,
      "Ġfairy": 6132,
      "jita": 6133,
      "Ġkukosa": 6134,
      "Ġcandy": 6135,
      "halifu": 6136,
      "Ġfarmer": 6137,
      "ĠÙħ": 6138,
      "Ġthinks": 6139,
      "ĠMart": 6140,
      "Ġpage": 6141,
      "ĠPl": 6142,
      "Ġbusiness": 6143,
      "ĠWhile": 6144,
      "Ġpole": 6145,
      "kusu": 6146,
      "asaidia": 6147,
      "halika": 6148,
      "Ġhukumu": 6149,
      "ĠBer": 6150,
      "anzia": 6151,
      "Ġadhabu": 6152,
      "Ġmasa": 6153,
      "vation": 6154,
      "pid": 6155,
      "Ġmgo": 6156,
      "elebr": 6157,
      "Ġwataalamu": 6158,
      "Ġmvua": 6159,
      "otoka": 6160,
      "ament": 6161,
      "artment": 6162,
      "Ġ2004": 6163,
      "grafia": 6164,
      "anganyika": 6165,
      "pers": 6166,
      "ĠShi": 6167,
      "Ġplane": 6168,
      "iter": 6169,
      "Ġweak": 6170,
      "Ġmaumivu": 6171,
      "Ġneigh": 6172,
      "ulia": 6173,
      "Ġdeta": 6174,
      "____": 6175,
      "pani": 6176,
      "ĠTanga": 6177,
      "rop": 6178,
      "ĠQu": 6179,
      "Ġdropped": 6180,
      "Cha": 6181,
      "Ġbarked": 6182,
      "Ġpeke": 6183,
      "lipa": 6184,
      "ĠSing": 6185,
      "Ġmimba": 6186,
      "ĠTU": 6187,
      "Ġkite": 6188,
      "Ġhaina": 6189,
      "Ġinflu": 6190,
      "ĠNeno": 6191,
      "How": 6192,
      "Ġvyake": 6193,
      "mbea": 6194,
      "lisho": 6195,
      "45": 6196,
      "Ġ2003": 6197,
      "Ġhofu": 6198,
      "Ġgeneral": 6199,
      "Ġarrived": 6200,
      "wekezaji": 6201,
      "ĠEarth": 6202,
      "Ġexam": 6203,
      "Ġpolitical": 6204,
      "bwe": 6205,
      "Ġstars": 6206,
      "Ġkuwapa": 6207,
      "Ġmaafisa": 6208,
      "Ġindic": 6209,
      "Ġ#": 6210,
      "Ġbone": 6211,
      "Ġgent": 6212,
      "Ġeffects": 6213,
      "Please": 6214,
      "ims": 6215,
      "Ġwenzake": 6216,
      "Ġweight": 6217,
      "Ġbutton": 6218,
      "gus": 6219,
      "Ġherself": 6220,
      "Ġmojawapo": 6221,
      "Basi": 6222,
      "ĠKif": 6223,
      "Ġkume": 6224,
      "Ġkuendeleza": 6225,
      "Ġvin": 6226,
      "Ġgroups": 6227,
      "posed": 6228,
      "fanisi": 6229,
      "Ġdrive": 6230,
      "Ġkuandika": 6231,
      "Ġhours": 6232,
      "Ġcontin": 6233,
      "Ġmatunda": 6234,
      "Ġviol": 6235,
      "Ġkufuatia": 6236,
      "angazwa": 6237,
      "endelee": 6238,
      "nes": 6239,
      "ĠKip": 6240,
      "eleka": 6241,
      "Ġkumwa": 6242,
      "ĠHealth": 6243,
      "ibuka": 6244,
      "Ġuwa": 6245,
      "ĠKI": 6246,
      "ĠFedha": 6247,
      "Ġuwekezaji": 6248,
      "sikia": 6249,
      "atoka": 6250,
      "Ġmaslahi": 6251,
      "Ġmeas": 6252,
      "etic": 6253,
      "vision": 6254,
      "Ġkumbukumbu": 6255,
      "estern": 6256,
      "Ġwoman": 6257,
      "Now": 6258,
      "ĠTra": 6259,
      "ĠAra": 6260,
      "Ġunajua": 6261,
      "Ġmes": 6262,
      "Ġngozi": 6263,
      "Ġbasket": 6264,
      "Ġkuunda": 6265,
      "Ġdelicious": 6266,
      "ĠSim": 6267,
      "iliwa": 6268,
      "Ġkusimamia": 6269,
      "Ġchall": 6270,
      "ĠIsraeli": 6271,
      "Ġev": 6272,
      "cking": 6273,
      "ĠHistory": 6274,
      "Ġdepend": 6275,
      "Ġreading": 6276,
      "kwaa": 6277,
      "ĠBritish": 6278,
      "geta": 6279,
      "Ġgrowth": 6280,
      "Ġrequire": 6281,
      "35": 6282,
      "lli": 6283,
      "Ġopt": 6284,
      "Ġpattern": 6285,
      "Ġarticle": 6286,
      "Ġwagged": 6287,
      "Ġpractice": 6288,
      "unt": 6289,
      "Ġparts": 6290,
      "Ġdar": 6291,
      "Ġfamili": 6292,
      "Ġalipokuwa": 6293,
      "ambano": 6294,
      "itihada": 6295,
      "haribu": 6296,
      "Ġactivities": 6297,
      "Ġsafi": 6298,
      "Ġdisapp": 6299,
      "inguni": 6300,
      "Ġparticip": 6301,
      "hood": 6302,
      "ĠJim": 6303,
      "iwani": 6304,
      "fadhali": 6305,
      "Ġmulti": 6306,
      "Ġmiko": 6307,
      "ilio": 6308,
      "Ġtuka": 6309,
      "ughulikia": 6310,
      "----": 6311,
      "Ġdama": 6312,
      "Ġwajumbe": 6313,
      "ĠWak": 6314,
      "hawa": 6315,
      "Ġuso": 6316,
      "Ġanam": 6317,
      "Ġkujito": 6318,
      "Ġwhether": 6319,
      "Ġport": 6320,
      "unza": 6321,
      "ĠRom": 6322,
      "UF": 6323,
      "Ġbenki": 6324,
      "Ġwatatu": 6325,
      "bda": 6326,
      "Ġsuff": 6327,
      "Ġspin": 6328,
      "Ġelephant": 6329,
      "Ġmitatu": 6330,
      "ĠKore": 6331,
      "Ġneck": 6332,
      "ĠBenki": 6333,
      "Ġrecomm": 6334,
      "right": 6335,
      "badilika": 6336,
      "ĠEngland": 6337,
      "Ġvibaya": 6338,
      "ĠInstit": 6339,
      "ĠMali": 6340,
      "Ġurais": 6341,
      "Ġkesho": 6342,
      "Ġjuice": 6343,
      "fya": 6344,
      "rithi": 6345,
      "iada": 6346,
      "Ġziwa": 6347,
      "Ġindepend": 6348,
      "reg": 6349,
      "Ġloss": 6350,
      "ĠYour": 6351,
      "Ġindividual": 6352,
      "Ġgoes": 6353,
      "Ġkanda": 6354,
      "ksi": 6355,
      "Ġwito": 6356,
      "Ġrole": 6357,
      "kamani": 6358,
      "bora": 6359,
      "ĠMjini": 6360,
      "Me": 6361,
      "ĠCO": 6362,
      "Ġcommunic": 6363,
      "Ġled": 6364,
      "Ġhelpful": 6365,
      "namo": 6366,
      "Ġahadi": 6367,
      "Ġsitu": 6368,
      "Ã¡": 6369,
      "Ġjua": 6370,
      "ungana": 6371,
      "Ġmashirika": 6372,
      "ĠNyingine": 6373,
      "Ġwanaoishi": 6374,
      "bel": 6375,
      "Ġmbunge": 6376,
      "keti": 6377,
      "ĠDep": 6378,
      "Ġshapes": 6379,
      "Ġslowly": 6380,
      "elezwa": 6381,
      "Mt": 6382,
      "cting": 6383,
      "Ġmonkey": 6384,
      "Ġsimple": 6385,
      "otumia": 6386,
      "Ġrem": 6387,
      "Ġshining": 6388,
      "Ġhorse": 6389,
      "Ms": 6390,
      "like": 6391,
      "Ġphone": 6392,
      "ĠCl": 6393,
      "pter": 6394,
      "Ġachie": 6395,
      "Ġscience": 6396,
      "amaki": 6397,
      "ĠSec": 6398,
      "andaoni": 6399,
      "Ġphysical": 6400,
      "ANI": 6401,
      "utoka": 6402,
      "ĠNyerere": 6403,
      "39": 6404,
      "Ġukubwa": 6405,
      "Ġkiume": 6406,
      "kilisha": 6407,
      "kusanya": 6408,
      "hamas": 6409,
      "Ġmachine": 6410,
      "Ġwonderful": 6411,
      "Kit": 6412,
      "Ġkuelewa": 6413,
      "lash": 6414,
      "Ġgentle": 6415,
      "Ġabs": 6416,
      "Ġactivity": 6417,
      "Ġ90": 6418,
      "Ġlives": 6419,
      "ĠNdi": 6420,
      "Ġsens": 6421,
      "Ġmakao": 6422,
      "Ġzilikuwa": 6423,
      "uz": 6424,
      "36": 6425,
      "Ġkuep": 6426,
      "ressed": 6427,
      "Ġbreat": 6428,
      "Ġkukuza": 6429,
      "cto": 6430,
      "poke": 6431,
      "Ġdeveloped": 6432,
      "Ġstreet": 6433,
      "Ġ31": 6434,
      "unda": 6435,
      "Ġmacha": 6436,
      "cean": 6437,
      "Ġcontrib": 6438,
      "Ġindust": 6439,
      "vya": 6440,
      "Ġwizara": 6441,
      "ĠGoogle": 6442,
      "Ġwanasema": 6443,
      "Ġkocha": 6444,
      "Ġpromise": 6445,
      "mbulizi": 6446,
      "Ġholding": 6447,
      "Ġmakubaliano": 6448,
      "Ġkitendo": 6449,
      "Ġvirusi": 6450,
      "âĢĿ,": 6451,
      "Ġkamwe": 6452,
      "ktari": 6453,
      "Ġresources": 6454,
      "Ġhoped": 6455,
      "Ġwachache": 6456,
      "hite": 6457,
      "graphy": 6458,
      "ĠTommy": 6459,
      "Ġatakuwa": 6460,
      "Ġcrab": 6461,
      "ichael": 6462,
      "bla": 6463,
      "hirikisha": 6464,
      "Ġml": 6465,
      "medi": 6466,
      "App": 6467,
      "cape": 6468,
      "oday": 6469,
      "Ġpred": 6470,
      "Ġalip": 6471,
      "WE": 6472,
      "Ġakim": 6473,
      "Ġdragon": 6474,
      "Ġwaj": 6475,
      "Ġmwenza": 6476,
      "Ġ35": 6477,
      "Ġlit": 6478,
      "Ġyanaweza": 6479,
      "Ġbao": 6480,
      "humiwa": 6481,
      "yani": 6482,
      "BU": 6483,
      "historia": 6484,
      "Ġufanisi": 6485,
      "chuano": 6486,
      "Ġcreated": 6487,
      "het": 6488,
      "ĠBay": 6489,
      "asihi": 6490,
      "fundisho": 6491,
      "umbi": 6492,
      "anguage": 6493,
      "Ġrange": 6494,
      "Ġregular": 6495,
      "xim": 6496,
      "Ġmika": 6497,
      "RO": 6498,
      "Ġpublished": 6499,
      "Ġbush": 6500,
      "ĠKata": 6501,
      "Ġsix": 6502,
      "Ġmem": 6503,
      "ĠKampuni": 6504,
      "geze": 6505,
      "Ġsaf": 6506,
      "Ġwash": 6507,
      "Ġadult": 6508,
      "Ġproducts": 6509,
      "Ġkupoteza": 6510,
      "ĠUch": 6511,
      "Ġusio": 6512,
      "Ġrare": 6513,
      "Ġfainali": 6514,
      "Ġyam": 6515,
      "Ġrich": 6516,
      "Mommy": 6517,
      "Ġziada": 6518,
      "Ġakaunti": 6519,
      "Ġbusy": 6520,
      "Ġtypes": 6521,
      "ctors": 6522,
      "Ġkuuza": 6523,
      "Ġwhist": 6524,
      "Ġterm": 6525,
      "Ġajali": 6526,
      "Ġkufanyika": 6527,
      "Ġhifadhi": 6528,
      "Ġshr": 6529,
      "wat": 6530,
      "Ġcelebr": 6531,
      "Da": 6532,
      "Ġunapo": 6533,
      "Ġfrequ": 6534,
      "ĠDay": 6535,
      "Ġunique": 6536,
      "Ġmfululizo": 6537,
      "ĠPres": 6538,
      "Ġtou": 6539,
      "Ġsymptoms": 6540,
      "Ġyenyewe": 6541,
      "ĠKwanza": 6542,
      "ĠHakuna": 6543,
      "Ġpull": 6544,
      "Ġsimp": 6545,
      "ĠâĢ¦": 6546,
      "kelezwa": 6547,
      "uman": 6548,
      "Ġlog": 6549,
      "Ġdrug": 6550,
      "flow": 6551,
      "reme": 6552,
      "Ġscream": 6553,
      "Ġisland": 6554,
      "Ġclimate": 6555,
      "irt": 6556,
      "Ġforever": 6557,
      "ĠMaria": 6558,
      "Ġkukutana": 6559,
      "Ġlunch": 6560,
      "Ġseek": 6561,
      "imbizi": 6562,
      "Ġmatumaini": 6563,
      "gal": 6564,
      "Âł": 6565,
      "Ġmashine": 6566,
      "Ġjoy": 6567,
      "Ġchen": 6568,
      "yoya": 6569,
      "Ġmarafiki": 6570,
      "angulia": 6571,
      "198": 6572,
      "Ġsherehe": 6573,
      "Ġalbamu": 6574,
      "Ġsave": 6575,
      "Ġdocum": 6576,
      "Ġsurface": 6577,
      "CA": 6578,
      "Ġcapa": 6579,
      "Ġmisa": 6580,
      "ĠKWA": 6581,
      "ĠIran": 6582,
      "Ġ2001": 6583,
      "ĠStat": 6584,
      "Ġaccount": 6585,
      "Ġkijana": 6586,
      "Ġquality": 6587,
      "Ġstorm": 6588,
      "Ġmoon": 6589,
      "Ġresearchers": 6590,
      "Ġuny": 6591,
      "Ġutaka": 6592,
      "Ġhawezi": 6593,
      "Ġmifu": 6594,
      "tered": 6595,
      "ĠMwalimu": 6596,
      "Ġsinging": 6597,
      "ĠHali": 6598,
      "Ġmakampuni": 6599,
      "Ġlao": 6600,
      "lalami": 6601,
      "otumika": 6602,
      "Ġactually": 6603,
      "ĠPre": 6604,
      "Ġmwanga": 6605,
      "Ġswings": 6606,
      "ĠKazi": 6607,
      "SH": 6608,
      "Ġames": 6609,
      "ombinu": 6610,
      "Ġujuzi": 6611,
      "Ġ80": 6612,
      "Ġkuongezeka": 6613,
      "Ġhakuwa": 6614,
      "ĠSun": 6615,
      "fsiriwa": 6616,
      "Ġdaraja": 6617,
      "Ġnote": 6618,
      "Ġmuundo": 6619,
      "ĠTaasisi": 6620,
      "Ġnation": 6621,
      "Ġpatients": 6622,
      "Ġaccept": 6623,
      "aktari": 6624,
      "ĠPaulo": 6625,
      "Ġawamu": 6626,
      "Ġkupewa": 6627,
      "iment": 6628,
      "Ġship": 6629,
      "Ġstructure": 6630,
      "bidi": 6631,
      "Ġkuzaliwa": 6632,
      "Ġuz": 6633,
      "ĠTheir": 6634,
      "Ġkipe": 6635,
      "alam": 6636,
      "fafanua": 6637,
      "Good": 6638,
      "unuzi": 6639,
      "undombinu": 6640,
      "ategemea": 6641,
      "Ġwatumiaji": 6642,
      "Ġteeth": 6643,
      "Ġpuddle": 6644,
      "Ġrate": 6645,
      "fortable": 6646,
      "Ġentire": 6647,
      "Ġsugar": 6648,
      "Ġwore": 6649,
      "Ġeye": 6650,
      "ĠOffice": 6651,
      "lezi": 6652,
      "chungaji": 6653,
      "ending": 6654,
      "hubiri": 6655,
      "ĠNina": 6656,
      "hakik": 6657,
      "Ġhotuba": 6658,
      "Ġkuamini": 6659,
      "ĠMc": 6660,
      "cco": 6661,
      "Ġcheese": 6662,
      "know": 6663,
      "atokea": 6664,
      "Ġtunaweza": 6665,
      "inary": 6666,
      "Ġburn": 6667,
      "lying": 6668,
      "Ġstring": 6669,
      "Ġkudumu": 6670,
      "ĠLib": 6671,
      "Ġvia": 6672,
      "Ġjitihada": 6673,
      "urity": 6674,
      "Ġvijiji": 6675,
      "Ġwafanyabiashara": 6676,
      "endekezo": 6677,
      "Ġproduction": 6678,
      "Ġsex": 6679,
      "Ġanyone": 6680,
      "Ġmedical": 6681,
      "Ġconsider": 6682,
      "Ġmark": 6683,
      "Ġrights": 6684,
      "Ġissues": 6685,
      "pond": 6686,
      "Mwan": 6687,
      "Ġkiu": 6688,
      "Ġskills": 6689,
      "ĠWatakatifu": 6690,
      "Ġdead": 6691,
      "Ġspeed": 6692,
      "Ġil": 6693,
      "Ġten": 6694,
      "ĠRese": 6695,
      "Ġsharp": 6696,
      "Ġconsum": 6697,
      "Ġwakubwa": 6698,
      "Ġtasty": 6699,
      "ceed": 6700,
      "Ġancient": 6701,
      "Ġkijeshi": 6702,
      "Ġkulala": 6703,
      "Ġdogs": 6704,
      "Ġkukus": 6705,
      "Ġaccording": 6706,
      "Ġtreasure": 6707,
      "My": 6708,
      "hington": 6709,
      "load": 6710,
      "Ġrushwa": 6711,
      "imea": 6712,
      "haria": 6713,
      "Ġkulia": 6714,
      "ĠKid": 6715,
      "ĠMsa": 6716,
      "Ġfear": 6717,
      "Pro": 6718,
      "ahidi": 6719,
      "Ġ70": 6720,
      "hiopia": 6721,
      "Picha": 6722,
      "Ġspir": 6723,
      "rti": 6724,
      "Ġkiroho": 6725,
      "Ġhoney": 6726,
      "Ġmaambukizi": 6727,
      "bas": 6728,
      "Ġdeg": 6729,
      "jit": 6730,
      "hilo": 6731,
      "ĠGuinea": 6732,
      "laa": 6733,
      "Amesema": 6734,
      "CCM": 6735,
      "edi": 6736,
      "ĠMto": 6737,
      "ĠKatoliki": 6738,
      "Ġpotential": 6739,
      "tage": 6740,
      "ĠZA": 6741,
      "tal": 6742,
      "Ġpasi": 6743,
      "Ġakam": 6744,
      "hudumia": 6745,
      "Ġpowerful": 6746,
      "ights": 6747,
      "Ġwad": 6748,
      "taja": 6749,
      "Ġmipaka": 6750,
      "Ġuseful": 6751,
      "hehe": 6752,
      "Ġhusus": 6753,
      "Ġkuche": 6754,
      "ĠAme": 6755,
      "Ġwebsite": 6756,
      "kabidhi": 6757,
      "ilimali": 6758,
      "ãģ": 6759,
      "kezwa": 6760,
      "faka": 6761,
      "Ġanay": 6762,
      "65": 6763,
      "useum": 6764,
      "elekeza": 6765,
      "Ġencoura": 6766,
      "SE": 6767,
      "Ġjioni": 6768,
      "Ġmchana": 6769,
      "pelekea": 6770,
      "Ġsick": 6771,
      "takiwa": 6772,
      "ĠPark": 6773,
      "Ġmchango": 6774,
      "zunguko": 6775,
      "ĠFrancis": 6776,
      "Ho": 6777,
      "cra": 6778,
      "ste": 6779,
      "Ġwra": 6780,
      "Ġmedia": 6781,
      "unk": 6782,
      "Ġhelps": 6783,
      "rench": 6784,
      "Ġneg": 6785,
      "aluma": 6786,
      "Ġkompyuta": 6787,
      "Ġheat": 6788,
      "daiwa": 6789,
      "Ġtwins": 6790,
      "Ġwanapo": 6791,
      "anguka": 6792,
      "Ġcoat": 6793,
      "Ġfighting": 6794,
      "Ġrele": 6795,
      "Ġque": 6796,
      "anzo": 6797,
      "Ġzawadi": 6798,
      "Ġimara": 6799,
      "ĠHass": 6800,
      "Ġadvan": 6801,
      "ison": 6802,
      "Ġfixed": 6803,
      "Ġreturn": 6804,
      "Ġmaziwa": 6805,
      "Ġanapo": 6806,
      "ec": 6807,
      "pungua": 6808,
      "Ġtuki": 6809,
      "Ġgold": 6810,
      "pana": 6811,
      "sidered": 6812,
      "Ġmisingi": 6813,
      "Ġfeels": 6814,
      "Ġhospital": 6815,
      "Ġwave": 6816,
      "Ġmilele": 6817,
      "33": 6818,
      "Ġmarehemu": 6819,
      "rn": 6820,
      "Ġharm": 6821,
      "jifunza": 6822,
      "Jack": 6823,
      "ingo": 6824,
      "uwa": 6825,
      "arr": 6826,
      "Ġaddition": 6827,
      "Ġkuvun": 6828,
      "Ġrope": 6829,
      "Ġrasilimali": 6830,
      "Ġdhana": 6831,
      "IV": 6832,
      "Ġzoezi": 6833,
      "ĠTun": 6834,
      "ource": 6835,
      "Ġkwangu": 6836,
      "Ġkuwat": 6837,
      "Ġelectric": 6838,
      "Ġanas": 6839,
      "Ġdem": 6840,
      "ĠRobert": 6841,
      "Ġappear": 6842,
      "Ġkukata": 6843,
      "Ġmonths": 6844,
      "amka": 6845,
      "Ġincreased": 6846,
      "Ġnyakati": 6847,
      "Ġkik": 6848,
      "kamata": 6849,
      "Ġcray": 6850,
      "head": 6851,
      "cular": 6852,
      "Ġcoin": 6853,
      "Ġmasharti": 6854,
      "Ġkuzungumza": 6855,
      "Ġintel": 6856,
      "Ġkuchagua": 6857,
      "Ġndivyo": 6858,
      "Ġnane": 6859,
      "Ġsele": 6860,
      "Ġnishati": 6861,
      "ĠJew": 6862,
      "Mw": 6863,
      "Ġharakati": 6864,
      "Ġblog": 6865,
      "Ġwoke": 6866,
      "Ã¼": 6867,
      "ÙĤ": 6868,
      "umikia": 6869,
      "Ġdiet": 6870,
      "Ġnafsi": 6871,
      "babishwa": 6872,
      "Ġuzazi": 6873,
      "Ġmaarifa": 6874,
      "ĠJamii": 6875,
      "hem": 6876,
      "Ġhiding": 6877,
      "Ġteddy": 6878,
      "Ġwenu": 6879,
      "Ġchuma": 6880,
      "Ġmam": 6881,
      "Ġbinti": 6882,
      "Ġcute": 6883,
      "Ġcontent": 6884,
      "Ġnumbers": 6885,
      "ĠSpe": 6886,
      "Ġrobot": 6887,
      "Ġhati": 6888,
      "ston": 6889,
      "Ġmsanii": 6890,
      "Ġbaridi": 6891,
      "cyc": 6892,
      "pr": 6893,
      "Finally": 6894,
      "Ġstates": 6895,
      "fied": 6896,
      ");": 6897,
      "Ġcu": 6898,
      "Ġpressure": 6899,
      "inti": 6900,
      "ondolewa": 6901,
      "Ġbirthday": 6902,
      "Ġsack": 6903,
      "Ġchumba": 6904,
      "Ġfence": 6905,
      "Ġhang": 6906,
      "vere": 6907,
      "Ġusafiri": 6908,
      "jani": 6909,
      "ĠWhy": 6910,
      "Ġcave": 6911,
      "Ġstudent": 6912,
      "Ġdescrib": 6913,
      "arian": 6914,
      "ambulisho": 6915,
      "jaro": 6916,
      "Ġurefu": 6917,
      "Ġbugs": 6918,
      "Ġmahakamani": 6919,
      "ĠCounty": 6920,
      "uny": 6921,
      "Ġmwishoni": 6922,
      "ab": 6923,
      "ĠEast": 6924,
      "Ġeconomic": 6925,
      "Ġkutangaza": 6926,
      "Ġnjema": 6927,
      "ĠHawa": 6928,
      "jadili": 6929,
      "Ġuongo": 6930,
      "Ġinavyo": 6931,
      "des": 6932,
      "kusudi": 6933,
      "Mu": 6934,
      "ughty": 6935,
      "Ina": 6936,
      "ĠKituo": 6937,
      "Ġrainbow": 6938,
      "take": 6939,
      "Ġkambi": 6940,
      "Ġyaki": 6941,
      "Ġones": 6942,
      "Ġcompet": 6943,
      "Ġkas": 6944,
      "Ġann": 6945,
      "vuvi": 6946,
      "Ġing": 6947,
      "eria": 6948,
      "Ġviumbe": 6949,
      "Ġconsidered": 6950,
      "ĠMtwara": 6951,
      "hiskers": 6952,
      "Ġnilikuwa": 6953,
      "isko": 6954,
      "Ġfruits": 6955,
      "ĠMil": 6956,
      "Ġpocket": 6957,
      "Ġvyuo": 6958,
      "Ġviungo": 6959,
      "lax": 6960,
      "Baadhi": 6961,
      "Ġunayo": 6962,
      "lazimika": 6963,
      "gni": 6964,
      "Ġmli": 6965,
      "pua": 6966,
      "Ġpuppy": 6967,
      "ĠAka": 6968,
      "ressive": 6969,
      "Ġunaona": 6970,
      "Ġwazee": 6971,
      "ĠHuduma": 6972,
      "Ġjud": 6973,
      "Ġkira": 6974,
      "Ġsla": 6975,
      "Ġreason": 6976,
      "stari": 6977,
      "Ã¶": 6978,
      "Ġwastani": 6979,
      "Ġpengine": 6980,
      "Ġmajengo": 6981,
      "Ġopportun": 6982,
      "Ġmanufaa": 6983,
      "Ġtouched": 6984,
      "Ġnational": 6985,
      "Ġkuendesha": 6986,
      "Ġmaba": 6987,
      "fuu": 6988,
      "Ġextra": 6989,
      "ĠUwanja": 6990,
      "chester": 6991,
      "Ġunderstanding": 6992,
      "Ġmotor": 6993,
      "Ġregion": 6994,
      "ller": 6995,
      "ĠCont": 6996,
      "pose": 6997,
      "ĠFC": 6998,
      "Ġwange": 6999,
      "Ġreduce": 7000,
      "ĠDis": 7001,
      "Ġdaima": 7002,
      "sequ": 7003,
      "lla": 7004,
      "andaliwa": 7005,
      "Ġcheered": 7006,
      "Ġkuisaidia": 7007,
      "manjaro": 7008,
      "Ġbrid": 7009,
      "Ġjiji": 7010,
      "zimi": 7011,
      "livu": 7012,
      "Ġnaughty": 7013,
      "ĠRemy": 7014,
      "Ġtaste": 7015,
      "Ġbench": 7016,
      "atokana": 7017,
      "onesia": 7018,
      "gezeko": 7019,
      "ĠCanada": 7020,
      "licy": 7021,
      "mas": 7022,
      "ilayani": 7023,
      "Ġfed": 7024,
      "Ġshook": 7025,
      "Ġgiant": 7026,
      "known": 7027,
      "wit": 7028,
      "Ġwasn": 7029,
      "Ġforget": 7030,
      "ambaa": 7031,
      "Ġkipekee": 7032,
      "Ġwrote": 7033,
      "Ġinas": 7034,
      "Ġfing": 7035,
      "cal": 7036,
      "Ġonto": 7037,
      "Ġadded": 7038,
      "Ġuhai": 7039,
      "ĠTanganyika": 7040,
      "Ġtrip": 7041,
      "lant": 7042,
      "tta": 7043,
      "Ġzilizopo": 7044,
      "ĠDes": 7045,
      "Ġchombo": 7046,
      "à¤": 7047,
      "ĠAnge": 7048,
      "Ġtiba": 7049,
      "Ġminutes": 7050,
      "kilia": 7051,
      "Ġvyakula": 7052,
      "Bo": 7053,
      "gha": 7054,
      "ĠMit": 7055,
      "Ġkupanda": 7056,
      "Ġrisasi": 7057,
      "kie": 7058,
      "Ġresist": 7059,
      "enguni": 7060,
      "Ġkupita": 7061,
      "34": 7062,
      "Ġndoto": 7063,
      "ughter": 7064,
      "Ġagree": 7065,
      "Ġgesi": 7066,
      "icks": 7067,
      "Ġrelated": 7068,
      "heshimu": 7069,
      "kubaliana": 7070,
      "Ġdriver": 7071,
      "Ġmgombea": 7072,
      "jumaa": 7073,
      "ĠKorea": 7074,
      "Ġsoil": 7075,
      "ĠWashington": 7076,
      "Kaunti": 7077,
      "ĠMichael": 7078,
      "ows": 7079,
      "38": 7080,
      "panda": 7081,
      "pangwa": 7082,
      "fikisha": 7083,
      "Ġrequired": 7084,
      "ĠEmma": 7085,
      "Ġbott": 7086,
      "ĠAgano": 7087,
      "verage": 7088,
      "ggy": 7089,
      "ĠCharles": 7090,
      "kwazo": 7091,
      "Ġwakimbizi": 7092,
      "ĠKigoma": 7093,
      "ĠAugust": 7094,
      "ĠPi": 7095,
      "Ġkuwe": 7096,
      "Ġshy": 7097,
      "Ġmabaya": 7098,
      "Ġcarried": 7099,
      "Ġreduc": 7100,
      "ĠKombe": 7101,
      "Ġmbinguni": 7102,
      "Ġmitano": 7103,
      "Ġliter": 7104,
      "sian": 7105,
      "otokana": 7106,
      "Ġiliyokuwa": 7107,
      "Ġvifo": 7108,
      "ee": 7109,
      "99": 7110,
      "Ġimpact": 7111,
      "ĠVal": 7112,
      "Ġgrowing": 7113,
      "PO": 7114,
      "Ġglobal": 7115,
      "Ġemer": 7116,
      "Ġsense": 7117,
      "ances": 7118,
      "quare": 7119,
      "ĠTAN": 7120,
      "Ġiliyopo": 7121,
      "Ġgray": 7122,
      "Chan": 7123,
      "Ġnit": 7124,
      "ĠMamlaka": 7125,
      "ĠRwanda": 7126,
      "Un": 7127,
      "Ġsamaki": 7128,
      "ĠAct": 7129,
      "Ġvilevile": 7130,
      "??": 7131,
      "Ġcook": 7132,
      "Ġexpen": 7133,
      "ĠKib": 7134,
      "Ġkujit": 7135,
      "Ġwavuti": 7136,
      "igo": 7137,
      "Ġusajili": 7138,
      "Ġetc": 7139,
      "ires": 7140,
      "mani": 7141,
      "sue": 7142,
      "Ġability": 7143,
      "Ġconcern": 7144,
      "Ġassociated": 7145,
      "omaji": 7146,
      "Ġutoaji": 7147,
      "iliana": 7148,
      "ĠAlex": 7149,
      "vey": 7150,
      "Ġ45": 7151,
      "piki": 7152,
      "ronic": 7153,
      "ĠChristian": 7154,
      "ĠUnaweza": 7155,
      "Ġspark": 7156,
      "bul": 7157,
      "amilia": 7158,
      "lau": 7159,
      "ĠThank": 7160,
      "ially": 7161,
      "Ġarms": 7162,
      "amana": 7163,
      "Ġenzi": 7164,
      "Ġmafundisho": 7165,
      "phone": 7166,
      "Ġcondu": 7167,
      "ĠVir": 7168,
      "umie": 7169,
      "Ġyuko": 7170,
      "vie": 7171,
      "Ġkumt": 7172,
      "ĠHassan": 7173,
      "Ġboard": 7174,
      "Ġmifumo": 7175,
      "Ġvipi": 7176,
      "baka": 7177,
      "Ġradio": 7178,
      "Ġcomplex": 7179,
      "Ġkutolewa": 7180,
      "Ġtrust": 7181,
      "Ġsco": 7182,
      "Ġmtindo": 7183,
      "Ġbarani": 7184,
      "ĠAbdul": 7185,
      "hala": 7186,
      "Ġdolls": 7187,
      "sure": 7188,
      "ãĥ": 7189,
      "Ġmadarakani": 7190,
      "kita": 7191,
      "Ġdhamana": 7192,
      "31": 7193,
      "Ġunataka": 7194,
      "Ġasiye": 7195,
      "kiri": 7196,
      "Ġnim": 7197,
      "kima": 7198,
      "erable": 7199,
      "Ġ1990": 7200,
      "Ġmiddle": 7201,
      "ĠFinally": 7202,
      "sco": 7203,
      "sefu": 7204,
      "ongwe": 7205,
      "handisi": 7206,
      "choki": 7207,
      "omen": 7208,
      "ghuli": 7209,
      "Ġneema": 7210,
      "alim": 7211,
      "Ġmaterials": 7212,
      "Ġprovides": 7213,
      "Ġconcept": 7214,
      "Ġpuzz": 7215,
      "Ġlabda": 7216,
      "Ġupset": 7217,
      "Ġservices": 7218,
      "Sh": 7219,
      "ker": 7220,
      "Ġwenz": 7221,
      "Ġkupatikana": 7222,
      "Ġmechan": 7223,
      "order": 7224,
      "ĠJes": 7225,
      "amosi": 7226,
      "indua": 7227,
      "ords": 7228,
      "Ġstrate": 7229,
      "Ġsil": 7230,
      "haribifu": 7231,
      "Ġuliopita": 7232,
      "Ġhous": 7233,
      "ĠNot": 7234,
      "Ġaction": 7235,
      "ĠResearch": 7236,
      "rum": 7237,
      "Ġkujadili": 7238,
      "ĠNor": 7239,
      "edia": 7240,
      "ĠIre": 7241,
      "76": 7242,
      "husiwa": 7243,
      "Ġballs": 7244,
      "Ġakizungumza": 7245,
      "fuatayo": 7246,
      "Ġmashu": 7247,
      "Ġkizazi": 7248,
      "Ġsmaller": 7249,
      "Ġlat": 7250,
      "Mara": 7251,
      "kis": 7252,
      "Ġstage": 7253,
      "ĠEthiopia": 7254,
      "uo": 7255,
      "uted": 7256,
      "ĠBella": 7257,
      "Ġimage": 7258,
      "Ġwriting": 7259,
      "Ġapproach": 7260,
      "Ut": 7261,
      "Ġbase": 7262,
      "Ġfather": 7263,
      "ĠMore": 7264,
      "EA": 7265,
      "ĠKiwa": 7266,
      "vate": 7267,
      "ĠMarch": 7268,
      "ĠPeople": 7269,
      "ĠVita": 7270,
      "Ġscar": 7271,
      "Ġlegs": 7272,
      "kulu": 7273,
      "Ġflu": 7274,
      "Is": 7275,
      "zil": 7276,
      "Ġir": 7277,
      "ĠChadema": 7278,
      "rani": 7279,
      "Ġpile": 7280,
      "Ġintern": 7281,
      "ĠIndonesia": 7282,
      "Ġthera": 7283,
      "Ġdoesn": 7284,
      "Ġmadaraka": 7285,
      "car": 7286,
      "Ġmiundombinu": 7287,
      "Ġhaija": 7288,
      "Ġkuamua": 7289,
      "tahili": 7290,
      "ĠHen": 7291,
      "Ġpwani": 7292,
      "zes": 7293,
      "Ġcloth": 7294,
      "ante": 7295,
      "Ġyourself": 7296,
      "Ġthroughout": 7297,
      "anze": 7298,
      "bunifu": 7299,
      "wed": 7300,
      "ambamba": 7301,
      "ĠIdara": 7302,
      "ezo": 7303,
      "Ġbell": 7304,
      "Ġmwingi": 7305,
      "Ġregard": 7306,
      "ners": 7307,
      "Ġvan": 7308,
      "Ġroll": 7309,
      "ndapo": 7310,
      "ĠCenter": 7311,
      "Ġurahisi": 7312,
      "ĠKilimanjaro": 7313,
      "zana": 7314,
      "Ġfamous": 7315,
      "shiriki": 7316,
      "Ġconte": 7317,
      "Ġvegeta": 7318,
      "Ġviwanja": 7319,
      "Ġ--": 7320,
      "Ġprinci": 7321,
      "burg": 7322,
      "unzi": 7323,
      "ĠCons": 7324,
      "istic": 7325,
      "pted": 7326,
      "hamiaji": 7327,
      "taafu": 7328,
      "Ġchenye": 7329,
      "Ġkisa": 7330,
      "ĠOl": 7331,
      "uals": 7332,
      "Ġkujali": 7333,
      "ĠHouse": 7334,
      "Ġsongs": 7335,
      "Ġstreng": 7336,
      "ĠRiver": 7337,
      "Ġmapig": 7338,
      "Ġmateso": 7339,
      "Ġ300": 7340,
      "ĠKiarabu": 7341,
      "Ġchick": 7342,
      "berg": 7343,
      "letea": 7344,
      "Ġkucha": 7345,
      "Ġkikamilifu": 7346,
      "49": 7347,
      "Ġsmooth": 7348,
      "ĠLA": 7349,
      "Ġappeared": 7350,
      "Ġsuccessful": 7351,
      "Sasa": 7352,
      "Ġdirt": 7353,
      "mea": 7354,
      "vention": 7355,
      "ciation": 7356,
      "ĠWake": 7357,
      "all": 7358,
      "rio": 7359,
      "ichard": 7360,
      "****": 7361,
      "Ġmichuano": 7362,
      "hui": 7363,
      "Ġchemical": 7364,
      "Ġsala": 7365,
      "Ġmaintain": 7366,
      "Ġnecessary": 7367,
      "ĠDola": 7368,
      "ĠMpango": 7369,
      "Ġspoon": 7370,
      "zimio": 7371,
      "Ġtechni": 7372,
      "Ġprovided": 7373,
      "ĠSom": 7374,
      "ĠInstitute": 7375,
      "Ġintera": 7376,
      "Ġwatanzania": 7377,
      "Read": 7378,
      "Ġrelie": 7379,
      "Ġscreen": 7380,
      "Ġthinking": 7381,
      "Ġcondition": 7382,
      "ĠVo": 7383,
      "kabiliwa": 7384,
      "ĠKagera": 7385,
      "yard": 7386,
      "gawany": 7387,
      "Ġhidden": 7388,
      "fy": 7389,
      "ials": 7390,
      "Ġchanged": 7391,
      "ĠJune": 7392,
      "Ġkuchangia": 7393,
      "Ġspeak": 7394,
      "fuatilia": 7395,
      "Ġvyao": 7396,
      "Ġmuungano": 7397,
      "cast": 7398,
      "Ġthreat": 7399,
      "Ġhawaja": 7400,
      "ĠMka": 7401,
      "Ġmaandishi": 7402,
      "kum": 7403,
      "Ġturtle": 7404,
      "Ġkikundi": 7405,
      "alizi": 7406,
      "Hivyo": 7407,
      "atives": 7408,
      "rences": 7409,
      "LO": 7410,
      "ensus": 7411,
      "Ġservice": 7412,
      "Ġmchang": 7413,
      "ques": 7414,
      "ransisko": 7415,
      "ĠMex": 7416,
      "ongozo": 7417,
      "Ġhalali": 7418,
      "US": 7419,
      "Ġpump": 7420,
      "ĠNews": 7421,
      "Ġmema": 7422,
      "Ġsnack": 7423,
      "Ġkabila": 7424,
      "Ġprot": 7425,
      "ching": 7426,
      "Ġtools": 7427,
      "ĠMor": 7428,
      "ĠTovuti": 7429,
      "ĠWhiskers": 7430,
      "Ġfac": 7431,
      "Maji": 7432,
      "ØŃ": 7433,
      "kiza": 7434,
      "ambiwa": 7435,
      "Ġtreats": 7436,
      "Ġmadawa": 7437,
      "Ġbalance": 7438,
      "ĠGreen": 7439,
      "Ġkutimiza": 7440,
      "Ġglass": 7441,
      "YO": 7442,
      "Ġplate": 7443,
      "Ġschools": 7444,
      "Ġmagical": 7445,
      "Ġnoises": 7446,
      "Ġkuwasaidia": 7447,
      "ĠEle": 7448,
      "Ġuwepo": 7449,
      "ĠHad": 7450,
      "Ġprincess": 7451,
      "YE": 7452,
      "vity": 7453,
      "box": 7454,
      "Ġkumw": 7455,
      "ĠVol": 7456,
      "Ġfile": 7457,
      "Ġestim": 7458,
      "Ġmeli": 7459,
      "reek": 7460,
      "anyi": 7461,
      "ãĤ": 7462,
      "Ġbwana": 7463,
      "ends": 7464,
      "Ġanataka": 7465,
      "wasiliano": 7466,
      "Ġpin": 7467,
      "Ġseat": 7468,
      "rudisha": 7469,
      "waa": 7470,
      "ĠApril": 7471,
      "Mkuu": 7472,
      "ĠIra": 7473,
      "Ġwalivyo": 7474,
      "Ġseemed": 7475,
      "pendekeza": 7476,
      "Ġcand": 7477,
      "Ġnetwork": 7478,
      "ĠGener": 7479,
      "Nili": 7480,
      "Ġsheep": 7481,
      "vuka": 7482,
      "Ġmigo": 7483,
      "Ġmkali": 7484,
      "44": 7485,
      "Ġglow": 7486,
      "rat": 7487,
      "Ġsuddenly": 7488,
      "Ġmoving": 7489,
      "FF": 7490,
      "budu": 7491,
      "ĠWayahudi": 7492,
      "ĠScience": 7493,
      "rahi": 7494,
      "ĠAnn": 7495,
      "Ġcompany": 7496,
      "Com": 7497,
      "Ġchoose": 7498,
      "Ġring": 7499,
      "ribisha": 7500,
      "ĠØ£": 7501,
      "Ġmgogoro": 7502,
      "Ġmingine": 7503,
      "Ġfine": 7504,
      "ints": 7505,
      "omita": 7506,
      "rane": 7507,
      "binadamu": 7508,
      "Ġtyp": 7509,
      "hiloso": 7510,
      "Uta": 7511,
      "ongamano": 7512,
      "Ġsne": 7513,
      "kawa": 7514,
      "Ġkidini": 7515,
      "Ġ188": 7516,
      "Ġugly": 7517,
      "Ġinge": 7518,
      "Ġwee": 7519,
      "zzy": 7520,
      "ĠAidha": 7521,
      "guo": 7522,
      "ĠColle": 7523,
      "Ġhay": 7524,
      "Ġtisa": 7525,
      "ĠFrench": 7526,
      "Ġkno": 7527,
      "Ġmala": 7528,
      "adri": 7529,
      "ĠHispania": 7530,
      "hul": 7531,
      "pati": 7532,
      "Ġongezeko": 7533,
      "ccording": 7534,
      "Ġfinish": 7535,
      "Ġrecogni": 7536,
      "ole": 7537,
      "Ġblock": 7538,
      "ĠAlp": 7539,
      "Ġhuta": 7540,
      "ĠEven": 7541,
      "Ġanalysis": 7542,
      "Ġbul": 7543,
      "cel": 7544,
      "itiz": 7545,
      "Ġaddress": 7546,
      "ĠShule": 7547,
      "Ġnyama": 7548,
      "cebook": 7549,
      "Ġmwalimu": 7550,
      "punguza": 7551,
      "Ġdada": 7552,
      "aries": 7553,
      "ogopa": 7554,
      "ĠBasi": 7555,
      "inikizo": 7556,
      "chapishwa": 7557,
      "ĠJumapili": 7558,
      "Ġgun": 7559,
      "Ġ500": 7560,
      "Ġcaused": 7561,
      "Ġ1999": 7562,
      "Ġterms": 7563,
      "pti": 7564,
      "Ġlucky": 7565,
      "Mimi": 7566,
      "Ġoven": 7567,
      "outhern": 7568,
      "Ġsurvi": 7569,
      "Ġufisadi": 7570,
      "ĠHospitali": 7571,
      "=\"": 7572,
      "ĠChurch": 7573,
      "Ġyanaishia": 7574,
      "Ġbuc": 7575,
      "isikia": 7576,
      "ival": 7577,
      "omin": 7578,
      "Ġkumpa": 7579,
      "ĠJuli": 7580,
      "ometimes": 7581,
      "ĠJumuiya": 7582,
      "Ġprevious": 7583,
      "uzaji": 7584,
      "Ã³": 7585,
      "Ġgrand": 7586,
      "Ġmlima": 7587,
      "pole": 7588,
      "Ġpepe": 7589,
      "fakari": 7590,
      "Ġsanaa": 7591,
      "Ġ...": 7592,
      "ites": 7593,
      "fanyakazi": 7594,
      "Ġcheck": 7595,
      "Ġdaughter": 7596,
      "Ġkusikia": 7597,
      "Ġson": 7598,
      "omwa": 7599,
      "Ġproduce": 7600,
      "32": 7601,
      "Ġmapya": 7602,
      "ams": 7603,
      "ĠBrown": 7604,
      "ĠHapa": 7605,
      "Ġtemperature": 7606,
      "Ġstress": 7607,
      "âĢĻ.": 7608,
      "Ġpoints": 7609,
      "Ġulimwenguni": 7610,
      "ĠAsso": 7611,
      "ĠMko": 7612,
      "bainisha": 7613,
      "Ġukuaji": 7614,
      "Ġcreative": 7615,
      "ĠIringa": 7616,
      "Ġyat": 7617,
      "pongeza": 7618,
      "Ġkiti": 7619,
      "Ġconfused": 7620,
      "ĠBiashara": 7621,
      "Ġdrove": 7622,
      "paji": 7623,
      "Ġscientists": 7624,
      "Ġbark": 7625,
      "pigana": 7626,
      "aminifu": 7627,
      "okovu": 7628,
      "Ġunahitaji": 7629,
      "wapa": 7630,
      "raka": 7631,
      "Ġniki": 7632,
      "Ġkinach": 7633,
      "Ġzinazofaa": 7634,
      "hold": 7635,
      "orthern": 7636,
      "ĠProfesa": 7637,
      "ispaa": 7638,
      "aling": 7639,
      "Ġsort": 7640,
      "Ġmethod": 7641,
      "ĠTurkana": 7642,
      "Ġwanajeshi": 7643,
      "ĠKenyatta": 7644,
      "Ġyupo": 7645,
      "kimu": 7646,
      "Ġstret": 7647,
      "umpy": 7648,
      "Ġempty": 7649,
      "Ġthick": 7650,
      "Ġnj": 7651,
      "Pamoja": 7652,
      "Ġbucket": 7653,
      "ĠEneo": 7654,
      "Ġrude": 7655,
      "Ġoffice": 7656,
      "Milima": 7657,
      "ott": 7658,
      "wakilishi": 7659,
      "Ġamazed": 7660,
      "Ġshown": 7661,
      "Ġattention": 7662,
      "Ġmedicine": 7663,
      "Ġungependa": 7664,
      "Ġhufanya": 7665,
      "fich": 7666,
      "Ġado": 7667,
      "Ġhaiku": 7668,
      "Ġhugs": 7669,
      "Ġkiungo": 7670,
      "Ġtraining": 7671,
      "Ġclouds": 7672,
      "ĠTrans": 7673,
      "ĠSm": 7674,
      "ĠHere": 7675,
      "Ġkigeni": 7676,
      "Ġmikutano": 7677,
      "Ġbaraza": 7678,
      "Labda": 7679,
      "hiki": 7680,
      "Ġwatching": 7681,
      "Ġassess": 7682,
      "ilitary": 7683,
      "37": 7684,
      "ĠCome": 7685,
      "ikh": 7686,
      "Ġpool": 7687,
      "Ġdhahabu": 7688,
      "DEMA": 7689,
      "cka": 7690,
      "Ġload": 7691,
      "Ġupatikana": 7692,
      "Ġdesigned": 7693,
      "Ġbub": 7694,
      "hini": 7695,
      "Ġboss": 7696,
      "Ġhistor": 7697,
      "amehe": 7698,
      "ĠCD": 7699,
      "Ġdestro": 7700,
      "ĠThomas": 7701,
      "Ġtrouble": 7702,
      "Ġreve": 7703,
      "Ġmaybe": 7704,
      "onia": 7705,
      "KE": 7706,
      "Ġcro": 7707,
      "Ġkujaribu": 7708,
      "Ġincreasing": 7709,
      "hirisha": 7710,
      "48": 7711,
      "Ġwamet": 7712,
      "SS": 7713,
      "Ġilit": 7714,
      "Ġelfu": 7715,
      "itegemea": 7716,
      "Ġsplash": 7717,
      "Ġmwele": 7718,
      "Ġrefle": 7719,
      "mark": 7720,
      "Ġtotal": 7721,
      "Ġsafety": 7722,
      "Ġmpenzi": 7723,
      "Ġseli": 7724,
      "Ġsimply": 7725,
      "ĠStatistics": 7726,
      "Hu": 7727,
      "flower": 7728,
      "Ġhalm": 7729,
      "WI": 7730,
      "ĠIsa": 7731,
      "Ġissue": 7732,
      "ĠIdadi": 7733,
      "ilini": 7734,
      "formed": 7735,
      "Ġlands": 7736,
      "Ġwritten": 7737,
      "ĠLisa": 7738,
      "Ġinasema": 7739,
      "Ġrekodi": 7740,
      "Ġscale": 7741,
      "Ġmstari": 7742,
      "stead": 7743,
      "itor": 7744,
      "ĠKima": 7745,
      "Ġrad": 7746,
      "Ġimag": 7747,
      "Ġvigumu": 7748,
      "Ġalitoa": 7749,
      "Ġzoom": 7750,
      "Ġamem": 7751,
      "Ġkando": 7752,
      "Ġshape": 7753,
      "Ġrelative": 7754,
      "Ġseem": 7755,
      "Ġwanat": 7756,
      "Sehemu": 7757,
      "Ġmlango": 7758,
      "Ġupatikanaji": 7759,
      "rs": 7760,
      "|-": 7761,
      "ĠBas": 7762,
      "gono": 7763,
      "Ġfactors": 7764,
      "karibia": 7765,
      "utwa": 7766,
      "JA": 7767,
      "Ġusta": 7768,
      "spe": 7769,
      "Ġvisi": 7770,
      "46": 7771,
      "ĠGra": 7772,
      "ĠZiwa": 7773,
      "Ġspent": 7774,
      "Ø©": 7775,
      "Ġspring": 7776,
      "Ġutalii": 7777,
      "Ġquite": 7778,
      "ĠWananchi": 7779,
      "Ġitakayo": 7780,
      "Ġbought": 7781,
      "ĠNI": 7782,
      "ĠMaji": 7783,
      "idemokrasia": 7784,
      "Ġactive": 7785,
      "Ġeggs": 7786,
      "round": 7787,
      "based": 7788,
      "Ġmimea": 7789,
      "Ġsubject": 7790,
      "Ġmatangazo": 7791,
      "Ġhabit": 7792,
      "pare": 7793,
      "Serikali": 7794,
      "Ġkar": 7795,
      "rekebisho": 7796,
      "Ġsafu": 7797,
      "Ġfinding": 7798,
      "gency": 7799,
      "ingilia": 7800,
      "Ġinse": 7801,
      "cember": 7802,
      "Kila": 7803,
      "Ġwaste": 7804,
      "Ġmwenyekiti": 7805,
      "Ùģ": 7806,
      "alsa": 7807,
      "Ġpipe": 7808,
      "itude": 7809,
      "ĠKisha": 7810,
      "osed": 7811,
      "Ġproduct": 7812,
      "ĠMer": 7813,
      "Ġforce": 7814,
      "Ġpolice": 7815,
      "ercise": 7816,
      "ength": 7817,
      "Ġmeaning": 7818,
      "kaji": 7819,
      "ĠGreat": 7820,
      "wor": 7821,
      "Ġshelf": 7822,
      "Ġmajimbo": 7823,
      "bably": 7824,
      "inadamu": 7825,
      "Ġalifanya": 7826,
      "ĠMiss": 7827,
      "Ġcookie": 7828,
      "Sure": 7829,
      "athirika": 7830,
      "Â²": 7831,
      "Ġkuongoza": 7832,
      "Ġhero": 7833,
      "sababu": 7834,
      "ĠIsland": 7835,
      "GE": 7836,
      "okoa": 7837,
      "udhui": 7838,
      "lian": 7839,
      "Ġunavyo": 7840,
      "oint": 7841,
      "Ġideas": 7842,
      "ĠComp": 7843,
      "Ġmanagement": 7844,
      "ula": 7845,
      "Ġgiving": 7846,
      "Ġsekondari": 7847,
      "Ġcontinue": 7848,
      "tolewa": 7849,
      "ucle": 7850,
      "Ġrepe": 7851,
      "ĠVer": 7852,
      "fautiana": 7853,
      "bert": 7854,
      "ues": 7855,
      "Ġpsy": 7856,
      "holic": 7857,
      "Ġuses": 7858,
      "Ġwhistle": 7859,
      "hs": 7860,
      "Ġsulu": 7861,
      "Ġhutoa": 7862,
      "ctober": 7863,
      "ĠWabunge": 7864,
      "Ġmisaada": 7865,
      "Ġfoods": 7866,
      "Ġposition": 7867,
      "Ġfigure": 7868,
      "fafanuzi": 7869,
      "lika": 7870,
      "ĠBur": 7871,
      "katoliki": 7872,
      "Ġreported": 7873,
      "language": 7874,
      "Ġexplor": 7875,
      "95": 7876,
      "Ġdescri": 7877,
      "Ġavoid": 7878,
      "ĠIjumaa": 7879,
      "amaanisha": 7880,
      "ĠAlisema": 7881,
      "Ġlanded": 7882,
      "Hey": 7883,
      "Ġkushoto": 7884,
      "Ġmissed": 7885,
      "Ġpassed": 7886,
      "Ġreview": 7887,
      "erson": 7888,
      "Ġnearby": 7889,
      "Ġpombe": 7890,
      "Ġspicy": 7891,
      "Ġtwist": 7892,
      "ittle": 7893,
      "Ġkibiashara": 7894,
      "ulingana": 7895,
      "ĠHaki": 7896,
      "Ġutulivu": 7897,
      "alsafa": 7898,
      "Ġsem": 7899,
      "Ġkujibu": 7900,
      "Ikiwa": 7901,
      "kwimu": 7902,
      "Ġhalmashauri": 7903,
      "Ġmovement": 7904,
      "Ġilipo": 7905,
      "Ġshell": 7906,
      "Ġkushika": 7907,
      "Ġmtandaoni": 7908,
      "ĠDepartment": 7909,
      "Ġindustry": 7910,
      "Ġwha": 7911,
      "Ġfold": 7912,
      "ichan": 7913,
      "Ġjengo": 7914,
      "Ġtool": 7915,
      "Ġhasira": 7916,
      "able": 7917,
      "rect": 7918,
      "idii": 7919,
      "inde": 7920,
      "Ġusafi": 7921,
      "Ġwasichana": 7922,
      "mavu": 7923,
      "Ġculture": 7924,
      "Ġwema": 7925,
      "Ġcovered": 7926,
      "Ġtravel": 7927,
      "Ġgreater": 7928,
      "ĠTech": 7929,
      "Ġenvironmental": 7930,
      "INI": 7931,
      "enendo": 7932,
      "ING": 7933,
      "ĠGerman": 7934,
      "ifadhi": 7935,
      "Ġrocket": 7936,
      "osis": 7937,
      "halifa": 7938,
      "Ġkilikuwa": 7939,
      "Ġaverage": 7940,
      "Ġkingine": 7941,
      "ĠJuly": 7942,
      "otakiwa": 7943,
      "icient": 7944,
      "Tangu": 7945,
      "ĠWam": 7946,
      "Ġkutafsiriwa": 7947,
      "ngaza": 7948,
      "Ġwawe": 7949,
      "Ġber": 7950,
      "Ġkuandaa": 7951,
      "Ġadventures": 7952,
      "ÃŃ": 7953,
      "Ġikawa": 7954,
      "vunja": 7955,
      "Ġ)": 7956,
      "Ġkudai": 7957,
      "Ġkuhifadhi": 7958,
      "Ġeasily": 7959,
      "Ġatakaye": 7960,
      "Ġoffer": 7961,
      "Mungu": 7962,
      "Ġmawe": 7963,
      "ĠPamoja": 7964,
      "Ġsummer": 7965,
      "Later": 7966,
      "gs": 7967,
      "Ġseries": 7968,
      "Ġducks": 7969,
      "ĠRichard": 7970,
      "ĠJanuary": 7971,
      "Ġinvestig": 7972,
      "jika": 7973,
      "plement": 7974,
      "fanikisha": 7975,
      "Ġkilomita": 7976,
      "........": 7977,
      "Ġunders": 7978,
      "ĠLou": 7979,
      "Ġkika": 7980,
      "minist": 7981,
      "Ġumbali": 7982,
      "Ġkibinadamu": 7983,
      "amali": 7984,
      "ĠEduc": 7985,
      "Ġmd": 7986,
      "isim": 7987,
      "Ġkupinga": 7988,
      "Ġhamu": 7989,
      "idy": 7990,
      "ades": 7991,
      "ĠÙģ": 7992,
      "Ġplanet": 7993,
      "Ġindividuals": 7994,
      "Ġsambamba": 7995,
      "Ġwatakuwa": 7996,
      "Ġtrade": 7997,
      "Ġmbio": 7998,
      "Ġkilich": 7999,
      "Ġkulevya": 8000,
      "funguliwa": 8001,
      "pelekwa": 8002,
      "ĠSeptember": 8003,
      "ĠShirikisho": 8004,
      "Ġthird": 8005,
      "koni": 8006,
      "wers": 8007,
      "Ġimm": 8008,
      "hinda": 8009,
      "ĠTrump": 8010,
      "Ġkimya": 8011,
      "ander": 8012,
      "Ġmwake": 8013,
      "Here": 8014,
      "jio": 8015,
      "Ġsociety": 8016,
      "Ne": 8017,
      "Ġfaces": 8018,
      "anne": 8019,
      "Ġjumuiya": 8020,
      "wich": 8021,
      "life": 8022,
      "umzi": 8023,
      "Ġufalme": 8024,
      "ĠJerry": 8025,
      "Ġtaught": 8026,
      "Ġujao": 8027,
      "hehebu": 8028,
      "Ġexpensive": 8029,
      "badala": 8030,
      "Ġforward": 8031,
      "rejesha": 8032,
      "time": 8033,
      "Ġmaandamano": 8034,
      "Ġutajiri": 8035,
      "visheni": 8036,
      "erve": 8037,
      "Ġappe": 8038,
      "pat": 8039,
      "ĠFirst": 8040,
      "angilio": 8041,
      "ield": 8042,
      "Ġbehavior": 8043,
      "Ġforms": 8044,
      "Ġmajaribio": 8045,
      "Ġrati": 8046,
      "rank": 8047,
      "Ġmaru": 8048,
      "Ġsources": 8049,
      "Ġtara": 8050,
      "Ġsubst": 8051,
      "Ġsan": 8052,
      "ĠBet": 8053,
      "Ġwanavyo": 8054,
      "ongezea": 8055,
      "Ġprofession": 8056,
      "zale": 8057,
      "Ġuharibifu": 8058,
      "Ġrough": 8059,
      "ĠImam": 8060,
      "ĠKilimo": 8061,
      "MO": 8062,
      "vest": 8063,
      "Ġinternational": 8064,
      "Ġdrew": 8065,
      "saur": 8066,
      "Ġkutokuwa": 8067,
      "fahamika": 8068,
      "reno": 8069,
      "ized": 8070,
      "Ġpembe": 8071,
      "ĠBila": 8072,
      "Ġfomu": 8073,
      "Ġign": 8074,
      "Ġvyanzo": 8075,
      "lastname": 8076,
      "Ġcalm": 8077,
      "ivil": 8078,
      "68": 8079,
      "Ġtie": 8080,
      "ĠMtendaji": 8081,
      "ethnologue": 8082,
      "bed": 8083,
      "Ġalianza": 8084,
      "Ġsupply": 8085,
      "Ġhisa": 8086,
      "Ġattem": 8087,
      "iona": 8088,
      "roup": 8089,
      "elezo": 8090,
      "ario": 8091,
      "Ġnor": 8092,
      "Ġmau": 8093,
      "Ġnywele": 8094,
      "Ġcommit": 8095,
      "Ġshake": 8096,
      "ĠParis": 8097,
      "ĠManchester": 8098,
      "Ġsquare": 8099,
      "ĠHigh": 8100,
      "Ġmikopo": 8101,
      "Ġdou": 8102,
      "Ġanx": 8103,
      "Ġcircle": 8104,
      "Ġjuzi": 8105,
      "ĠCUF": 8106,
      "Ġwanataka": 8107,
      "ĠAmani": 8108,
      "Ġsn": 8109,
      "Ġkufungua": 8110,
      "Ġparticularly": 8111,
      "ĠIreland": 8112,
      "Ġpow": 8113,
      "Ġija": 8114,
      "Ġdisc": 8115,
      "pasa": 8116,
      "singi": 8117,
      "indwa": 8118,
      "semaji": 8119,
      "ĠJour": 8120,
      "ĠZo": 8121,
      "ĠPlease": 8122,
      "Ġexa": 8123,
      "Ġmwelekeo": 8124,
      "Ġkuzalisha": 8125,
      "Ġviwili": 8126,
      "Ġkitten": 8127,
      "imwa": 8128,
      "ambazaji": 8129,
      "Ġhawata": 8130,
      "Ġnafuu": 8131,
      "Ġstepped": 8132,
      "ured": 8133,
      "inking": 8134,
      "onde": 8135,
      "gwa": 8136,
      "Ġdaktari": 8137,
      "Ġkiwanda": 8138,
      "arily": 8139,
      "usale": 8140,
      "Ġnjaa": 8141,
      "ĠSE": 8142,
      "Ġhyd": 8143,
      "ĠEuropean": 8144,
      "Ġtheory": 8145,
      "Ġbridge": 8146,
      "ĠBlack": 8147,
      "Ġkifupi": 8148,
      "Ġprograms": 8149,
      "Ġmikakati": 8150,
      "ĠHus": 8151,
      "ukuu": 8152,
      "ĠZaidi": 8153,
      "Ġevents": 8154,
      "hamasisha": 8155,
      "ctu": 8156,
      "Ġsaved": 8157,
      "Ġchased": 8158,
      "Ġmbu": 8159,
      "ĠKika": 8160,
      "Ġgoal": 8161,
      "Ġpointed": 8162,
      "itation": 8163,
      "ĠFound": 8164,
      "Ġindependent": 8165,
      "Fa": 8166,
      "ĠSch": 8167,
      "Ġlose": 8168,
      "Ġtumbo": 8169,
      "Ġwolf": 8170,
      "Ġstream": 8171,
      "ffic": 8172,
      "Ġtruth": 8173,
      "Ġaccom": 8174,
      "NG": 8175,
      "chukulia": 8176,
      "''": 8177,
      "55": 8178,
      "Ġmashambulizi": 8179,
      "Ġbottom": 8180,
      "tood": 8181,
      "ungi": 8182,
      "Nchi": 8183,
      "ĠMk": 8184,
      "wered": 8185,
      "ĠBrazil": 8186,
      "Th": 8187,
      "Ġea": 8188,
      "Ġgets": 8189,
      "Ġmwanafunzi": 8190,
      "adui": 8191,
      "ĠTabora": 8192,
      "Ġkukua": 8193,
      "Ġjourney": 8194,
      "ĠObama": 8195,
      "Ġnazo": 8196,
      "katili": 8197,
      "Ġimmedi": 8198,
      "Ġsnowman": 8199,
      "Ġles": 8200,
      "Ġwaiting": 8201,
      "pite": 8202,
      "Ġcauses": 8203,
      "shindani": 8204,
      "Ġselfish": 8205,
      "kaya": 8206,
      "kadi": 8207,
      "ĠOd": 8208,
      "Ġcheo": 8209,
      "Ġmwanachama": 8210,
      "mbuzi": 8211,
      "valu": 8212,
      "Ġhasara": 8213,
      "Ġstandard": 8214,
      "Ko": 8215,
      "ateful": 8216,
      "Ġpositive": 8217,
      "Ġkufanikiwa": 8218,
      "Ġsukari": 8219,
      "Ġmatatu": 8220,
      "kh": 8221,
      "atini": 8222,
      "Ġmarufuku": 8223,
      "Taarifa": 8224,
      "Ġmwao": 8225,
      "omea": 8226,
      "Ġincludes": 8227,
      "Ġukosefu": 8228,
      "Ġhuruma": 8229,
      "fundi": 8230,
      "Ġvikundi": 8231,
      "ĠFacebook": 8232,
      "Ġeventually": 8233,
      "ĠWhite": 8234,
      "Ġfuel": 8235,
      "Ġdeer": 8236,
      "city": 8237,
      "OR": 8238,
      "habari": 8239,
      "resheni": 8240,
      "Ġfamilies": 8241,
      "Ġpointi": 8242,
      "ĠAlikuwa": 8243,
      "Ġvyenye": 8244,
      "mekana": 8245,
      "ĠYangu": 8246,
      "Ġhuwezi": 8247,
      "Ġwalim": 8248,
      "ĠMzee": 8249,
      "iru": 8250,
      "Ġkukusanya": 8251,
      "ĠCA": 8252,
      "Ġmkewe": 8253,
      "ĠJaji": 8254,
      "rembo": 8255,
      "aled": 8256,
      "ĠPwani": 8257,
      "ĠMohamed": 8258,
      "Ġwand": 8259,
      "lid": 8260,
      "Ġframe": 8261,
      "69": 8262,
      "ĠAzam": 8263,
      "Ġprobably": 8264,
      "Ġ1998": 8265,
      "Ġwilayani": 8266,
      "ĠBongo": 8267,
      "ĠSingida": 8268,
      "Leo": 8269,
      "ZO": 8270,
      "Ġbungeni": 8271,
      "Ġcompani": 8272,
      "huma": 8273,
      "gious": 8274,
      "Ġocean": 8275,
      "istent": 8276,
      "ĠBodi": 8277,
      "Ġbasic": 8278,
      "Ġpersonal": 8279,
      "==": 8280,
      "pher": 8281,
      "Ġhost": 8282,
      "Ġ1997": 8283,
      "Ġdifference": 8284,
      "Go": 8285,
      "ples": 8286,
      "Ġspider": 8287,
      "Co": 8288,
      "rem": 8289,
      "Ġkadhalika": 8290,
      "graphic": 8291,
      "jenge": 8292,
      "imed": 8293,
      "Ġlingine": 8294,
      "ĠNovember": 8295,
      "rich": 8296,
      "ĠUhindi": 8297,
      "Ġcontact": 8298,
      "TAN": 8299,
      "dia": 8300,
      "ĠÙĦ": 8301,
      "ĠBaadhi": 8302,
      "urundi": 8303,
      "Ġhutumia": 8304,
      "47": 8305,
      "sm": 8306,
      "inua": 8307,
      "Ġnur": 8308,
      "Ġwealth": 8309,
      "Ġmwanzoni": 8310,
      "De": 8311,
      "aking": 8312,
      "roduc": 8313,
      "Ġtakwimu": 8314,
      "zalendo": 8315,
      "sey": 8316,
      "Ġupungufu": 8317,
      "Ġmwilini": 8318,
      "500": 8319,
      "umbele": 8320,
      "faulu": 8321,
      "Ġtro": 8322,
      "Ġmethods": 8323,
      "Ġdamage": 8324,
      "Ġdhati": 8325,
      "ĠLife": 8326,
      "ĠEs": 8327,
      "Ġkutatua": 8328,
      "Ġkadiri": 8329,
      "frika": 8330,
      "Ġenga": 8331,
      "ĠUnion": 8332,
      "Ġprog": 8333,
      "elfu": 8334,
      "lier": 8335,
      "well": 8336,
      "Ġpor": 8337,
      "ĠSpa": 8338,
      "Ġsayansi": 8339,
      "Ġangalau": 8340,
      "ĠÐ": 8341,
      "Ġngono": 8342,
      "Ġendapo": 8343,
      "Ġmapinduzi": 8344,
      "Ġjelly": 8345,
      "Ġinvolved": 8346,
      "rast": 8347,
      "Ġwww": 8348,
      "ĠStar": 8349,
      "Ġalipata": 8350,
      "Ġscientific": 8351,
      "Ġweb": 8352,
      "Ġseems": 8353,
      "Ġaffect": 8354,
      "bantu": 8355,
      "Le": 8356,
      "ible": 8357,
      "Ġkem": 8358,
      "Ġsalaam": 8359,
      "Ġkibinafsi": 8360,
      "Ġkuihariri": 8361,
      "ĠJumamosi": 8362,
      "Ġorganized": 8363,
      "Ġrefer": 8364,
      "Ġdiscovered": 8365,
      "senal": 8366,
      "Ġmzunguko": 8367,
      "ĠMig": 8368,
      "Ġstood": 8369,
      "Ġmchanganyiko": 8370,
      "Ġvict": 8371,
      "ĠPak": 8372,
      "aratani": 8373,
      "isiwa": 8374,
      "Ġwing": 8375,
      "ĠLindi": 8376,
      "Ġpolicy": 8377,
      "Ġreceived": 8378,
      "via": 8379,
      "Ġswimming": 8380,
      "Ġdeb": 8381,
      "Ġhuja": 8382,
      "Ġgrateful": 8383,
      "ufa": 8384,
      "galia": 8385,
      "Ġmatch": 8386,
      "Ġkutembelea": 8387,
      "ĠGovern": 8388,
      "Ġvariety": 8389,
      "Ġhazina": 8390,
      "Ġmapigano": 8391,
      "DO": 8392,
      "chunguza": 8393,
      "Ġdocument": 8394,
      "Ġmifugo": 8395,
      "Ġidara": 8396,
      "engenezaji": 8397,
      "âĢĺ": 8398,
      "Ġmakali": 8399,
      "ĠMakamu": 8400,
      "Im": 8401,
      "Ġhadhi": 8402,
      "ĠToday": 8403,
      "uts": 8404,
      "ĠIbra": 8405,
      "ĠUj": 8406,
      "Ġvijijini": 8407,
      "Ġbaadae": 8408,
      "vyot": 8409,
      "Ġfilm": 8410,
      "katika": 8411,
      "ĠVI": 8412,
      "Ġbact": 8413,
      "ĠDaddy": 8414,
      "hia": 8415,
      "rick": 8416,
      "Ġlibr": 8417,
      "Lila": 8418,
      "wada": 8419,
      "Ġwenyeji": 8420,
      "Ġqueen": 8421,
      "ĠBill": 8422,
      "ambaza": 8423,
      "Ar": 8424,
      "ishu": 8425,
      "Ġkuwasiliana": 8426,
      "ĠUsalama": 8427,
      "umisha": 8428,
      "Ġpoll": 8429,
      "Ġinj": 8430,
      "ateg": 8431,
      "ĠZe": 8432,
      "Hali": 8433,
      "Ġumbo": 8434,
      "Ġstaff": 8435,
      "Ġleaders": 8436,
      "ĠIngawa": 8437,
      "Ġmwendo": 8438,
      "geuka": 8439,
      "kabla": 8440,
      "hane": 8441,
      "Ġhun": 8442,
      "ĠMet": 8443,
      "Ġmikataba": 8444,
      "Ġfeather": 8445,
      "Ġ1995": 8446,
      "Ġextreme": 8447,
      "ping": 8448,
      "Ġwokovu": 8449,
      "Ġincluded": 8450,
      "Ġteachers": 8451,
      "Ġmkakati": 8452,
      "RU": 8453,
      "Ġliki": 8454,
      "Ġbeak": 8455,
      "Ġdemon": 8456,
      "Ġord": 8457,
      "ĠSociety": 8458,
      "Ġsaying": 8459,
      "Ġgenerally": 8460,
      "andar": 8461,
      "ichap": 8462,
      "ĠMbo": 8463,
      "ĠBalozi": 8464,
      "Ġclever": 8465,
      "Ġimes": 8466,
      "ĠDevelop": 8467,
      "Ġwatakao": 8468,
      "Ġnin": 8469,
      "ĠReg": 8470,
      "umbuzi": 8471,
      "Ġpillow": 8472,
      "Ġmaso": 8473,
      "Ġshinikizo": 8474,
      "Ġolder": 8475,
      "Ġsymbo": 8476,
      "Ġdhahiri": 8477,
      "sie": 8478,
      "ukuma": 8479,
      "Ġwhose": 8480,
      "vuma": 8481,
      "zwe": 8482,
      "ĠVijijini": 8483,
      "fs": 8484,
      "kat": 8485,
      "Ġkueleza": 8486,
      "ĠOctober": 8487,
      "undwa": 8488,
      "Ab": 8489,
      "ĠUkristo": 8490,
      "Ġreas": 8491,
      "Ġmessage": 8492,
      "Ġallowed": 8493,
      "Ġbenefits": 8494,
      "ĠDen": 8495,
      "stitution": 8496,
      "ustom": 8497,
      "Ġmaelekezo": 8498,
      "fara": 8499,
      "Ġufahamu": 8500,
      "Ġmaandalizi": 8501,
      "ervous": 8502,
      "Ġseeds": 8503,
      "Ġaibu": 8504,
      "rura": 8505,
      "Ġkuvutia": 8506,
      "Ġexplained": 8507,
      "BI": 8508,
      "Ġpp": 8509,
      "Ġsticks": 8510,
      "Ġuliopo": 8511,
      "lism": 8512,
      "ĠChild": 8513,
      "67": 8514,
      "Ġflex": 8515,
      "adu": 8516,
      "ĠBA": 8517,
      "ouncil": 8518,
      "Ġswa": 8519,
      "Ġbackyard": 8520,
      "hughuli": 8521,
      "Ġstrug": 8522,
      "sisitiza": 8523,
      "Ame": 8524,
      "FU": 8525,
      "Ġhomes": 8526,
      "body": 8527,
      "Ġdaddy": 8528,
      "ij": 8529,
      "Ġlad": 8530,
      "ĠMawasiliano": 8531,
      "Ġmtakatifu": 8532,
      "Ġmkononi": 8533,
      "Ġhonest": 8534,
      "Ġexpect": 8535,
      "Ġunderstood": 8536,
      "Ana": 8537,
      "ĠKut": 8538,
      "see": 8539,
      "Ġpuzzle": 8540,
      "Ġassist": 8541,
      "jikuta": 8542,
      "Ġshad": 8543,
      "atokeo": 8544,
      "Ġukumbi": 8545,
      "Ġsteps": 8546,
      "Ġwahusika": 8547,
      "ĠSisi": 8548,
      "Ġgrumpy": 8549,
      "bisha": 8550,
      "lalamiko": 8551,
      "Ġple": 8552,
      "ĠPili": 8553,
      "Ġrise": 8554,
      "Ġmadaktari": 8555,
      "Ġmgonjwa": 8556,
      "enced": 8557,
      "ĠMolly": 8558,
      "ĠØ¹": 8559,
      "ĠIraq": 8560,
      "PI": 8561,
      "Ġexercise": 8562,
      "Ġmadogo": 8563,
      "Ġmeant": 8564,
      "Ġtarget": 8565,
      "Ġneighbor": 8566,
      "lipwa": 8567,
      "Ġkukamilisha": 8568,
      "sibility": 8569,
      "Ġchurch": 8570,
      "lishwa": 8571,
      "Ġcere": 8572,
      "Ġdefin": 8573,
      "Ġkihistoria": 8574,
      "win": 8575,
      "Ġret": 8576,
      "âĢĻ,": 8577,
      "Ġmixed": 8578,
      "Ġ1993": 8579,
      "ĠUsw": 8580,
      "house": 8581,
      "Ġzit": 8582,
      "Ġwanasiasa": 8583,
      "ĠWill": 8584,
      "ĠLaw": 8585,
      "himiza": 8586,
      "Ġnervous": 8587,
      "ĠQue": 8588,
      "Ġwearing": 8589,
      "Ġgum": 8590,
      "uleni": 8591,
      "ĠMost": 8592,
      "inosaur": 8593,
      "hojiano": 8594,
      "Ġmzee": 8595,
      "Ġkufuatilia": 8596,
      "Ġkinga": 8597,
      "haps": 8598,
      "ĠInjili": 8599,
      "Ġmashtaka": 8600,
      "vita": 8601,
      "Ġwaliyo": 8602,
      "Ġkupanga": 8603,
      "vazi": 8604,
      "Ġtend": 8605,
      "asuaji": 8606,
      "ĠWil": 8607,
      "Ġquar": 8608,
      "Ġkiko": 8609,
      "Ġproduced": 8610,
      "yond": 8611,
      "ĠPresident": 8612,
      "SHA": 8613,
      "ĠFA": 8614,
      "urugu": 8615,
      "ĠMtukufu": 8616,
      "Ġvegetables": 8617,
      "ĠBan": 8618,
      "Ġmagumu": 8619,
      "Ġdistrib": 8620,
      "mbuliaji": 8621,
      "rison": 8622,
      "Ġrules": 8623,
      "Ġkic": 8624,
      "ĠSen": 8625,
      "ĠAre": 8626,
      "Ġputs": 8627,
      "Ġmawaziri": 8628,
      "Ġubongo": 8629,
      "Ġthus": 8630,
      "Ġmajira": 8631,
      "Ġwinter": 8632,
      "Ġdeveloping": 8633,
      "yoni": 8634,
      "Ġchako": 8635,
      "Ġtaa": 8636,
      "ĠFe": 8637,
      "Ġwatendaji": 8638,
      "Ġdrawing": 8639,
      "Ġdete": 8640,
      "ĠSur": 8641,
      "ĠOther": 8642,
      "Ġwames": 8643,
      "ior": 8644,
      "ĠNj": 8645,
      "Ġutukufu": 8646,
      "Ġdecor": 8647,
      "ĠØ¨": 8648,
      "ĠRet": 8649,
      "atumika": 8650,
      "Ġpun": 8651,
      "ĠDNA": 8652,
      "Ġdaily": 8653,
      "Ġestablished": 8654,
      "ingizi": 8655,
      ".âĢĻ": 8656,
      "fumo": 8657,
      "Ġstyle": 8658,
      "tery": 8659,
      "Ġconcent": 8660,
      "Ġuhalifu": 8661,
      "ĠFar": 8662,
      "itokea": 8663,
      "Ġintellig": 8664,
      "part": 8665,
      "bakia": 8666,
      "Ġmeat": 8667,
      "100": 8668,
      "Ġsleepy": 8669,
      "hum": 8670,
      "Ġnakala": 8671,
      "Ġmwenyeji": 8672,
      "Ġkipato": 8673,
      "Ġteaching": 8674,
      "mm": 8675,
      "kupa": 8676,
      "ĠLuna": 8677,
      "Ġshut": 8678,
      "Ġbandari": 8679,
      "Ġudhibiti": 8680,
      "Ġunknown": 8681,
      "anua": 8682,
      "Ġwi": 8683,
      "ĠDecember": 8684,
      "Come": 8685,
      "fisha": 8686,
      "ĠCla": 8687,
      "ĠUmma": 8688,
      "potiwa": 8689,
      "Ġcarbon": 8690,
      "Ġidentify": 8691,
      "ĠPetro": 8692,
      "Ġsmell": 8693,
      "Watakatifu": 8694,
      "ĠBurundi": 8695,
      "lsea": 8696,
      "raid": 8697,
      "Ġmbadala": 8698,
      "ĠNet": 8699,
      "Ġimplement": 8700,
      "uty": 8701,
      "Ġep": 8702,
      "Ġkutenda": 8703,
      "colate": 8704,
      "Ġwaves": 8705,
      "Int": 8706,
      "Ġgently": 8707,
      "Ġlovely": 8708,
      "etolewa": 8709,
      "ĠGrandma": 8710,
      "pet": 8711,
      "idie": 8712,
      "Ġfirstname": 8713,
      "Ġcorner": 8714,
      "Ġmigogoro": 8715,
      "Ad": 8716,
      "Ġmass": 8717,
      "ĠRaila": 8718,
      "anywa": 8719,
      "Ġtendo": 8720,
      "ĠDan": 8721,
      "Ġtells": 8722,
      "Ġweather": 8723,
      "Ġdirect": 8724,
      "stal": 8725,
      "istry": 8726,
      "barani": 8727,
      "umbua": 8728,
      "].": 8729,
      "potea": 8730,
      "Soon": 8731,
      "Ġdistance": 8732,
      "Ġmessy": 8733,
      "Ġwondered": 8734,
      "VU": 8735,
      "Wat": 8736,
      "pesi": 8737,
      "Ġbeginning": 8738,
      "Ġwis": 8739,
      "gent": 8740,
      "ĠAk": 8741,
      "Ġthous": 8742,
      "Ġfake": 8743,
      "onda": 8744,
      "ikadi": 8745,
      "husishwa": 8746,
      "ĠJesus": 8747,
      "Ġtrack": 8748,
      "Ġwazo": 8749,
      "atin": 8750,
      "ĠUK": 8751,
      "Ġsmelly": 8752,
      "66": 8753,
      "Ġumekuwa": 8754,
      "ĠInter": 8755,
      "roduction": 8756,
      "Ġkifaa": 8757,
      "pigia": 8758,
      "arrass": 8759,
      "Jina": 8760,
      "Ġmountain": 8761,
      "Ġkaya": 8762,
      "Kutokana": 8763,
      "Ġ*": 8764,
      "field": 8765,
      "maliza": 8766,
      "Ġupasuaji": 8767,
      "ĠGlo": 8768,
      "endeshwa": 8769,
      "Ġdrum": 8770,
      "rekebisha": 8771,
      "Ġkuepuka": 8772,
      "Ġmilitary": 8773,
      "79": 8774,
      "ĠViwa": 8775,
      "Ġkifedha": 8776,
      "bled": 8777,
      "yah": 8778,
      "Mama": 8779,
      "oose": 8780,
      "Ġclassroom": 8781,
      "Ġmaudhui": 8782,
      "Ġrot": 8783,
      "Ġakis": 8784,
      "ĠPapua": 8785,
      "pya": 8786,
      "Ġsumu": 8787,
      "ndred": 8788,
      "ĠInc": 8789,
      "reva": 8790,
      "Ġbidii": 8791,
      "yoka": 8792,
      "Ġembarrass": 8793,
      "\")": 8794,
      "CH": 8795,
      "Ġast": 8796,
      "Ġcrown": 8797,
      "umer": 8798,
      "askofu": 8799,
      "Ġalio": 8800,
      "Ġunapaswa": 8801,
      "angazaji": 8802,
      "Ġinawezekana": 8803,
      "Ġcolla": 8804,
      "Ġmasoko": 8805,
      "ĠMawa": 8806,
      "Ġseason": 8807,
      "Ġafraid": 8808,
      "Ġmaradhi": 8809,
      "endeshaji": 8810,
      "ĠJumatatu": 8811,
      "Ġseparate": 8812,
      "ĠCong": 8813,
      "essor": 8814,
      "ĠÙĬ": 8815,
      "Ex": 8816,
      "Ġmovie": 8817,
      "Ġwanayo": 8818,
      "Ġmch": 8819,
      "Ġmapambano": 8820,
      "uzulu": 8821,
      "Ġdemand": 8822,
      "ĠMkutano": 8823,
      "ĠBal": 8824,
      "ĠKuwa": 8825,
      "ĠChir": 8826,
      "ĠBingwa": 8827,
      "Ġcompared": 8828,
      "izza": 8829,
      "Ġghafla": 8830,
      "using": 8831,
      "ĠLy": 8832,
      "idhamu": 8833,
      "ĠCam": 8834,
      "ĠIndex": 8835,
      "Ġnami": 8836,
      "Ġunus": 8837,
      "ikodi": 8838,
      "Ġprimary": 8839,
      "ĠJina": 8840,
      "lamika": 8841,
      "Ġvisa": 8842,
      "ĠBio": 8843,
      "hiwa": 8844,
      "ĠMac": 8845,
      "Ġnames": 8846,
      "Ġgeo": 8847,
      "endera": 8848,
      "dege": 8849,
      "Ġakina": 8850,
      "holanzi": 8851,
      "Ġladder": 8852,
      "Ġnaku": 8853,
      "ctic": 8854,
      "bilities": 8855,
      "Ġlines": 8856,
      "Ġametoa": 8857,
      "Ġinstit": 8858,
      "CT": 8859,
      "Ġdinosaur": 8860,
      "puko": 8861,
      "ctures": 8862,
      "ikali": 8863,
      "tee": 8864,
      "Ġ189": 8865,
      "Ġhaiwezi": 8866,
      "Ġachieve": 8867,
      "ously": 8868,
      ".|": 8869,
      "Ġtuhuma": 8870,
      "hammed": 8871,
      "Ġmetal": 8872,
      "ounced": 8873,
      "isini": 8874,
      "ishwe": 8875,
      "Ġmapendekezo": 8876,
      "eny": 8877,
      "Ġmadu": 8878,
      "Ġchaguo": 8879,
      "ality": 8880,
      "Ġmention": 8881,
      "wasilisha": 8882,
      "Ġtor": 8883,
      "Ġlemon": 8884,
      "Ġmwanasiasa": 8885,
      "DC": 8886,
      "Id": 8887,
      "ĠSometimes": 8888,
      "Ġhundred": 8889,
      "andamana": 8890,
      "ĠFu": 8891,
      "Ġhawawezi": 8892,
      "Ġjumping": 8893,
      "Ġtooth": 8894,
      "Ġkupa": 8895,
      "Ġtherefore": 8896,
      "ĠViet": 8897,
      "ĠDiamond": 8898,
      "Ġremind": 8899,
      "Ġhaita": 8900,
      "ĠKibantu": 8901,
      "adio": 8902,
      "gies": 8903,
      "Ġintegr": 8904,
      "nic": 8905,
      "Ġloves": 8906,
      "Ġalthough": 8907,
      "Ġbroad": 8908,
      "Ġ1980": 8909,
      "Ġleading": 8910,
      "Ġresponse": 8911,
      "jitahidi": 8912,
      "ĠKas": 8913,
      "aly": 8914,
      "ĠJill": 8915,
      "ĠMomo": 8916,
      "lakini": 8917,
      "Ġshamba": 8918,
      "ĠHivi": 8919,
      "Ġmashamba": 8920,
      "Ġwapinzani": 8921,
      "Ġwanafanya": 8922,
      "Ġuzima": 8923,
      "Ġgl": 8924,
      "ĠCommun": 8925,
      "Ġuga": 8926,
      "turi": 8927,
      "Ġchance": 8928,
      "inyanga": 8929,
      "ech": 8930,
      "ville": 8931,
      "Ġkuit": 8932,
      "amiza": 8933,
      "Ġmashuhuri": 8934,
      "oming": 8935,
      "Ġ1992": 8936,
      "Ġharamu": 8937,
      "CHA": 8938,
      "Ġswala": 8939,
      "ĠPas": 8940,
      "Ġwaumini": 8941,
      "yeza": 8942,
      "cally": 8943,
      "Ġiliyotolewa": 8944,
      "Ġniaba": 8945,
      "ĠOut": 8946,
      "Ġworkers": 8947,
      "ĠMola": 8948,
      "Ġjoined": 8949,
      "ĠAssociation": 8950,
      "fung": 8951,
      "Ġmakabila": 8952,
      "ichapishe": 8953,
      "ĠMod": 8954,
      "oting": 8955,
      "Ġkwasababu": 8956,
      "ĠBunny": 8957,
      "ĠSee": 8958,
      "amaha": 8959,
      "Ġupe": 8960,
      "Ġrose": 8961,
      "Ġtraditional": 8962,
      "ĠIndian": 8963,
      "Hakuna": 8964,
      "ĠAma": 8965,
      "Ġmaskini": 8966,
      "Ġhoteli": 8967,
      "Ġijayo": 8968,
      "Ġpindi": 8969,
      "kara": 8970,
      "Ġinakuwa": 8971,
      "Ġtuichapishe": 8972,
      "ĠMI": 8973,
      "ĠPri": 8974,
      "udani": 8975,
      "ĠInstead": 8976,
      "ĠRead": 8977,
      "Ġlinal": 8978,
      "Ġhouses": 8979,
      "Ġelder": 8980,
      "Ġanayo": 8981,
      "Ġbranches": 8982,
      "ĠHat": 8983,
      "ET": 8984,
      "PS": 8985,
      "Ġinapo": 8986,
      "Ġpaw": 8987,
      "Ġ1996": 8988,
      "Ġsett": 8989,
      "inzi": 8990,
      "ĠStars": 8991,
      "Ġbusara": 8992,
      "ustrated": 8993,
      "othe": 8994,
      "ĠBus": 8995,
      "Ġvurugu": 8996,
      "ĠCHADEMA": 8997,
      "pom": 8998,
      "Ġ1994": 8999,
      "Ġmzigo": 9000,
      "ĠTer": 9001,
      "ĠMg": 9002,
      "ĠDani": 9003,
      "tii": 9004,
      "New": 9005,
      "Ġstation": 9006,
      "Ġgate": 9007,
      "pate": 9008,
      "ĠSomalia": 9009,
      "MS": 9010,
      "ĠAN": 9011,
      "wambia": 9012,
      "Ġmalalamiko": 9013,
      "ĠRuto": 9014,
      "Ġmisitu": 9015,
      "Ġhumans": 9016,
      "Ġtape": 9017,
      "hub": 9018,
      "Ġmitaa": 9019,
      "Ġrelax": 9020,
      "Ġsolar": 9021,
      "emale": 9022,
      "Ġinsta": 9023,
      "Ġzitaka": 9024,
      "Ġmemory": 9025,
      "Con": 9026,
      "Ġrout": 9027,
      "ĠAlpha": 9028,
      "karibisha": 9029,
      "Ġwashiriki": 9030,
      "lock": 9031,
      "guja": 9032,
      "ĠHifadhi": 9033,
      "angalie": 9034,
      "wassa": 9035,
      "jaji": 9036,
      "Ġensure": 9037,
      "ishiwa": 9038,
      "hibitishwa": 9039,
      "ISI": 9040,
      "umber": 9041,
      "All": 9042,
      "rict": 9043,
      "ĠOur": 9044,
      "ĠHenry": 9045,
      "ĠJournal": 9046,
      "elevu": 9047,
      "onea": 9048,
      "ĠFree": 9049,
      "adem": 9050,
      "Ġabiria": 9051,
      "ĠNdugu": 9052,
      "Ġstir": 9053,
      "Ġzipo": 9054,
      "Ġsmelled": 9055,
      "Ġemot": 9056,
      "vutia": 9057,
      "Ġsample": 9058,
      "Ġshirt": 9059,
      "giriki": 9060,
      "ashiria": 9061,
      "Ġincredi": 9062,
      "Ġprotein": 9063,
      "Ġtomorrow": 9064,
      "Ġweeks": 9065,
      "soma": 9066,
      "Ġmel": 9067,
      "Ġboring": 9068,
      "Ġkuongea": 9069,
      "bani": 9070,
      "kad": 9071,
      "ĠMana": 9072,
      "furahia": 9073,
      "Ġsection": 9074,
      "Ġsplas": 9075,
      "ification": 9076,
      "Ġvisiwa": 9077,
      "ĠMkoani": 9078,
      "Ġchocolate": 9079,
      "Ġmanufa": 9080,
      "Ġants": 9081,
      "Ġtidy": 9082,
      "Ġmist": 9083,
      "onyesho": 9084,
      "These": 9085,
      "Ġanawa": 9086,
      "anyama": 9087,
      "ĠDoggy": 9088,
      "adilifu": 9089,
      "Ġcommunities": 9090,
      "hitimu": 9091,
      "Ġmahojiano": 9092,
      "ĠWater": 9093,
      "mocr": 9094,
      "Ġcarrot": 9095,
      "Ġchalleng": 9096,
      "58": 9097,
      "ĠFore": 9098,
      "laria": 9099,
      "Ġdirectly": 9100,
      "64": 9101,
      "roid": 9102,
      "Ġaltern": 9103,
      "Ġchest": 9104,
      "Ġkilomet": 9105,
      "witter": 9106,
      "dhani": 9107,
      "Ġrelia": 9108,
      "ĠPol": 9109,
      "furahi": 9110,
      "uries": 9111,
      "Ġblow": 9112,
      "ĠIII": 9113,
      "Ġkurejea": 9114,
      "Ġcamp": 9115,
      "Ġinaendelea": 9116,
      "Ġsurround": 9117,
      "By": 9118,
      "ĠBro": 9119,
      "rol": 9120,
      "Ġrid": 9121,
      "Maj": 9122,
      "Ġkwanini": 9123,
      "eraha": 9124,
      "Ġreturned": 9125,
      "Ġpizza": 9126,
      "Ġacid": 9127,
      "Ġkufund": 9128,
      "Ġstrength": 9129,
      "ĠMada": 9130,
      "Ġdecision": 9131,
      "ising": 9132,
      "ĠArd": 9133,
      "tafuta": 9134,
      "idai": 9135,
      "zili": 9136,
      "Ġunat": 9137,
      "Ġknee": 9138,
      "sApp": 9139,
      "sali": 9140,
      "Ġelement": 9141,
      "Ġpainted": 9142,
      "Ġperformance": 9143,
      "Ġuzinduzi": 9144,
      "rian": 9145,
      "fikiwa": 9146,
      "Ġsituation": 9147,
      "hest": 9148,
      "ounds": 9149,
      "Ġfinan": 9150,
      "Ġforgive": 9151,
      "Ġremain": 9152,
      "77": 9153,
      "kuru": 9154,
      "fur": 9155,
      "Ġmiles": 9156,
      "graph": 9157,
      "ram": 9158,
      "Ġtoleo": 9159,
      "tains": 9160,
      "ĠMwe": 9161,
      "Ġhekima": 9162,
      "orders": 9163,
      "betes": 9164,
      "Ġkunywa": 9165,
      "roni": 9166,
      "Ġvikuu": 9167,
      "Ġcompon": 9168,
      "Ġcleaned": 9169,
      "Ġpopote": 9170,
      "With": 9171,
      "indano": 9172,
      "Ġwouldn": 9173,
      "ĠYako": 9174,
      "Ġappropri": 9175,
      "Sp": 9176,
      "ests": 9177,
      "Ġtakribani": 9178,
      "ĠGeneral": 9179,
      "ST": 9180,
      "puka": 9181,
      "Ġnorth": 9182,
      "Ġmage": 9183,
      "ĠWaf": 9184,
      "ighty": 9185,
      "ĠTogether": 9186,
      "ĠLea": 9187,
      "Ġroof": 9188,
      "ĠFrank": 9189,
      "Ġdetermined": 9190,
      "indu": 9191,
      "ipment": 9192,
      "ĠBig": 9193,
      "ĠCensus": 9194,
      "Ġmwigizaji": 9195,
      "Every": 9196,
      "cell": 9197,
      "host": 9198,
      "Ġmikononi": 9199,
      "Ġuchafu": 9200,
      "Matumizi": 9201,
      "ĠWata": 9202,
      "ĠHapo": 9203,
      "hisha": 9204,
      "inc": 9205,
      "pop": 9206,
      "wajibika": 9207,
      "ĠEducation": 9208,
      "ĠBank": 9209,
      "Ġdemokrasia": 9210,
      "ĠJac": 9211,
      "ombozi": 9212,
      "Ġdharura": 9213,
      "ĠOs": 9214,
      "Ġflag": 9215,
      "Ġexplain": 9216,
      "Ġtit": 9217,
      "islam": 9218,
      "yoo": 9219,
      "Ġlarger": 9220,
      "gwe": 9221,
      "ĠÎ": 9222,
      "Ġkaka": 9223,
      "ficha": 9224,
      "Ġmaelfu": 9225,
      "Ġflash": 9226,
      "Ġserve": 9227,
      "ĠSystem": 9228,
      "Ġudongo": 9229,
      "war": 9230,
      "Ġujasiri": 9231,
      "Ġdiseases": 9232,
      "Ġunusual": 9233,
      "Ġnar": 9234,
      "back": 9235,
      "year": 9236,
      "Ġkuchunguza": 9237,
      "Chanzo": 9238,
      "hin": 9239,
      "ĠEnd": 9240,
      "ĠVict": 9241,
      "Ġdetermine": 9242,
      "ĠSI": 9243,
      "estic": 9244,
      "Ġplaced": 9245,
      "ckson": 9246,
      "ĠMikoa": 9247,
      "ĠMadrid": 9248,
      "Ġadui": 9249,
      "Ġattempt": 9250,
      "Lo": 9251,
      "Ġfan": 9252,
      "amke": 9253,
      "hudumu": 9254,
      "Ġzoo": 9255,
      "Ġessential": 9256,
      "fort": 9257,
      "pand": 9258,
      "Ġlock": 9259,
      "Ġvikwazo": 9260,
      "haribika": 9261,
      "bes": 9262,
      "taina": 9263,
      "Ġworm": 9264,
      "Ġimages": 9265,
      "yer": 9266,
      "Ġwife": 9267,
      "Ġnegative": 9268,
      "Ġ400": 9269,
      "Ġregul": 9270,
      "Wak": 9271,
      "Ġkombe": 9272,
      "ĠTiba": 9273,
      "Ġmkopo": 9274,
      "Ġapplication": 9275,
      "Who": 9276,
      "Ġlikizo": 9277,
      "kane": 9278,
      "Ġtathmini": 9279,
      "Ġattract": 9280,
      "Ġbill": 9281,
      "hisho": 9282,
      "Source": 9283,
      "ĠGold": 9284,
      "Ġreceive": 9285,
      "Ġshowing": 9286,
      "Ġumaarufu": 9287,
      "Mnamo": 9288,
      "Ġmagnet": 9289,
      "ĠBBC": 9290,
      "Ġlazy": 9291,
      "ĠNam": 9292,
      "Ġadditional": 9293,
      "Ġprivate": 9294,
      "Ro": 9295,
      "ding": 9296,
      "wekea": 9297,
      "ĠKikristo": 9298,
      "Ġcenter": 9299,
      "ĠInternet": 9300,
      "Ġmental": 9301,
      "ĠKanda": 9302,
      "logies": 9303,
      "Ġushindani": 9304,
      "ender": 9305,
      "itaa": 9306,
      "Hapa": 9307,
      "Ġsolve": 9308,
      "ictionary": 9309,
      "Ġkor": 9310,
      "wawa": 9311,
      "Ġchao": 9312,
      "ĠKik": 9313,
      "Ġguess": 9314,
      "Ġbossy": 9315,
      "Ġasking": 9316,
      "peresheni": 9317,
      "eneza": 9318,
      "ĠCatholic": 9319,
      "Ġvikao": 9320,
      "Ġmwenzake": 9321,
      "Ġsal": 9322,
      "Ġ2022": 9323,
      "Ġwanne": 9324,
      "ambuliwa": 9325,
      "ĠFebruary": 9326,
      "Ġmeeting": 9327,
      "zine": 9328,
      "Ġinawa": 9329,
      "Ġmyster": 9330,
      "ĠOllie": 9331,
      "pre": 9332,
      "ĠBon": 9333,
      "Ġwagombea": 9334,
      "hema": 9335,
      "ĠBand": 9336,
      "Ġ2021": 9337,
      "Bahari": 9338,
      "himili": 9339,
      "chochea": 9340,
      "Ġmelt": 9341,
      "Ġsouth": 9342,
      "Ġnucle": 9343,
      "wise": 9344,
      "Ġclock": 9345,
      "Ġcourt": 9346,
      "ĠMid": 9347,
      "Ġlisi": 9348,
      "jaliwa": 9349,
      "Ġcomfortable": 9350,
      "Ġclay": 9351,
      "igg": 9352,
      "ĠIbn": 9353,
      "Ġwalit": 9354,
      "Ġ32": 9355,
      "Ġkusimama": 9356,
      "Ġhususan": 9357,
      "ĠFoundation": 9358,
      "Was": 9359,
      "Ġjibu": 9360,
      "Ġwasa": 9361,
      "ĠGerm": 9362,
      "fish": 9363,
      "nie": 9364,
      "ajiri": 9365,
      "Ġjapo": 9366,
      "Ġkuvunja": 9367,
      "firishaji": 9368,
      "Ġlength": 9369,
      "ĠVile": 9370,
      "ĠJumanne": 9371,
      "ĠEdward": 9372,
      "Ġcompanies": 9373,
      "Hel": 9374,
      "PP": 9375,
      "redit": 9376,
      "Ġ75": 9377,
      "ĠRas": 9378,
      "Ġtafsiri": 9379,
      "ĠGood": 9380,
      "fanyabiashara": 9381,
      "ĠVijana": 9382,
      "Ġcontains": 9383,
      "Ġufafanuzi": 9384,
      "ĠDist": 9385,
      "Ġdemonstr": 9386,
      "Ġfancy": 9387,
      "iring": 9388,
      "Ġenter": 9389,
      "Ġterri": 9390,
      "Ġsevere": 9391,
      "Ġnearly": 9392,
      "faut": 9393,
      "Ġcart": 9394,
      "chia": 9395,
      "Ġzenu": 9396,
      "heri": 9397,
      "fanyi": 9398,
      "Ġmirror": 9399,
      "Ġombi": 9400,
      "Ġvema": 9401,
      "Ġjanga": 9402,
      "Ġchoice": 9403,
      "ĠMartin": 9404,
      "Ġmarekebisho": 9405,
      "anti": 9406,
      "Ġcrayons": 9407,
      "ĠTor": 9408,
      "Ġlif": 9409,
      "zozo": 9410,
      "jiliwa": 9411,
      "Ġkuifanya": 9412,
      "reedom": 9413,
      "Ġcollection": 9414,
      "Ġborn": 9415,
      "Ġ150": 9416,
      "ĠMichezo": 9417,
      "mbari": 9418,
      "Ġjipya": 9419,
      "ĠBobby": 9420,
      "Ġlack": 9421,
      "ĠGhana": 9422,
      "Ġanavyo": 9423,
      "Ġjukwaa": 9424,
      "Ġkufungwa": 9425,
      "isms": 9426,
      "anyika": 9427,
      "Ġpana": 9428,
      "ĠArsenal": 9429,
      "Ġelderly": 9430,
      "Za": 9431,
      "Ã¤": 9432,
      "Ġyataka": 9433,
      "Ġdeal": 9434,
      "Ġmio": 9435,
      "Ġprince": 9436,
      "Ġimportance": 9437,
      "Ġpil": 9438,
      "anaa": 9439,
      "lars": 9440,
      "Ġdiv": 9441,
      "ĠUnguja": 9442,
      "Ġkushughulikia": 9443,
      "Ġmasaa": 9444,
      "water": 9445,
      "redi": 9446,
      "Eneo": 9447,
      "ĠBird": 9448,
      "Ġpages": 9449,
      "andikisha": 9450,
      "Ġrepa": 9451,
      "Ġsoftware": 9452,
      "irm": 9453,
      "DF": 9454,
      "chus": 9455,
      "Ġ1970": 9456,
[...]
