{
  "version": "1.0",
  "truncation": null,
  "padding": null,
  "added_tokens": [
    {
      "id": 0,
      "content": "<|endoftext|>",
      "single_word": false,
      "lstrip": false,
      "rstrip": false,
      "normalized": false,
      "special": true
    },
    {
      "id": 1,
      "content": "<|user|>",
      "single_word": false,
      "lstrip": false,
      "rstrip": false,
      "normalized": false,
      "special": true
    },
    {
      "id": 2,
      "content": "<|assistant|>",
      "single_word": false,
      "lstrip": false,
      "rstrip": false,
      "normalized": false,
      "special": true
    },
    {
      "id": 3,
      "content": "<|pad|>",
      "single_word": false,
      "lstrip": false,
      "rstrip": false,
      "normalized": false,
      "special": true
    }
  ],
  "normalizer": null,
  "pre_tokenizer": {
    "type": "ByteLevel",
    "add_prefix_space": false,
    "trim_offsets": true,
    "use_regex": true
  },
  "post_processor": {
    "type": "ByteLevel",
    "add_prefix_space": true,
    "trim_offsets": false,
    "use_regex": true
  },
  "decoder": {
    "type": "ByteLevel",
    "add_prefix_space": true,
    "trim_offsets": true,
    "use_regex": true
  },
  "model": {
    "type": "BPE",
    "dropout": null,
    "unk_token": null,
    "continuing_subword_prefix": null,
    "end_of_word_suffix": null,
    "fuse_unk": false,
    "byte_fallback": false,
    "ignore_merges": false,
    "vocab": {
      "<|endoftext|>": 0,
      "<|user|>": 1,
      "<|assistant|>": 2,
      "<|pad|>": 3,
      "!": 4,
      "\"": 5,
      "#": 6,
      "$": 7,
      "%": 8,
      "&": 9,
      "'": 10,
      "(": 11,
      ")": 12,
      "*": 13,
      "+": 14,
      ",": 15,
      "-": 16,
      ".": 17,
      "/": 18,
      "0": 19,
      "1": 20,
      "2": 21,
      "3": 22,
      "4": 23,
      "5": 24,
      "6": 25,
      "7": 26,
      "8": 27,
      "9": 28,
      ":": 29,
      ";": 30,
      "<": 31,
      "=": 32,
      ">": 33,
      "?": 34,
      "@": 35,
      "A": 36,
      "B": 37,
      "C": 38,
      "D": 39,
      "E": 40,
      "F": 41,
      "G": 42,
      "H": 43,
      "I": 44,
      "J": 45,
      "K": 46,
      "L": 47,
      "M": 48,
      "N": 49,
      "O": 50,
      "P": 51,
      "Q": 52,
      "R": 53,
      "S": 54,
      "T": 55,
      "U": 56,
      "V": 57,
      "W": 58,
      "X": 59,
      "Y": 60,
      "Z": 61,
      "[": 62,
      "\\": 63,
      "]": 64,
      "^": 65,
      "_": 66,
      "`": 67,
      "a": 68,
      "b": 69,
      "c": 70,
      "d": 71,
      "e": 72,
      "f": 73,
      "g": 74,
      "h": 75,
      "i": 76,
      "j": 77,
      "k": 78,
      "l": 79,
      "m": 80,
      "n": 81,
      "o": 82,
      "p": 83,
      "q": 84,
      "r": 85,
      "s": 86,
      "t": 87,
      "u": 88,
      "v": 89,
      "w": 90,
      "x": 91,
      "y": 92,
      "z": 93,
      "{": 94,
      "|": 95,
      "}": 96,
      "~": 97,
      "¡": 98,
      "¢": 99,
      "£": 100,
      "¤": 101,
      "¥": 102,
      "¦": 103,
      "§": 104,
      "¨": 105,
      "©": 106,
      "ª": 107,
      "«": 108,
      "¬": 109,
      "®": 110,
      "¯": 111,
      "°": 112,
      "±": 113,
      "²": 114,
      "³": 115,
      "´": 116,
      "µ": 117,
      "¶": 118,
      "·": 119,
      "¸": 120,
      "¹": 121,
      "º": 122,
      "»": 123,
      "¼": 124,
      "½": 125,
      "¾": 126,
      "¿": 127,
      "À": 128,
      "Á": 129,
      "Â": 130,
      "Ã": 131,
      "Ä": 132,
      "Å": 133,
      "Æ": 134,
      "Ç": 135,
      "È": 136,
      "É": 137,
      "Ê": 138,
      "Ë": 139,
      "Ì": 140,
      "Í": 141,
      "Î": 142,
      "Ï": 143,
      "Ð": 144,
      "Ñ": 145,
      "Ò": 146,
      "Ó": 147,
      "Ô": 148,
      "Õ": 149,
      "Ö": 150,
      "×": 151,
      "Ø": 152,
      "Ù": 153,
      "Ú": 154,
      "Û": 155,
      "Ü": 156,
      "Ý": 157,
      "Þ": 158,
      "ß": 159,
      "à": 160,
      "á": 161,
      "â": 162,
      "ã": 163,
      "ä": 164,
      "å": 165,
      "æ": 166,
      "ç": 167,
      "è": 168,
      "é": 169,
      "ê": 170,
      "ë": 171,
      "ì": 172,
      "í": 173,
      "î": 174,
      "ï": 175,
      "ð": 176,
      "ñ": 177,
      "ò": 178,
      "ó": 179,
      "ô": 180,
      "õ": 181,
      "ö": 182,
      "÷": 183,
      "ø": 184,
      "ù": 185,
      "ú": 186,
      "û": 187,
      "ü": 188,
      "ý": 189,
      "þ": 190,
      "ÿ": 191,
      "Ā": 192,
      "ā": 193,
      "Ă": 194,
      "ă": 195,
      "Ą": 196,
      "ą": 197,
      "Ć": 198,
      "ć": 199,
      "Ĉ": 200,
      "ĉ": 201,
      "Ċ": 202,
      "ċ": 203,
      "Č": 204,
      "č": 205,
      "Ď": 206,
      "ď": 207,
      "Đ": 208,
      "đ": 209,
      "Ē": 210,
      "ē": 211,
      "Ĕ": 212,
      "ĕ": 213,
      "Ė": 214,
      "ė": 215,
      "Ę": 216,
      "ę": 217,
      "Ě": 218,
      "ě": 219,
      "Ĝ": 220,
      "ĝ": 221,
      "Ğ": 222,
      "ğ": 223,
      "Ġ": 224,
      "ġ": 225,
      "Ģ": 226,
      "ģ": 227,
      "Ĥ": 228,
      "ĥ": 229,
      "Ħ": 230,
      "ħ": 231,
      "Ĩ": 232,
      "ĩ": 233,
      "Ī": 234,
      "ī": 235,
      "Ĭ": 236,
      "ĭ": 237,
      "Į": 238,
      "į": 239,
      "İ": 240,
      "ı": 241,
      "Ĳ": 242,
      "ĳ": 243,
      "Ĵ": 244,
      "ĵ": 245,
      "Ķ": 246,
      "ķ": 247,
      "ĸ": 248,
      "Ĺ": 249,
      "ĺ": 250,
      "Ļ": 251,
      "ļ": 252,
      "Ľ": 253,
      "ľ": 254,
      "Ŀ": 255,
      "ŀ": 256,
      "Ł": 257,
      "ł": 258,
      "Ń": 259,
      "wa": 260,
      "he": 261,
      "Ġt": 262,
      "Ġa": 263,
      "Ġk": 264,
      "Ġs": 265,
      "Ġwa": 266,
      "na": 267,
      "Ġm": 268,
      "nd": 269,
      "ha": 270,
      "čĊ": 271,
      "li": 272,
      "in": 273,
      "Ġthe": 274,
      "ya": 275,
      "ed": 276,
      "Ġb": 277,
      "Ġku": 278,
      "hi": 279,
      "ka": 280,
      "Ġand": 281,
      "an": 282,
      "Ġya": 283,
      "it": 284,
      "Ġto": 285,
      "Ġna": 286,
      "re": 287,
      "Ġw": 288,
      "Ġf": 289,
      "en": 290,
      "la": 291,
      "Ġc": 292,
      "Ġn": 293,
      "ou": 294,
      "Ġu": 295,
      "ri": 296,
      "on": 297,
      "le": 298,
      "Ġha": 299,
      "Ġp": 300,
      "at": 301,
      "Ġd": 302,
      "is": 303,
      "er": 304,
      "om": 305,
      "am": 306,
      "ĠT": 307,
      "ar": 308,
      "Ġhe": 309,
      "ing": 310,
      "za": 311,
      "Ġwas": 312,
      "Ġsa": 313,
      "id": 314,
      "ĠM": 315,
      "Ġma": 316,
      "ba": 317,
      "ĠS": 318,
      "Ġhi": 319,
      "im": 320,
      "ia": 321,
      "ot": 322,
      "ku": 323,
      "hu": 324,
      "ke": 325,
      "Ġg": 326,
      "Ġkwa": 327,
      "zi": 328,
      "or": 329,
      "un": 330,
      "il": 331,
      "ili": 332,
      "es": 333,
      "ta": 334,
      "Ġv": 335,
      "ĠH": 336,
      "um": 337,
      "lo": 338,
      "ĠThe": 339,
      "yo": 340,
      "Ġit": 341,
      "ika": 342,
      "et": 343,
      "Ġli": 344,
      "ki": 345,
      "ra": 346,
      "we": 347,
      "ye": 348,
      "Ġo": 349,
      "ut": 350,
      "ma": 351,
      "ji": 352,
      "ir": 353,
      "ho": 354,
      "ad": 355,
      "Ġher": 356,
      "ll": 357,
      "ĠShe": 358,
      "ĠK": 359,
      "ĠI": 360,
      "ĠHe": 361,
      "Ġin": 362,
      "Ġla": 363,
      "Ġhu": 364,
      "end": 365,
      "hat": 366,
      "Ġni": 367,
      "fu": 368,
      "Ġy": 369,
      "Ġza": 370,
      "ja": 371,
      "ĠB": 372,
      "mba": 373,
      "gu": 374,
      "ld": 375,
      "si": 376,
      "se": 377,
      "ĠThey": 378,
      "ĠL": 379,
      "Ġe": 380,
      "ĠA": 381,
      "ck": 382,
      "to": 383,
      "Ġ\"": 384,
      "atika": 385,
      "Ġbe": 386,
      "ce": 387,
      "ini": 388,
      "ko": 389,
      "Ġshe": 390,
      "Ġsaid": 391,
      "Ġba": 392,
      "ga": 393,
      "Ġki": 394,
      "bu": 395,
      "ily": 396,
      "sa": 397,
      "pp": 398,
      "ve": 399,
      "ay": 400,
      "Ġof": 401,
      "ith": 402,
      "Ġi": 403,
      "tu": 404,
      "ani": 405,
      "zo": 406,
      "Ġwith": 407,
      "Ġj": 408,
      "Ġkatika": 409,
      "Ġon": 410,
      "Ġup": 411,
      "On": 412,
      "Ġso": 413,
      "st": 414,
      "ig": 415,
      "Ġlo": 416,
      "Ġhis": 417,
      "ĠW": 418,
      "Ġyou": 419,
      "ch": 420,
      "nt": 421,
      "ked": 422,
      "ery": 423,
      "Ġhad": 424,
      "Ġr": 425,
      "fa": 426,
      "me": 427,
      "Ġkuwa": 428,
      "Ġday": 429,
      "po": 430,
      "ime": 431,
      "Ġthat": 432,
      "enye": 433,
      "Ġali": 434,
      "Ġpla": 435,
      "Ġwe": 436,
      "âĢ": 437,
      "ow": 438,
      "go": 439,
      "ama": 440,
      "ge": 441,
      "Ġcha": 442,
      "ti": 443,
      "Ġplay": 444,
      "ara": 445,
      "ĠJ": 446,
      "Ġthey": 447,
      "Ġta": 448,
      "Ġfor": 449,
      "ĠLily": 450,
      "kuwa": 451,
      "sha": 452,
      "ĠN": 453,
      "Ġmom": 454,
      "Ġamba": 455,
      "isha": 456,
      "ould": 457,
      "Ġwana": 458,
      "mu": 459,
      "Ġse": 460,
      "Ġst": 461,
      "my": 462,
      "The": 463,
      "tt": 464,
      "'s": 465,
      "ele": 466,
      "ly": 467,
      "fan": 468,
      "Ġhapp": 469,
      "Ġtu": 470,
      "gh": 471,
      "her": 472,
      "out": 473,
      "Ġka": 474,
      "ĠMa": 475,
      "Ġwant": 476,
      "Ġgo": 477,
      "ome": 478,
      "ĠU": 479,
      "Ġdo": 480,
      "wenye": 481,
      "Ġas": 482,
      "ent": 483,
      "ound": 484,
      "pa": 485,
      "Ġis": 486,
      "Ġnot": 487,
      "Ġre": 488,
      "Ġvery": 489,
      "ok": 490,
      "Ġan": 491,
      "od": 492,
      "Ġne": 493,
      "Ġili": 494,
      "Ġtime": 495,
      "cha": 496,
      "Ġlitt": 497,
      "Ġlittle": 498,
      "Ġthere": 499,
      "ote": 500,
      "Ġth": 501,
      "ata": 502,
      "ua": 503,
      "ĠčĊ": 504,
      "el": 505,
      "Ġvi": 506,
      "shi": 507,
      "Ġhappy": 508,
      "Ġbig": 509,
      "ry": 510,
      "oja": 511,
      "ĠIt": 512,
      "Ġbut": 513,
      "ys": 514,
      "Ġle": 515,
      "ter": 516,
      "Ġfri": 517,
      ".\"": 518,
      "Ġsaw": 519,
      "ati": 520,
      "bo": 521,
      "ru": 522,
      "ita": 523,
      "Ġfriend": 524,
      "nda": 525,
      "Ġbo": 526,
      "Ġl": 527,
      "ĠD": 528,
      "che": 529,
      "Ġmu": 530,
      "One": 531,
      "ni": 532,
      "ĠC": 533,
      "Ġmwa": 534,
      "'t": 535,
      "ine": 536,
      "vyo": 537,
      "ved": 538,
      "Ġkuto": 539,
      "Ġwere": 540,
      "ec": 541,
      "Once": 542,
      "!\"": 543,
      "ĠY": 544,
      "Ġina": 545,
      "di": 546,
      "Ġ(": 547,
      "one": 548,
      "ver": 549,
      "Ġca": 550,
      "ungu": 551,
      "Ġh": 552,
      "Ġkama": 553,
      "ndi": 554,
      "Ġhim": 555,
      "ght": 556,
      "Ġsi": 557,
      "ide": 558,
      "Ġana": 559,
      "Ġwali": 560,
      "Ġat": 561,
      "ng": 562,
      "mi": 563,
      "Ġmi": 564,
      "Ġzi": 565,
      "al": 566,
      "irl": 567,
      "Ġare": 568,
      "ĠTim": 569,
      "bi": 570,
      "Ġwanted": 571,
      "fanya": 572,
      "Ġupon": 573,
      "Ġgirl": 574,
      "eng": 575,
      "Ġout": 576,
      "Ġthem": 577,
      "Ġkwenye": 578,
      "be": 579,
      "Ġkup": 580,
      "ĠP": 581,
      "Ġuna": 582,
      "Ġho": 583,
      "Ġtheir": 584,
      "da": 585,
      "de": 586,
      "Ġcould": 587,
      "rika": 588,
      "Ġdid": 589,
      "Ġar": 590,
      "ĠR": 591,
      "Ġ2": 592,
      "sema": 593,
      "ano": 594,
      "kati": 595,
      "art": 596,
      "chi": 597,
      "Ġhave": 598,
      "ro": 599,
      "Ġsp": 600,
      "Ġex": 601,
      "ore": 602,
      "idi": 603,
      "te": 604,
      "fi": 605,
      "Ġju": 606,
      "su": 607,
      "rom": 608,
      "hen": 609,
      "ada": 610,
      "ĠWa": 611,
      "weza": 612,
      "ĠE": 613,
      "Ġz": 614,
      "Ġ1": 615,
      "Ġwent": 616,
      "Ġman": 617,
      "Ġfi": 618,
      "ful": 619,
      "ĠBen": 620,
      "Ġhel": 621,
      "med": 622,
      "ill": 623,
      "ep": 624,
      "Ġcan": 625,
      "kiwa": 626,
      "Ġra": 627,
      "ong": 628,
      "ĠF": 629,
      "oto": 630,
      "Ġsm": 631,
      "Ġfa": 632,
      "Ġpa": 633,
      "oni": 634,
      "Ġny": 635,
      "Ġhiyo": 636,
      "hing": 637,
      "ss": 638,
      "Ġhelp": 639,
      "ze": 640,
      "Ġyake": 641,
      "Ġfriends": 642,
      "?\"": 643,
      "Ġkn": 644,
      "Ġall": 645,
      "Ġco": 646,
      "other": 647,
      "Ġal": 648,
      "Ġkwamba": 649,
      "Ġback": 650,
      "kini": 651,
      "Ġpi": 652,
      "cho": 653,
      "ame": 654,
      "bwa": 655,
      "ina": 656,
      "Ġfun": 657,
      "ark": 658,
      "Ġlike": 659,
      "Ġvya": 660,
      "very": 661,
      "Ġme": 662,
      "Ġau": 663,
      "uri": 664,
      "lly": 665,
      "tum": 666,
      "ĠTom": 667,
      "iled": 668,
      "Ġkutoka": 669,
      "isa": 670,
      "Ġro": 671,
      "Ġtoo": 672,
      "uni": 673,
      "Ġwatu": 674,
      "Ġsc": 675,
      "Ġsu": 676,
      "iti": 677,
      "ingi": 678,
      "han": 679,
      "Ġnamed": 680,
      "chu": 681,
      "side": 682,
      "ima": 683,
      "elt": 684,
      "ĠOne": 685,
      "Ġsmiled": 686,
      "Ġloved": 687,
      "ria": 688,
      "Ġawa": 689,
      "Ġfe": 690,
      "low": 691,
      "oked": 692,
      "ish": 693,
      "sh": 694,
      "eo": 695,
      "Ġfelt": 696,
      "ard": 697,
      "Ġasked": 698,
      "Ġaround": 699,
      "amu": 700,
      "ongo": 701,
      "ila": 702,
      "omet": 703,
      "Ġlooked": 704,
      "ishi": 705,
      "Ġsome": 706,
      "pi": 707,
      "Ġsee": 708,
      "vu": 709,
      "ĠMungu": 710,
      "âĢľ": 711,
      "ĠTimmy": 712,
      "Ġmake": 713,
      "Ġsh": 714,
      "Ġmat": 715,
      "ung": 716,
      "endele": 717,
      "Ġwould": 718,
      "anz": 719,
      "isi": 720,
      "Ġbir": 721,
      "Ġstart": 722,
      "Ġnd": 723,
      "uti": 724,
      "Ġbu": 725,
      "get": 726,
      "Ġwake": 727,
      "Ġboy": 728,
      "Ġsomet": 729,
      "Ġhii": 730,
      "mb": 731,
      "bali": 732,
      "Ġran": 733,
      "ana": 734,
      "âĢĿ": 735,
      "Ġpo": 736,
      "Ġwor": 737,
      ",\"": 738,
      "Ġzaidi": 739,
      "Ġwhat": 740,
      "ings": 741,
      "Ġbird": 742,
      "Ĥ¬": 743,
      "âĤ¬": 744,
      "Ã¢": 745,
      "00": 746,
      "Ġam": 747,
      "Ġwakati": 748,
      "Ġsha": 749,
      "Ġuli": 750,
      "ree": 751,
      "etu": 752,
      "Ġwat": 753,
      "ny": 754,
      "ited": 755,
      "Ġaway": 756,
      "oud": 757,
      "ĠBut": 758,
      "ĠYou": 759,
      "Ġno": 760,
      "gether": 761,
      "ona": 762,
      "uma": 763,
      "Ġte": 764,
      "uli": 765,
      "kia": 766,
      "Ġstarted": 767,
      "anga": 768,
      "Lily": 769,
      "Ġmw": 770,
      "own": 771,
      "Ġmade": 772,
      "Ġsana": 773,
      "taka": 774,
      "ers": 775,
      "Ġsomething": 776,
      "Ġkit": 777,
      "Ġcar": 778,
      "ĠG": 779,
      "ven": 780,
      "Ġsays": 781,
      "pe": 782,
      "hed": 783,
      "Ġtogether": 784,
      "Ġsho": 785,
      "kuu": 786,
      "Ġfrom": 787,
      "his": 788,
      "Ġkazi": 789,
      "Ġkum": 790,
      "Ġpark": 791,
      "ble": 792,
      "enda": 793,
      "ud": 794,
      "Ġsad": 795,
      "Ġother": 796,
      "Ġnew": 797,
      "Ġlook": 798,
      "Ġexc": 799,
      "vi": 800,
      "Ġput": 801,
      "Ġbaada": 802,
      "Ġame": 803,
      "rikali": 804,
      "esha": 805,
      "gain": 806,
      "pen": 807,
      "Ġen": 808,
      "Ġagain": 809,
      "ambo": 810,
      "Ġscar": 811,
      "Ġhome": 812,
      "Ġwho": 813,
      "ifa": 814,
      "Ġhivyo": 815,
      "Ġwhen": 816,
      "ania": 817,
      "Ġambayo": 818,
      "lu": 819,
      "Ġgood": 820,
      "Ġthen": 821,
      "est": 822,
      "Ġfound": 823,
      "Ġlakini": 824,
      "lia": 825,
      "Ġdec": 826,
      "qu": 827,
      "Ġwal": 828,
      "ingine": 829,
      "ond": 830,
      "ema": 831,
      "onge": 832,
      "rd": 833,
      "ried": 834,
      "pped": 835,
      "imu": 836,
      "Ġnj": 837,
      "Ġye": 838,
      "fe": 839,
      "Ġget": 840,
      "ume": 841,
      "as": 842,
      "ach": 843,
      "wan": 844,
      "Ġmoja": 845,
      "ous": 846,
      "kana": 847,
      "Ġsto": 848,
      "our": 849,
      "Ġhug": 850,
      "amoja": 851,
      "ought": 852,
      "Ġpia": 853,
      "atu": 854,
      "Ġplaying": 855,
      "ngu": 856,
      "Ġzina": 857,
      "king": 858,
      "Ġ20": 859,
      "Ġhuo": 860,
      "Ġthings": 861,
      "Ġkila": 862,
      "babu": 863,
      "husu": 864,
      "ol": 865,
      "Ġpr": 866,
      "Ġexcited": 867,
      "Ġmwaka": 868,
      "ic": 869,
      "..": 870,
      "au": 871,
      "Ġweng": 872,
      "mo": 873,
      "Ġgot": 874,
      "ĠKu": 875,
      "Ġus": 876,
      "Ġliked": 877,
      "ided": 878,
      "Ġim": 879,
      "Ġndi": 880,
      "Ġevery": 881,
      "Ġfu": 882,
      "Ġdecided": 883,
      "ĠKi": 884,
      "Ġri": 885,
      "anzania": 886,
      "bari": 887,
      "Ġone": 888,
      "fun": 889,
      "Ġyour": 890,
      "kea": 891,
      "Ġcame": 892,
      "zwa": 893,
      "Ġjuu": 894,
      "Ġpamoja": 895,
      "Ġhata": 896,
      "ali": 897,
      "adhi": 898,
      "ouse": 899,
      "Ġdown": 900,
      "ĠMom": 901,
      "ĠNa": 902,
      "ew": 903,
      "Ġsiku": 904,
      "Ùİ": 905,
      "ang": 906,
      "oa": 907,
      "Ġga": 908,
      "Ġscared": 909,
      "Ġgra": 910,
      "Ġfind": 911,
      "Ġmo": 912,
      "Ġthan": 913,
      "Ġtuna": 914,
      "Ġdog": 915,
      "Ġbec": 916,
      "and": 917,
      "ling": 918,
      "ug": 919,
      "kwa": 920,
      "Ġmtu": 921,
      "Ġuta": 922,
      "Ġmb": 923,
      "ami": 924,
      "ham": 925,
      "Ġcare": 926,
      "ne": 927,
      "Ġhali": 928,
      "moja": 929,
      "Ġsasa": 930,
      "Ġdad": 931,
      "ĠV": 932,
      "Ġpu": 933,
      "Ġkut": 934,
      "Ġnchi": 935,
      "ĠSam": 936,
      "Ġbr": 937,
      "Ġab": 938,
      "nna": 939,
      "Ġwill": 940,
      "Ġmy": 941,
      "hari": 942,
      "ways": 943,
      "Ġkuli": 944,
      "zuri": 945,
      "Ma": 946,
      "They": 947,
      "ĠSa": 948,
      "Ġdidn": 949,
      "Ġtake": 950,
      "Ġambao": 951,
      "chini": 952,
      "jili": 953,
      "umu": 954,
      "kubwa": 955,
      "Ġabout": 956,
      "ĠO": 957,
      "Ġalways": 958,
      "ĠJa": 959,
      "Ġbad": 960,
      "ned": 961,
      "Ġtook": 962,
      "ĠZ": 963,
      "Ġlot": 964,
      "fany": 965,
      "bia": 966,
      "den": 967,
      "igh": 968,
      "ecia": 969,
      "Ġhilo": 970,
      "Ġmommy": 971,
      "Ġsababu": 972,
      "Ġmara": 973,
      "bb": 974,
      "Ġmwana": 975,
      "endelea": 976,
      "Ġaka": 977,
      "Ġime": 978,
      "Ġoutside": 979,
      "Ġpre": 980,
      "Ġgr": 981,
      "Ġwi": 982,
      "Ġtoys": 983,
      "dy": 984,
      "zaji": 985,
      "Ġnchini": 986,
      "Ġkab": 987,
      "Ġmore": 988,
      "ched": 989,
      "Ġtree": 990,
      "Ġkufanya": 991,
      "Ġlear": 992,
      "Ġthought": 993,
      "iny": 994,
      "Ġmbali": 995,
      "Ġknow": 996,
      "Ġhawa": 997,
      "Ġde": 998,
      "Ġsta": 999,
      "ant": 1000,
      "Ġyao": 1001,
      "Ġwame": 1002,
      "ged": 1003,
      "Ġold": 1004,
      "ĠâĢľ": 1005,
      "ecial": 1006,
      "ĠSe": 1007,
      "Ġhuu": 1008,
      "Ġspecial": 1009,
      "eni": 1010,
      "liwa": 1011,
      "ture": 1012,
      "ak": 1013,
      "ais": 1014,
      "ĠAf": 1015,
      "Ġkuj": 1016,
      "pata": 1017,
      "ĠJo": 1018,
      "oma": 1019,
      "Ġji": 1020,
      "ishwa": 1021,
      "ĠKwa": 1022,
      "Ġad": 1023,
      "Ġknew": 1024,
      "Ġany": 1025,
      "Ġcat": 1026,
      "Ġms": 1027,
      "âĢĻ": 1028,
      "riki": 1029,
      "Ġkwe": 1030,
      "lled": 1031,
      "ari": 1032,
      "ite": 1033,
      "Ġyana": 1034,
      "Ġor": 1035,
      "kili": 1036,
      "ple": 1037,
      "Ġsor": 1038,
      "isho": 1039,
      "ĠMax": 1040,
      "angu": 1041,
      "Ġshow": 1042,
      "ĠMu": 1043,
      "ogo": 1044,
      "Ġwao": 1045,
      "kua": 1046,
      "ito": 1047,
      "Ġaf": 1048,
      "Ġalisema": 1049,
      "ate": 1050,
      "Ġhow": 1051,
      "Ġgi": 1052,
      "nga": 1053,
      "Ġkus": 1054,
      "denly": 1055,
      "Ġtoy": 1056,
      "anza": 1057,
      "Ġ201": 1058,
      "miwa": 1059,
      "Ġpe": 1060,
      "ump": 1061,
      "ise": 1062,
      "Ġrun": 1063,
      "tumia": 1064,
      "Ġmuch": 1065,
      "ĠHa": 1066,
      "Ġyako": 1067,
      "ĠWe": 1068,
      "ongozi": 1069,
      "ink": 1070,
      "Ġtw": 1071,
      "Ġndani": 1072,
      "ĠTanzania": 1073,
      "heshi": 1074,
      "But": 1075,
      "Ġkubwa": 1076,
      "ft": 1077,
      "lf": 1078,
      "cked": 1079,
      "Ġzili": 1080,
      "Ġwhi": 1081,
      "Ġkuhusu": 1082,
      "Ġball": 1083,
      "ora": 1084,
      "Ġfam": 1085,
      "Ġkuna": 1086,
      "Ġif": 1087,
      "Ġkam": 1088,
      "Ġhand": 1089,
      "Ġhouse": 1090,
      "Ġiliyo": 1091,
      "Ġsorry": 1092,
      "rt": 1093,
      "Ġinto": 1094,
      "ight": 1095,
      "sed": 1096,
      "Ġcom": 1097,
      "cks": 1098,
      "Ġ3": 1099,
      "Ġmp": 1100,
      "Ġclo": 1101,
      "Ġqu": 1102,
      "Ġthis": 1103,
      "Ġhatu": 1104,
      "Ġwater": 1105,
      "Ġtried": 1106,
      "Ġexp": 1107,
      "ess": 1108,
      "Ġfo": 1109,
      "esema": 1110,
      "Ġinside": 1111,
      "here": 1112,
      "Ġover": 1113,
      "Ġkati": 1114,
      "zima": 1115,
      "wi": 1116,
      "ĠEvery": 1117,
      "Ġtold": 1118,
      "Ġhayo": 1119,
      "Ġcouldn": 1120,
      "Ġkuji": 1121,
      "Ġsun": 1122,
      "Ġnever": 1123,
      "Ġproud": 1124,
      "Ġmas": 1125,
      "Ġwalio": 1126,
      "damu": 1127,
      "hidi": 1128,
      "Ġgave": 1129,
      "ĠâĢ": 1130,
      "Ġopen": 1131,
      "wezi": 1132,
      "pot": 1133,
      "Ġheard": 1134,
      "iwa": 1135,
      "Ġuwe": 1136,
      "ene": 1137,
      "Ġche": 1138,
      "Ġyali": 1139,
      "gi": 1140,
      "ket": 1141,
      "ĠSara": 1142,
      "unge": 1143,
      "dhi": 1144,
      "Ġeat": 1145,
      "Ġwote": 1146,
      "Ġmaisha": 1147,
      "ilia": 1148,
      "heshimiwa": 1149,
      "ĠMwenye": 1150,
      "hali": 1151,
      "taji": 1152,
      "Ġroom": 1153,
      "Ġaki": 1154,
      "Ġmia": 1155,
      "Tom": 1156,
      "ob": 1157,
      "Ġeach": 1158,
      "uddenly": 1159,
      "ause": 1160,
      "zung": 1161,
      "ida": 1162,
      "ĠSo": 1163,
      "hemu": 1164,
      "Ġgre": 1165,
      "Ġmuda": 1166,
      "zungum": 1167,
      "Ġsw": 1168,
      "Ġjust": 1169,
      "imi": 1170,
      "Ġmwenye": 1171,
      "les": 1172,
      "Ġume": 1173,
      "ĠAnna": 1174,
      "Ġplayed": 1175,
      "ĠTa": 1176,
      "Ġhabari": 1177,
      "Ġkwan": 1178,
      "oth": 1179,
      "mbu": 1180,
      "wana": 1181,
      "cy": 1182,
      "hn": 1183,
      "ort": 1184,
      "Ġbox": 1185,
      "Ġneed": 1186,
      "itu": 1187,
      "Ġita": 1188,
      "Ġhugged": 1189,
      "Ġbecause": 1190,
      "jana": 1191,
      "kisha": 1192,
      "idia": 1193,
      "omba": 1194,
      "Mom": 1195,
      "jini": 1196,
      "Ġkitu": 1197,
      "Ġmaji": 1198,
      "ered": 1199,
      "ĠBa": 1200,
      "kwe": 1201,
      "ziri": 1202,
      "Ġkid": 1203,
      "Ġmany": 1204,
      "Ġbet": 1205,
      "Ġnice": 1206,
      "hy": 1207,
      "ving": 1208,
      "Ġshu": 1209,
      "Ġnjia": 1210,
      "himu": 1211,
      "umba": 1212,
      "Ġut": 1213,
      "yote": 1214,
      "Ġhuyo": 1215,
      "Ġdi": 1216,
      "Ġwenye": 1217,
      "Ġsma": 1218,
      "ough": 1219,
      "gon": 1220,
      "lamu": 1221,
      "chagu": 1222,
      "Ġlong": 1223,
      "ane": 1224,
      "kam": 1225,
      "Ġsk": 1226,
      "Ġmiaka": 1227,
      "Ġshi": 1228,
      "Ġch": 1229,
      "pita": 1230,
      "Ġambaye": 1231,
      "ars": 1232,
      "nchi": 1233,
      "Ġkupata": 1234,
      "ongeza": 1235,
      "Ġmmoja": 1236,
      "Ġuj": 1237,
      "Ġajili": 1238,
      "Ġeven": 1239,
      "sili": 1240,
      "imal": 1241,
      "'m": 1242,
      "adi": 1243,
      "Ġkwanza": 1244,
      "Ġcol": 1245,
      "Ġunt": 1246,
      "eno": 1247,
      "Ġum": 1248,
      "Ġanimal": 1249,
      "Wa": 1250,
      "Ġoff": 1251,
      "ĠSerikali": 1252,
      "Ġwata": 1253,
      "lea": 1254,
      "itia": 1255,
      "Ġtry": 1256,
      "lewa": 1257,
      "ĠAnd": 1258,
      "Ġmad": 1259,
      "AN": 1260,
      "Ġby": 1261,
      "amba": 1262,
      "ĠKa": 1263,
      "shara": 1264,
      "ĠJack": 1265,
      "Ġstr": 1266,
      "Ġuntil": 1267,
      "Ġkuku": 1268,
      "Ġhadi": 1269,
      "He": 1270,
      "Ġkina": 1271,
      "bad": 1272,
      "Ġmambo": 1273,
      "uzi": 1274,
      "Ġke": 1275,
      "mbali": 1276,
      "Ġbear": 1277,
      "Ġbila": 1278,
      "Ġsmall": 1279,
      "rp": 1280,
      "Ġlove": 1281,
      "int": 1282,
      "Ġserikali": 1283,
      "sia": 1284,
      "Ø§": 1285,
      "edha": 1286,
      "Ġlearned": 1287,
      "Ġend": 1288,
      "weka": 1289,
      "Ġhaku": 1290,
      "ning": 1291,
      "Ġhili": 1292,
      "Ġbetter": 1293,
      "arifa": 1294,
      "ves": 1295,
      "Kwa": 1296,
      "Ġfeel": 1297,
      "koa": 1298,
      "ony": 1299,
      "badili": 1300,
      "Ġkind": 1301,
      "Ġhaya": 1302,
      "kani": 1303,
      "oy": 1304,
      "faa": 1305,
      "Ġhapa": 1306,
      "rent": 1307,
      "Ġhuku": 1308,
      "amii": 1309,
      "engo": 1310,
      "Ġwengi": 1311,
      "Ġflow": 1312,
      "oke": 1313,
      "ct": 1314,
      "Ġbest": 1315,
      "ĠMia": 1316,
      "ambu": 1317,
      "zu": 1318,
      "Ġ-": 1319,
      "ream": 1320,
      "Ġkuu": 1321,
      "Ġbea": 1322,
      "Ġcle": 1323,
      "endo": 1324,
      "ĠLu": 1325,
      "Ġlina": 1326,
      "ĠSu": 1327,
      "so": 1328,
      "Ġzao": 1329,
      "Ġsay": 1330,
      "ango": 1331,
      "Ġalikuwa": 1332,
      "limu": 1333,
      "eshi": 1334,
      "Ġambapo": 1335,
      "ĠHer": 1336,
      "Ġbra": 1337,
      "arden": 1338,
      "ribu": 1339,
      "Ġtre": 1340,
      "umi": 1341,
      "Yes": 1342,
      "Ġdon": 1343,
      "fasi": 1344,
      "Ġfast": 1345,
      "Ġgarden": 1346,
      "Ġsky": 1347,
      "lew": 1348,
      "ÙĦ": 1349,
      "hitaji": 1350,
      "Ġthanked": 1351,
      "Ġsmi": 1352,
      "Ġmbalimbali": 1353,
      "Ġcareful": 1354,
      "zed": 1355,
      "ombe": 1356,
      "fiki": 1357,
      "Ġund": 1358,
      "Ġlaug": 1359,
      "Ġlaughed": 1360,
      "Ġusa": 1361,
      "ĠHis": 1362,
      "Ġkili": 1363,
      "eti": 1364,
      "Ġwengine": 1365,
      "Ġhizo": 1366,
      "Ġama": 1367,
      "self": 1368,
      "Ġngu": 1369,
      "ataifa": 1370,
      "je": 1371,
      "Ġhatua": 1372,
      "umb": 1373,
      "co": 1374,
      "Ġjump": 1375,
      "Ġaliye": 1376,
      "lama": 1377,
      "Ġrea": 1378,
      "Ġvile": 1379,
      "Ġchini": 1380,
      "Ġleo": 1381,
      "Ġmeng": 1382,
      "ons": 1383,
      "futa": 1384,
      "Ġloud": 1385,
      "Ġlots": 1386,
      "Ġyetu": 1387,
      "jua": 1388,
      "Ġbeauti": 1389,
      "ĠHi": 1390,
      "Ġhaki": 1391,
      "inga": 1392,
      "Åĵ": 1393,
      "enzi": 1394,
      "Ġkutoa": 1395,
      "Ġsafe": 1396,
      "Ġmaana": 1397,
      "Ġbeautiful": 1398,
      "ĠRais": 1399,
      "It": 1400,
      "Ġnyingi": 1401,
      "ĠAli": 1402,
      "Ġcome": 1403,
      "Ġun": 1404,
      "Ġkushi": 1405,
      "Ġkis": 1406,
      "Ġhao": 1407,
      "Ġstill": 1408,
      "Ġhard": 1409,
      "Ġru": 1410,
      ").": 1411,
      "idha": 1412,
      "Ġsli": 1413,
      "Ġkim": 1414,
      "ur": 1415,
      "wn": 1416,
      "wili": 1417,
      "jwa": 1418,
      "Ġlist": 1419,
      "yu": 1420,
      "eople": 1421,
      "Ġkui": 1422,
      "Ġwananchi": 1423,
      "Ġnafasi": 1424,
      "Ġanimals": 1425,
      "Ġhivi": 1426,
      "Ġsehemu": 1427,
      "Ġkutokana": 1428,
      "Ġqui": 1429,
      "ĠMkuu": 1430,
      "kio": 1431,
      "ĠThen": 1432,
      "Ġlisten": 1433,
      "Ġmis": 1434,
      "Ġchi": 1435,
      "no": 1436,
      "kiti": 1437,
      "ice": 1438,
      "shwa": 1439,
      "Ġyote": 1440,
      "Ġhas": 1441,
      "ĠFrom": 1442,
      "ĠAl": 1443,
      "ris": 1444,
      "Ġhurt": 1445,
      "Ġway": 1446,
      "Ġlili": 1447,
      "Ġzote": 1448,
      "amini": 1449,
      "),": 1450,
      "Ġstay": 1451,
      "led": 1452,
      "saidia": 1453,
      "Ġtru": 1454,
      "oro": 1455,
      "Ġang": 1456,
      "Na": 1457,
      "Ġcon": 1458,
      "Ġpeople": 1459,
      "Ġamesema": 1460,
      "Ġhud": 1461,
      "Ġnili": 1462,
      "ĠÃ¢": 1463,
      "Ġits": 1464,
      "umbe": 1465,
      "You": 1466,
      "Ġkupitia": 1467,
      "Ġred": 1468,
      "Ġtwo": 1469,
      "Ġboth": 1470,
      "Ġnyingine": 1471,
      "kata": 1472,
      "wala": 1473,
      "Ġwako": 1474,
      "Ġread": 1475,
      "Ġmuhimu": 1476,
      "Ġata": 1477,
      "chezo": 1478,
      "Ġmta": 1479,
      "Ġlea": 1480,
      "Ġnod": 1481,
      "Ġlived": 1482,
      "uala": 1483,
      "Ġimp": 1484,
      "enga": 1485,
      "fsi": 1486,
      "zing": 1487,
      "Ġhuduma": 1488,
      "Ġeneo": 1489,
      "kay": 1490,
      "Ġfamily": 1491,
      "Ġbrave": 1492,
      "Ku": 1493,
      "Ġkabisa": 1494,
      "Ġak": 1495,
      "jia": 1496,
      "Ġkuta": 1497,
      "hank": 1498,
      "Ġlet": 1499,
      "jibu": 1500,
      "Ġmaka": 1501,
      "ff": 1502,
      "Ġkweli": 1503,
      "atia": 1504,
      "Ġbado": 1505,
      "ĠLa": 1506,
      "Ġbook": 1507,
      "toa": 1508,
      "Ġbri": 1509,
      "When": 1510,
      "atibu": 1511,
      "weze": 1512,
      "Ġflew": 1513,
      "Ġ5": 1514,
      "atizo": 1515,
      "inu": 1516,
      "Ġkia": 1517,
      "Tim": 1518,
      "Ġmaj": 1519,
      "Ġsurp": 1520,
      "fore": 1521,
      "Ġfore": 1522,
      "Ġshould": 1523,
      "ndo": 1524,
      "ept": 1525,
      "lan": 1526,
      "Ġfedha": 1527,
      "shauri": 1528,
      "lie": 1529,
      "Ġwalked": 1530,
      "Ġsoon": 1531,
      "Ġ4": 1532,
      "Ġmap": 1533,
      "ato": 1534,
      "xt": 1535,
      "paka": 1536,
      "inge": 1537,
      "ished": 1538,
      "Ġwaka": 1539,
      "Ġcalled": 1540,
      "Ġwatoto": 1541,
      "Ġinayo": 1542,
      "Ġwanao": 1543,
      "sta": 1544,
      "Ġkept": 1545,
      "bisha": 1546,
      "ress": 1547,
      "kon": 1548,
      "Ġnini": 1549,
      "Ġhapo": 1550,
      "ĠMo": 1551,
      "unga": 1552,
      "Ġangry": 1553,
      "lue": 1554,
      "ete": 1555,
      "ĠCha": 1556,
      "Ġpic": 1557,
      "swa": 1558,
      "kuru": 1559,
      "ilioni": 1560,
      "per": 1561,
      "haki": 1562,
      "ghu": 1563,
      "Ġfly": 1564,
      "Ġtra": 1565,
      "chukua": 1566,
      "Ġasili": 1567,
      "fuata": 1568,
      "ded": 1569,
      "fani": 1570,
      "Ġtur": 1571,
      "ĠWhen": 1572,
      "ingia": 1573,
      "iashara": 1574,
      "lls": 1575,
      "Ġkutumia": 1576,
      "esa": 1577,
      "Ġsurpri": 1578,
      "Ġkita": 1579,
      "Ġbasi": 1580,
      "Ġes": 1581,
      "ende": 1582,
      "Ġhai": 1583,
      "Ġtena": 1584,
      "man": 1585,
      "Ġshare": 1586,
      "ibu": 1587,
      "Ġhat": 1588,
      "va": 1589,
      "Ġ19": 1590,
      "Ġgoing": 1591,
      "penda": 1592,
      "Ġnje": 1593,
      "yari": 1594,
      "ĠMi": 1595,
      "kut": 1596,
      "fauti": 1597,
      "Let": 1598,
      "Ġambazo": 1599,
      "Ġzake": 1600,
      "Ġkeep": 1601,
      "Ġtaarifa": 1602,
      "Ġwaki": 1603,
      "kari": 1604,
      "Ġnow": 1605,
      "ries": 1606,
      "fanyika": 1607,
      "Ġclean": 1608,
      "Ġbefore": 1609,
      "Ġchu": 1610,
      "eling": 1611,
      "Ġdoor": 1612,
      "Ġadven": 1613,
      "Ġmag": 1614,
      "umia": 1615,
      "tty": 1616,
      "endeleo": 1617,
      "ĠNi": 1618,
      "lore": 1619,
      "Ġcli": 1620,
      "ummy": 1621,
      "red": 1622,
      "eneo": 1623,
      "Ġbina": 1624,
      "Ġmt": 1625,
      "Ġopened": 1626,
      "shu": 1627,
      "Ġwind": 1628,
      "illy": 1629,
      "Ġdra": 1630,
      "yes": 1631,
      "Ġwale": 1632,
      "Ġikiwa": 1633,
      "Ha": 1634,
      "rm": 1635,
      "kele": 1636,
      "ghuli": 1637,
      "ath": 1638,
      "Ġblo": 1639,
      "Ġpretty": 1640,
      "Ġfeeling": 1641,
      "Ġshiny": 1642,
      "Ġide": 1643,
      "era": 1644,
      "Ben": 1645,
      "Ġexplore": 1646,
      "Ġnoise": 1647,
      "Ġbora": 1648,
      "Ġfar": 1649,
      "Ġcl": 1650,
      "ĠJohn": 1651,
      "Ġcry": 1652,
      "Ġground": 1653,
      "onekana": 1654,
      ".âĢĿ": 1655,
      "Ġnguvu": 1656,
      "ota": 1657,
      "she": 1658,
      "Ġkabla": 1659,
      "Ġwetu": 1660,
      "No": 1661,
      "We": 1662,
      "ĠAfrika": 1663,
      "fum": 1664,
      "Ġac": 1665,
      "Ġalso": 1666,
      "So": 1667,
      "Ġzilizo": 1668,
      "kubali": 1669,
      "Ġdhidi": 1670,
      "Ġbaadhi": 1671,
      "Ġcho": 1672,
      "ty": 1673,
      "Ġulio": 1674,
      "Ġhappen": 1675,
      "ci": 1676,
      "Ġsheria": 1677,
      "Ġcolor": 1678,
      "nde": 1679,
      "ÙĲ": 1680,
      "ndwa": 1681,
      "us": 1682,
      "Ġidea": 1683,
      "thing": 1684,
      "Ġndio": 1685,
      "What": 1686,
      "fikia": 1687,
      "ped": 1688,
      "baya": 1689,
      "âĦ": 1690,
      "Ġjambo": 1691,
      "enya": 1692,
      "radi": 1693,
      "âĦ¢": 1694,
      "Ġnext": 1695,
      "Ġmaeneo": 1696,
      "Ġkua": 1697,
      "âĤ¬âĦ¢": 1698,
      "ting": 1699,
      "rog": 1700,
      ",âĢĿ": 1701,
      "Ġyangu": 1702,
      "Ġuka": 1703,
      "Ġsmile": 1704,
      "Ġwalking": 1705,
      "Ġhicho": 1706,
      "20": 1707,
      "ondo": 1708,
      "Ġwhile": 1709,
      "onyesha": 1710,
      "Ġpicked": 1711,
      "ombo": 1712,
      "Ali": 1713,
      "imba": 1714,
      "uka": 1715,
      "Ġmpya": 1716,
      "Ġmbili": 1717,
      "rekani": 1718,
      "Ġtofauti": 1719,
      "omo": 1720,
      "ilaya": 1721,
      "Ġcra": 1722,
      "Ġadventure": 1723,
      "Ġclimb": 1724,
      "imbo": 1725,
      "Ġhuko": 1726,
      "Ġbed": 1727,
      "ĠLucy": 1728,
      "That": 1729,
      "Ġthr": 1730,
      "Ba": 1731,
      "Ġhizi": 1732,
      "puni": 1733,
      "Ġusi": 1734,
      "wango": 1735,
      "chaguzi": 1736,
      "Ġaina": 1737,
      "bar": 1738,
      "Ġyenye": 1739,
      "ĠWaziri": 1740,
      "Ġbiashara": 1741,
      "Ġmkubwa": 1742,
      "ser": 1743,
      "kula": 1744,
      "Mheshimiwa": 1745,
      "Ġmcha": 1746,
      "ffe": 1747,
      "Ġlake": 1748,
      "ory": 1749,
      "Ġapp": 1750,
      "Ġzinazo": 1751,
      "ĠWi": 1752,
      "000": 1753,
      "She": 1754,
      "WA": 1755,
      "ĠDad": 1756,
      "nzo": 1757,
      "hisi": 1758,
      "Ġbeing": 1759,
      "joy": 1760,
      "Ġnodded": 1761,
      "Ġushi": 1762,
      "aru": 1763,
      "fano": 1764,
      "ĠTu": 1765,
      "Ġtou": 1766,
      "Ġlazima": 1767,
      "Ġgive": 1768,
      "Ġyeye": 1769,
      "Ġpicture": 1770,
      "mia": 1771,
      "waida": 1772,
      "Ġwr": 1773,
      "islamu": 1774,
      "Ġbar": 1775,
      "ĠMwa": 1776,
      "HA": 1777,
      "Ġrep": 1778,
      "gonjwa": 1779,
      "any": 1780,
      "ĠâĢĺ": 1781,
      "memb": 1782,
      "Ġfood": 1783,
      "hiri": 1784,
      "ĠDar": 1785,
      "Ġbara": 1786,
      "Ġkwenda": 1787,
      "irst": 1788,
      "ĠÙ": 1789,
      "by": 1790,
      "Ġdha": 1791,
      "insi": 1792,
      "har": 1793,
      "ist": 1794,
      "Ġmasha": 1795,
      "Ġakiwa": 1796,
      "ĠIn": 1797,
      "Ġkwani": 1798,
      "Ġunaweza": 1799,
      "Ġwait": 1800,
      "Ġafter": 1801,
      "th": 1802,
      "Ġthink": 1803,
      "lisi": 1804,
      "Ġwewe": 1805,
      "Ġlooking": 1806,
      "Ġkiasi": 1807,
      "pindi": 1808,
      "wahi": 1809,
      "||": 1810,
      "Thank": 1811,
      "Ġbre": 1812,
      "uck": 1813,
      "Ġeyes": 1814,
      "esi": 1815,
      "unia": 1816,
      "Ġstopped": 1817,
      "MA": 1818,
      "kuta": 1819,
      "zia": 1820,
      "Ġnam": 1821,
      "rehe": 1822,
      "Ġgreat": 1823,
      "anzi": 1824,
      "ĠØ": 1825,
      "LI": 1826,
      "ect": 1827,
      "cket": 1828,
      "Ġkawaida": 1829,
      "Ġrememb": 1830,
      "Ġever": 1831,
      "vy": 1832,
      "adha": 1833,
      "fungu": 1834,
      "Ġtal": 1835,
      "ined": 1836,
      "Ġvita": 1837,
      "ande": 1838,
      "Ġenjoy": 1839,
      "Ġwak": 1840,
      "ÙĴ": 1841,
      "Ġnotic": 1842,
      "hus": 1843,
      "ks": 1844,
      "Ġlau": 1845,
      "Ġuwezo": 1846,
      "Ġquick": 1847,
      "ĠSuddenly": 1848,
      "Ġown": 1849,
      "ĠAs": 1850,
      "laam": 1851,
      "Hi": 1852,
      "Ġwond": 1853,
      "Ġnoticed": 1854,
      "Ġkuka": 1855,
      "Ġwala": 1856,
      "Ġblue": 1857,
      "Ġhakuna": 1858,
      "ugu": 1859,
      "buni": 1860,
      "bbit": 1861,
      "Ġforest": 1862,
      "Ġfur": 1863,
      "amani": 1864,
      "Ġhands": 1865,
      "Ġfish": 1866,
      "Ġdeli": 1867,
      "Ġuse": 1868,
      "ood": 1869,
      "ook": 1870,
      "Suddenly": 1871,
      "Ġupande": 1872,
      "atikana": 1873,
      "anya": 1874,
      "Ġflowers": 1875,
      "Ġyo": 1876,
      "Ġmbele": 1877,
      "Ġje": 1878,
      "kta": 1879,
      "fumo": 1880,
      "ollow": 1881,
      "ĠMwenyekiti": 1882,
      "Ġimport": 1883,
      "ca": 1884,
      "hud": 1885,
      "Ġchama": 1886,
      "Ġvizuri": 1887,
      "Ġshout": 1888,
      "kutano": 1889,
      "Ġgla": 1890,
      "Ġnear": 1891,
      "dha": 1892,
      "Ġmali": 1893,
      "keza": 1894,
      "tume": 1895,
      "Ġeveryone": 1896,
      "iasa": 1897,
      "Ġmean": 1898,
      "zungumza": 1899,
      "Ġhasa": 1900,
      "day": 1901,
      "Ġda": 1902,
      "Ġhead": 1903,
      "Ġright": 1904,
      "Ġmwisho": 1905,
      "fadhi": 1906,
      "Ġfirst": 1907,
      "zoe": 1908,
      "ĠSp": 1909,
      "husi": 1910,
      "bye": 1911,
      "kweli": 1912,
      "wake": 1913,
      "Ġjamii": 1914,
      "Ġsound": 1915,
      "enu": 1916,
      "Ġstrong": 1917,
      "Ġour": 1918,
      "Ġuchu": 1919,
      "Ġviongozi": 1920,
      "Ġslide": 1921,
      "Ġrabbit": 1922,
      "adili": 1923,
      "Ġshowed": 1924,
      "Ġtayari": 1925,
      "Ġkusa": 1926,
      "nya": 1927,
      "Ġimportant": 1928,
      "Ġmkuu": 1929,
      "Ġwork": 1930,
      "ju": 1931,
      "kono": 1932,
      "Ġvo": 1933,
      "bbed": 1934,
      "Ġtruck": 1935,
      "ation": 1936,
      "Ġwatch": 1937,
      "lease": 1938,
      "Ġbeen": 1939,
      "ren": 1940,
      "mbe": 1941,
      "Ġdiffe": 1942,
      "lied": 1943,
      "Ġrain": 1944,
      "Ġmpaka": 1945,
      "ward": 1946,
      "eleza": 1947,
      "engene": 1948,
      "Ġkute": 1949,
      "Ġtimu": 1950,
      "Ġmawa": 1951,
      "fika": 1952,
      "ment": 1953,
      "Ġreali": 1954,
      "Ġstu": 1955,
      "Ùı": 1956,
      "Ġfollow": 1957,
      "ĠMarekani": 1958,
      "Ġquickly": 1959,
      "Ġwatched": 1960,
      "ps": 1961,
      "Jo": 1962,
      "âĢ¦": 1963,
      "CM": 1964,
      "Ġbit": 1965,
      "ishe": 1966,
      "Ġwhere": 1967,
      "pokuwa": 1968,
      "risto": 1969,
      "Ġgani": 1970,
      "Ġsure": 1971,
      "vuti": 1972,
      "Ġreplied": 1973,
      "Ġface": 1974,
      "Ġsti": 1975,
      "Ġswe": 1976,
      "Ġokay": 1977,
      "amo": 1978,
      "Ġpale": 1979,
      "Ġmor": 1980,
      "Ġplace": 1981,
      "Ġchild": 1982,
      "Ġboat": 1983,
      "Ġkufu": 1984,
      "kuja": 1985,
      "Ġjinsi": 1986,
      "Ġwasi": 1987,
      "Ġilikuwa": 1988,
      "Ġmwili": 1989,
      "Ġiki": 1990,
      "Ġstore": 1991,
      "wali": 1992,
      "Ġvitu": 1993,
      "Ġlaugh": 1994,
      "bara": 1995,
      "hakikisha": 1996,
      "Ġhigh": 1997,
      "zazi": 1998,
      "ild": 1999,
      "Ġti": 2000,
      "imes": 2001,
      "Ġdan": 2002,
      "ins": 2003,
      "Ġgoodbye": 2004,
      "Ġvina": 2005,
      "ĠDo": 2006,
      "Af": 2007,
      "mw": 2008,
      "ran": 2009,
      "Ġvy": 2010,
      "kosa": 2011,
      "bili": 2012,
      "Ġkipindi": 2013,
      "Ġdoes": 2014,
      "ĠSpot": 2015,
      "Ġdifferent": 2016,
      "kama": 2017,
      "paswa": 2018,
      "Ġdress": 2019,
      "Ġcla": 2020,
      "bunge": 2021,
      "Ġvoice": 2022,
      "kika": 2023,
      "Ġbecame": 2024,
      "ĠRo": 2025,
      "Katika": 2026,
      "piga": 2027,
      "mali": 2028,
      "Ġmna": 2029,
      "Ġjo": 2030,
      "lisha": 2031,
      "refu": 2032,
      "ten": 2033,
      "Ġcou": 2034,
      "Ġcuri": 2035,
      "Ġyu": 2036,
      "Anna": 2037,
      "zingi": 2038,
      "Ġwarm": 2039,
      "funzi": 2040,
      "risha": 2041,
      "Ġbright": 2042,
      "Ġcake": 2043,
      "ĠMommy": 2044,
      "zingira": 2045,
      "Ġtuli": 2046,
      "Ġcloser": 2047,
      "Ġsio": 2048,
      "Ġkaribu": 2049,
      "ÙĨ": 2050,
      "aybe": 2051,
      "kee": 2052,
      "orn": 2053,
      "ĠKam": 2054,
      "ĠSue": 2055,
      "reza": 2056,
      "chang": 2057,
      "ired": 2058,
      "uniani": 2059,
      "Ġmwingine": 2060,
      "Ġ6": 2061,
      "zani": 2062,
      "Ġper": 2063,
      "Look": 2064,
      "Ġndiyo": 2065,
      "leep": 2066,
      "odi": 2067,
      "ndma": 2068,
      "Ġwalk": 2069,
      "gan": 2070,
      "zara": 2071,
      "Ġnight": 2072,
      "Ġuchaguzi": 2073,
      "Ġsimu": 2074,
      "tion": 2075,
      "Sara": 2076,
      "wanja": 2077,
      "stle": 2078,
      "Ġcurious": 2079,
      "ndao": 2080,
      "more": 2081,
      "Ġthree": 2082,
      "Ġfav": 2083,
      "anisha": 2084,
      "Ġtatu": 2085,
      "esu": 2086,
      "Ġyoyote": 2087,
      "Ġyaliyo": 2088,
      "ary": 2089,
      "Ġwam": 2090,
      "Ġhere": 2091,
      "Ġmaneno": 2092,
      "Ġwazi": 2093,
      "Ġelimu": 2094,
      "Ġnamna": 2095,
      "ster": 2096,
      "Ġflo": 2097,
      "Ġanymore": 2098,
      "Ġmon": 2099,
      "ugha": 2100,
      "huru": 2101,
      "ĠKenya": 2102,
      "ange": 2103,
      "Ġkij": 2104,
      "ĠBob": 2105,
      "Ġmimi": 2106,
      "Ġpili": 2107,
      "chen": 2108,
      "Ġmtoto": 2109,
      "Ġonly": 2110,
      "Her": 2111,
      "Ġkuongeza": 2112,
      "Ġcont": 2113,
      "hamu": 2114,
      "ĠJu": 2115,
      "Ġkusema": 2116,
      "Ġmaendeleo": 2117,
      "mea": 2118,
      "Ġkile": 2119,
      "Ġjina": 2120,
      "lah": 2121,
      "Ġmwezi": 2122,
      "erful": 2123,
      "dai": 2124,
      "ĠYa": 2125,
      "Ġgrabbed": 2126,
      "Ġile": 2127,
      "ger": 2128,
      "Ġmar": 2129,
      "ambia": 2130,
      "anzibar": 2131,
      "Ġmaa": 2132,
      "kazi": 2133,
      "Ġafya": 2134,
      "Ġbutter": 2135,
      "penzi": 2136,
      "Ġfin": 2137,
      "Ġsand": 2138,
      "Ġdoll": 2139,
      "ĠSalaam": 2140,
      "\".": 2141,
      "ĠYesu": 2142,
      "okeo": 2143,
      "kumbu": 2144,
      "ĠPo": 2145,
      "pu": 2146,
      "Ġkuanz": 2147,
      "ste": 2148,
      "amia": 2149,
      "ĠMwenyezi": 2150,
      "Ġsuala": 2151,
      "Ġmengi": 2152,
      "Ġvit": 2153,
      "Ġmfano": 2154,
      "Ġkule": 2155,
      "ĠâĢĵ": 2156,
      "lani": 2157,
      "ĠLakini": 2158,
      "Ġid": 2159,
      "gs": 2160,
      "Can": 2161,
      "Ġdro": 2162,
      "Ġhelped": 2163,
      "ĠWana": 2164,
      "Ġkitchen": 2165,
      "Ġwanawake": 2166,
      "umizi": 2167,
      "Ġwalikuwa": 2168,
      "RI": 2169,
      "Ġambalo": 2170,
      "chezaji": 2171,
      "ppy": 2172,
      "ĠJane": 2173,
      "Ġsing": 2174,
      "Ġfell": 2175,
      "com": 2176,
      "unny": 2177,
      "ĠWA": 2178,
      "Ġjana": 2179,
      "ĠMtume": 2180,
      "Ġnzuri": 2181,
      "Ġbirds": 2182,
      "jiri": 2183,
      "ĠTaifa": 2184,
      "Ġnyumba": 2185,
      "pokea": 2186,
      "zy": 2187,
      "Ġhappened": 2188,
      "Ġjumped": 2189,
      "lala": 2190,
      "amua": 2191,
      "oo": 2192,
      "uku": 2193,
      "ĠMheshimiwa": 2194,
      "Ġcoo": 2195,
      "ĠDk": 2196,
      "Ġsna": 2197,
      "Ġgrass": 2198,
      "ather": 2199,
      "Ġglad": 2200,
      "ĠLi": 2201,
      "Ġkura": 2202,
      "Ġ,": 2203,
      "ĠKama": 2204,
      "Ġ200": 2205,
      "pele": 2206,
      "Ġthrough": 2207,
      "umla": 2208,
      "babisha": 2209,
      "ĠEveryone": 2210,
      "hati": 2211,
      "hara": 2212,
      "itisha": 2213,
      "Ġasilimia": 2214,
      "Ġkuona": 2215,
      "Ġmum": 2216,
      "Ġmsingi": 2217,
      "uto": 2218,
      "Ġsisi": 2219,
      "Ġmsa": 2220,
      "adala": 2221,
      "Ġlugha": 2222,
      "Ġgame": 2223,
      "As": 2224,
      "Ġcre": 2225,
      "Ġstory": 2226,
      "Ġhara": 2227,
      "Ġfire": 2228,
      "Ġnya": 2229,
      "Ġ10": 2230,
      "rel": 2231,
      "ĠZanzibar": 2232,
      "TA": 2233,
      "Ġbrother": 2234,
      "Ġukweli": 2235,
      "amb": 2236,
      "ĠSarah": 2237,
      "ĠVi": 2238,
      "Ġkuliko": 2239,
      "After": 2240,
      "shed": 2241,
      "wepo": 2242,
      "Ġreached": 2243,
      "Ġduniani": 2244,
      "Ġkuhakikisha": 2245,
      "Ġstick": 2246,
      "Ġwangu": 2247,
      "ĠYA": 2248,
      "Ġsawa": 2249,
      "Ġrock": 2250,
      "Ġmwanadamu": 2251,
      "hariri": 2252,
      "zea": 2253,
      "ced": 2254,
      "ĠSpika": 2255,
      "ege": 2256,
      "Ġhaving": 2257,
      "Ġzime": 2258,
      "Ġate": 2259,
      "ught": 2260,
      "laka": 2261,
      "KA": 2262,
      "Ġkwake": 2263,
      "mke": 2264,
      "Ġrealized": 2265,
      "amuzi": 2266,
      "biti": 2267,
      "Ġsees": 2268,
      "Ġsoft": 2269,
      "Ġpret": 2270,
      "Ġmengine": 2271,
      "Ġyummy": 2272,
      "Ġja": 2273,
      "Ġunder": 2274,
      "mer": 2275,
      "Ġworld": 2276,
      "Ġready": 2277,
      "Ġshouted": 2278,
      "ĠLet": 2279,
      "where": 2280,
      "ingereza": 2281,
      "Ġsqu": 2282,
      "Ġlady": 2283,
      "Ġel": 2284,
      "pote": 2285,
      "Ġshule": 2286,
      "Ġanaye": 2287,
      "kw": 2288,
      "ĠJe": 2289,
      "Ġunders": 2290,
      "Ġdraw": 2291,
      "chuku": 2292,
      "Ġkika": 2293,
      "Ùħ": 2294,
      "Ġreally": 2295,
      "Ġ7": 2296,
      "itwa": 2297,
      "Ġkiwango": 2298,
      "ĠCCM": 2299,
      "Ġmazingira": 2300,
      "Ġsit": 2301,
      "Ġnina": 2302,
      "oney": 2303,
      "Ġpick": 2304,
      "ĠWat": 2305,
      "Ġbegan": 2306,
      "umbani": 2307,
      "Ġfavor": 2308,
      "Ġste": 2309,
      "Ġkuja": 2310,
      "toria": 2311,
      "Ġless": 2312,
      "Ġkan": 2313,
      "ĠKatika": 2314,
      "Ġparent": 2315,
      "Ġthing": 2316,
      "Ġchang": 2317,
      "Ġprom": 2318,
      "Ġdone": 2319,
      "Ġmagic": 2320,
      "asisi": 2321,
      "Ġlearn": 2322,
      "Ġmita": 2323,
      "Ġmwenyewe": 2324,
      "Ġfavorite": 2325,
      "hind": 2326,
      "spita": 2327,
      "wanda": 2328,
      "funga": 2329,
      "Ġyanayo": 2330,
      "'re": 2331,
      "ee": 2332,
      "Ġmko": 2333,
      "Ġhimself": 2334,
      "mp": 2335,
      "Ġpicha": 2336,
      "Ġtired": 2337,
      "ear": 2338,
      "nge": 2339,
      "Ġhuwa": 2340,
      "Ġvijana": 2341,
      "Ġag": 2342,
      "zeka": 2343,
      "Ġkadha": 2344,
      "Ġmaking": 2345,
      "kim": 2346,
      "ĠJoe": 2347,
      "Ġwhy": 2348,
      "idhaa": 2349,
      "Hel": 2350,
      "ongoni": 2351,
      "wani": 2352,
      "Ġsn": 2353,
      "Ġhot": 2354,
      "ĠSi": 2355,
      "fully": 2356,
      "Ġwaved": 2357,
      "Ġused": 2358,
      "arufu": 2359,
      "sim": 2360,
      "Ġpretend": 2361,
      "ÙĬ": 2362,
      "Ja": 2363,
      "Ġcoming": 2364,
      "ĠRe": 2365,
      "Ġtume": 2366,
      "ĠBara": 2367,
      "Ġmkono": 2368,
      "for": 2369,
      "ĠCan": 2370,
      "Ġmfumo": 2371,
      "ces": 2372,
      "Ġmilioni": 2373,
      "Ġuha": 2374,
      "John": 2375,
      "Ġfix": 2376,
      "ĠThat": 2377,
      "Ġkids": 2378,
      "Ġisi": 2379,
      "Ġcut": 2380,
      "hihi": 2381,
      "Ġmaha": 2382,
      "Ġname": 2383,
      "rahi": 2384,
      "aratibu": 2385,
      "Ġmaal": 2386,
      "Ġmama": 2387,
      "Ġpond": 2388,
      "Ġ8": 2389,
      "Ġpart": 2390,
      "Ġseen": 2391,
      "husiano": 2392,
      "Ġtaifa": 2393,
      "Ġlooks": 2394,
      "Ġfill": 2395,
      "Ġstop": 2396,
      "kufu": 2397,
      "Ġbutterf": 2398,
      "Ġmatokeo": 2399,
      "Mommy": 2400,
      "Ġcatch": 2401,
      "Ġambacho": 2402,
      "zuia": 2403,
      "Ġyears": 2404,
      "Ġkuele": 2405,
      "katifu": 2406,
      "Ġanother": 2407,
      "Ġbunny": 2408,
      "huri": 2409,
      "ott": 2410,
      "Ġcooki": 2411,
      "sho": 2412,
      "La": 2413,
      "hudi": 2414,
      "Ġworry": 2415,
      "....": 2416,
      "NG": 2417,
      "Ġtouch": 2418,
      "Tu": 2419,
      "Ġpl": 2420,
      "Ġfunny": 2421,
      "Ø§ÙĦ": 2422,
      "Ġtangu": 2423,
      "endaji": 2424,
      "Ġinaweza": 2425,
      "Ġbi": 2426,
      "Ġcu": 2427,
      "llow": 2428,
      "Ġmka": 2429,
      "Ġflower": 2430,
      "Ġpro": 2431,
      "ms": 2432,
      "Ġmjini": 2433,
      "Ġtop": 2434,
      "Ġfamilia": 2435,
      "Ġdunia": 2436,
      "Ġkampuni": 2437,
      "kamili": 2438,
      "Ġshughuli": 2439,
      "wemo": 2440,
      "Ġmouse": 2441,
      "fahamu": 2442,
      "row": 2443,
      "patikana": 2444,
      "Ġcars": 2445,
      "Ġhair": 2446,
      "nzi": 2447,
      "Ġkidogo": 2448,
      "cheza": 2449,
      "Su": 2450,
      "Ġparents": 2451,
      "Ġgu": 2452,
      "Wow": 2453,
      "angalia": 2454,
      "amlaka": 2455,
      "Ġfulani": 2456,
      "du": 2457,
      "Ġbali": 2458,
      "Ġturn": 2459,
      "fo": 2460,
      "Ġswim": 2461,
      "oun": 2462,
      "Ġfull": 2463,
      "Ġdis": 2464,
      "kundi": 2465,
      "ĠBwana": 2466,
      "Ġnaye": 2467,
      "ĠRa": 2468,
      "geni": 2469,
      "ĠWhat": 2470,
      "fung": 2471,
      "ity": 2472,
      "Ġtatizo": 2473,
      "Ġdri": 2474,
      "rew": 2475,
      "ĠUmoja": 2476,
      "Ġgreen": 2477,
      "inzani": 2478,
      "cess": 2479,
      "Ġnyumbani": 2480,
      "Ġhold": 2481,
      "Ġlime": 2482,
      "Ġsme": 2483,
      "ese": 2484,
      "ĠMA": 2485,
      "Ġmakubwa": 2486,
      "Ġsurprise": 2487,
      "Sam": 2488,
      "zee": 2489,
      "Ġworked": 2490,
      "Ġmchezo": 2491,
      "Ni": 2492,
      "Ġhopped": 2493,
      "Ġmess": 2494,
      "Ġcried": 2495,
      "Ġsweet": 2496,
      "Ġlight": 2497,
      "Ġtarehe": 2498,
      "Ġng": 2499,
      "ĠAb": 2500,
      "hirika": 2501,
      "Ġbehind": 2502,
      "Timmy": 2503,
      "Ġchakula": 2504,
      "ĠChi": 2505,
      "Don": 2506,
      "Ġnime": 2507,
      "Ġmatumizi": 2508,
      "takiwa": 2509,
      "Ġset": 2510,
      "Ġtri": 2511,
      "Ġtr": 2512,
      "pewa": 2513,
      "Ġclose": 2514,
      "wez": 2515,
      "Ġkuendelea": 2516,
      "Ġmit": 2517,
      "Ġunao": 2518,
      "Ġfloor": 2519,
      "Ġblocks": 2520,
      "Ġdin": 2521,
      "Ġnao": 2522,
      "Ġdoing": 2523,
      "amoto": 2524,
      "ĠHu": 2525,
      "Ġrunning": 2526,
      "Ġwindow": 2527,
      "Ġmoyo": 2528,
      "tani": 2529,
      "Ġkadhaa": 2530,
      "mwa": 2531,
      "ĠEm": 2532,
      "Ġtrees": 2533,
      "Ġuki": 2534,
      "Ġpaper": 2535,
      "ner": 2536,
      "Ġsleep": 2537,
      "tand": 2538,
      "andishi": 2539,
      "wer": 2540,
      "Ġkuru": 2541,
      "asu": 2542,
      "SI": 2543,
      "fiti": 2544,
      "angaza": 2545,
      "biri": 2546,
      "Ġimani": 2547,
      "Ġbow": 2548,
      "Ġwood": 2549,
      "ongoza": 2550,
      "Ġkuanza": 2551,
      "Ġsat": 2552,
      "Ġkun": 2553,
      "zito": 2554,
      "sy": 2555,
      "Ġzetu": 2556,
      "Ġsig": 2557,
      "ĠBu": 2558,
      "cious": 2559,
      "Ġbinadamu": 2560,
      "dogo": 2561,
      "aisy": 2562,
      "Ġwished": 2563,
      "Ġhole": 2564,
      "Ġbidhaa": 2565,
      "Ġlikes": 2566,
      "uliza": 2567,
      "Ġ'": 2568,
      "Ġyellow": 2569,
      "fanywa": 2570,
      "Ġsurprised": 2571,
      "Ġslow": 2572,
      "Ġlesson": 2573,
      "Ġdark": 2574,
      "genzi": 2575,
      "Ġremembered": 2576,
      "Ġneeded": 2577,
      "engu": 2578,
      "pig": 2579,
      "Ġhappily": 2580,
      "Ġcold": 2581,
      "ambua": 2582,
      "poti": 2583,
      "Ġwiki": 2584,
      "amizi": 2585,
      "Ġmji": 2586,
      "pango": 2587,
      "RA": 2588,
      "Ġvili": 2589,
      "fari": 2590,
      "Ġmaele": 2591,
      "ĠBi": 2592,
      "Ġvis": 2593,
      "hib": 2594,
      "Ġko": 2595,
      "ber": 2596,
      "Ġcarefully": 2597,
      "Ġmove": 2598,
      "badiliko": 2599,
      "Ġalipo": 2600,
      "Ġkumu": 2601,
      "Sa": 2602,
      "Ġswing": 2603,
      "ĠUna": 2604,
      "Ġpaint": 2605,
      "Ġwear": 2606,
      "Ġchanzo": 2607,
      "Ġair": 2608,
      "unguza": 2609,
      "Ġkisha": 2610,
      "ence": 2611,
      "Ġanything": 2612,
      "Ġbutterfly": 2613,
      "ross": 2614,
      "Ġheld": 2615,
      "Ġmwanamke": 2616,
      "eddy": 2617,
      "Ġtell": 2618,
      "kurugenzi": 2619,
      "Ġmrefu": 2620,
      "Ġ9": 2621,
      "lima": 2622,
      "Ġlost": 2623,
      "wapo": 2624,
      "eld": 2625,
      "Ġkutu": 2626,
      "Ġamani": 2627,
      "ombea": 2628,
      "Ġmbaya": 2629,
      "Ġfrog": 2630,
      "zungu": 2631,
      "engine": 2632,
      "juli": 2633,
      "ishia": 2634,
      "lar": 2635,
      "Ġbuy": 2636,
      "ĠNA": 2637,
      "lojia": 2638,
      "Ġleft": 2639,
      "biwa": 2640,
      "Je": 2641,
      "Ġyame": 2642,
      "ĠWizara": 2643,
      "Ġwafanya": 2644,
      "Ġkiu": 2645,
      "Ġice": 2646,
      "firi": 2647,
      "Ùĳ": 2648,
      "Ġenjoyed": 2649,
      "Ġwrong": 2650,
      "Ġmujibu": 2651,
      "Ġanasema": 2652,
      "Ġkuweka": 2653,
      "res": 2654,
      "ungano": 2655,
      "inally": 2656,
      "Ġcool": 2657,
      "Ġfinished": 2658,
      "Ġmkutano": 2659,
      "Ġchildren": 2660,
      "ret": 2661,
      "Ġtabia": 2662,
      "Ġhear": 2663,
      "Ġbin": 2664,
      "Ġprin": 2665,
      "Ġrais": 2666,
      "Ġmpango": 2667,
      "Ġdream": 2668,
      "reed": 2669,
      "Ġtea": 2670,
      "amaa": 2671,
      "Ġthank": 2672,
      "ĠQ": 2673,
      "vun": 2674,
      "Ġlengo": 2675,
      "br": 2676,
      "ĠAfter": 2677,
      "Ġarri": 2678,
      "ngana": 2679,
      "Ġidadi": 2680,
      "ĠMkoa": 2681,
      "Ġwakiwa": 2682,
      "oup": 2683,
      "Ġwanafunzi": 2684,
      "bore": 2685,
      "Ġharaka": 2686,
      "wezesha": 2687,
      "Ġmatu": 2688,
      "Ġpekee": 2689,
      "Ta": 2690,
      "Ġfollowed": 2691,
      "Ġsaa": 2692,
      "nduzi": 2693,
      "Ġub": 2694,
      "Ġcontinu": 2695,
      "Hello": 2696,
      "Ġkuya": 2697,
      "lizi": 2698,
      "Ġmiongoni": 2699,
      "ord": 2700,
      "got": 2701,
      "Ġusalama": 2702,
      "Ki": 2703,
      "Ġdir": 2704,
      "Ġmke": 2705,
      "Ġfair": 2706,
      "SA": 2707,
      "Ġhung": 2708,
      "ĠNaibu": 2709,
      "gg": 2710,
      "Ġmwe": 2711,
      "zim": 2712,
      "uliwa": 2713,
      "ondoa": 2714,
      "Ġunderstand": 2715,
      "Ġres": 2716,
      "ithi": 2717,
      "Ġherself": 2718,
      "Ġdelicious": 2719,
      "wasili": 2720,
      "ziki": 2721,
      "Ġdawa": 2722,
      "ĠKU": 2723,
      "Ġtuta": 2724,
      "zama": 2725,
      "Ġule": 2726,
      "Ġfla": 2727,
      "asi": 2728,
      "Ġbuild": 2729,
      "Ġhid": 2730,
      "Ġtable": 2731,
      "room": 2732,
      "ph": 2733,
      "kwenda": 2734,
      "Ġzo": 2735,
      "ĠMta": 2736,
      "echi": 2737,
      "eto": 2738,
      "Ġfriendly": 2739,
      "umbu": 2740,
      "Ġkujua": 2741,
      "Ġforgot": 2742,
      "ated": 2743,
      "ndu": 2744,
      "TI": 2745,
      "Ġable": 2746,
      "Ġbaby": 2747,
      "KI": 2748,
      "Ġcount": 2749,
      "Ġvifaa": 2750,
      "akika": 2751,
      "enza": 2752,
      "zini": 2753,
      "Ġpolisi": 2754,
      "Ġkisa": 2755,
      "Ġchangamoto": 2756,
      "Ġkundi": 2757,
      "Ġchake": 2758,
      "ĠHii": 2759,
      "ĠGra": 2760,
      "lt": 2761,
      "Ġplease": 2762,
      "ĠMt": 2763,
      "mashauri": 2764,
      "ĠMe": 2765,
      "gemea": 2766,
      "araji": 2767,
      "oken": 2768,
      "zidi": 2769,
      "Ġelse": 2770,
      "Ġwonderful": 2771,
      "set": 2772,
      "zalisha": 2773,
      "ĠJen": 2774,
      "Ġarrived": 2775,
      "Ġmight": 2776,
      "husika": 2777,
      "Ġgone": 2778,
      "Ġsnow": 2779,
      "Ġfilled": 2780,
      "ĠBenny": 2781,
      "ĠLila": 2782,
      "iga": 2783,
      "ramu": 2784,
      "ĠWilaya": 2785,
      "Ġdu": 2786,
      "Ġhau": 2787,
      "Ġmashi": 2788,
      "baki": 2789,
      "eter": 2790,
      "Ġjijini": 2791,
      "mili": 2792,
      "Ġrest": 2793,
      "Ġcolors": 2794,
      "Ġhiki": 2795,
      "Ġkimataifa": 2796,
      "Ġumri": 2797,
      "Ġfursa": 2798,
      "ndy": 2799,
      "idhi": 2800,
      "NA": 2801,
      "Ġulimw": 2802,
      "Ġfina": 2803,
      "Ġgent": 2804,
      "ĠNow": 2805,
      "jiji": 2806,
      "ÙĪ": 2807,
      "Ġ.": 2808,
      "ches": 2809,
      "Ġkuzi": 2810,
      "ĠSally": 2811,
      "Ġkuingia": 2812,
      "ĠJam": 2813,
      "wards": 2814,
      "Ġambavyo": 2815,
      "Ġperf": 2816,
      "Ġujenzi": 2817,
      "ĠBunge": 2818,
      "Ġbag": 2819,
      "Then": 2820,
      "lam": 2821,
      "Ġyes": 2822,
      "iko": 2823,
      "ĠDa": 2824,
      "ĠAna": 2825,
      "iro": 2826,
      "Ġsomeone": 2827,
      "ĠThere": 2828,
      "oko": 2829,
      "Ġele": 2830,
      "anger": 2831,
      "labu": 2832,
      "Ġtall": 2833,
      "Ġbroken": 2834,
      "Ġsahihi": 2835,
      "Ġbinafsi": 2836,
      "op": 2837,
      "esh": 2838,
      "elea": 2839,
      "Ġkufikia": 2840,
      "Ùĩ": 2841,
      "icha": 2842,
      "Ġwenyewe": 2843,
      "itaka": 2844,
      "Ġhospita": 2845,
      "...": 2846,
      "laya": 2847,
      "kala": 2848,
      "llo": 2849,
      "Ġsong": 2850,
      "amad": 2851,
      "ĠHata": 2852,
      "sini": 2853,
      "Ġmaoni": 2854,
      "Ġkuchukua": 2855,
      "ĠMad": 2856,
      "Ġwilaya": 2857,
      "Jack": 2858,
      "Ġ|": 2859,
      "Ġmabadiliko": 2860,
      "chama": 2861,
      "Ġleaves": 2862,
      "Ġras": 2863,
      "Ġtight": 2864,
      "pya": 2865,
      "Ġila": 2866,
      "ĠKati": 2867,
      "Ġcontinued": 2868,
      "husia": 2869,
      "anii": 2870,
      "Ġhill": 2871,
      "ĠThis": 2872,
      "keleza": 2873,
      "Ġujumbe": 2874,
      "Ġwants": 2875,
      "Ġpoint": 2876,
      "Ġmaga": 2877,
      "enge": 2878,
      "Ġfru": 2879,
      "irrel": 2880,
      "fal": 2881,
      "Ġhuyu": 2882,
      "Ġkari": 2883,
      "Ġnyuma": 2884,
      "Ġura": 2885,
      "ĠJum": 2886,
      "andika": 2887,
      "KU": 2888,
      "pes": 2889,
      "Ġben": 2890,
      "ĠIs": 2891,
      "HI": 2892,
      "Ġhaja": 2893,
      "His": 2894,
      "At": 2895,
      "Ġika": 2896,
      "rot": 2897,
      "Ġspo": 2898,
      "ondoka": 2899,
      "Kama": 2900,
      "Ġenough": 2901,
      "ĠDaisy": 2902,
      "Ġmechi": 2903,
      "fanikiwa": 2904,
      "ingwa": 2905,
      "harama": 2906,
      "Ġwawili": 2907,
      "cu": 2908,
      "ungo": 2909,
      "Ġbooks": 2910,
      "Ġuku": 2911,
      "Ġfinally": 2912,
      "Ġstayed": 2913,
      "tari": 2914,
      "ĠMan": 2915,
      "othe": 2916,
      "Ġkilicho": 2917,
      "Ġpesa": 2918,
      "Ġdr": 2919,
      "Ġagreed": 2920,
      "Ġmichezo": 2921,
      "Ġbreak": 2922,
      "Ġmorning": 2923,
      "jumbe": 2924,
      "Ġbadala": 2925,
      "From": 2926,
      "Ġmradi": 2927,
      "Ġawali": 2928,
      "zingatia": 2929,
      "Ġsquirrel": 2930,
      "Ġgetting": 2931,
      "funza": 2932,
      "'ll": 2933,
      "cle": 2934,
      "fanikio": 2935,
      "Ġmatatizo": 2936,
      "Ġusiku": 2937,
      "Ġmoment": 2938,
      "Ġlion": 2939,
      "Ġscary": 2940,
      "endesha": 2941,
      "Ġask": 2942,
      "Ġmahali": 2943,
      "weke": 2944,
      "This": 2945,
      "Ġword": 2946,
      "ndaa": 2947,
      "goro": 2948,
      "yan": 2949,
      "ĠSh": 2950,
      "ĠYe": 2951,
      "Ġpink": 2952,
      "Ġtast": 2953,
      "esho": 2954,
      "tumishi": 2955,
      "ĠAm": 2956,
      "Ġvyombo": 2957,
      "Ġyale": 2958,
      "eru": 2959,
      "ĠKan": 2960,
      "funzo": 2961,
      "Ġilivyo": 2962,
      "ĠRu": 2963,
      "ĠØ§ÙĦ": 2964,
      "Ġcastle": 2965,
      "Ġsear": 2966,
      "Ġamazing": 2967,
      "unua": 2968,
      "Ġkusi": 2969,
      "Ġ15": 2970,
      "ised": 2971,
      "EN": 2972,
      "haribi": 2973,
      "Hata": 2974,
      "Ġuk": 2975,
      "Ġkaribuni": 2976,
      "Ġrahisi": 2977,
      "Ġkuanzia": 2978,
      "wanza": 2979,
      "engeneza": 2980,
      "BA": 2981,
      "Ġsita": 2982,
      "Ġfew": 2983,
      "Ġbeach": 2984,
      "Ġmada": 2985,
      "Ġzamani": 2986,
      "tur": 2987,
      "Ġumma": 2988,
      "Ġperfect": 2989,
      "ton": 2990,
      "Ġakili": 2991,
      "Ġkutum": 2992,
      "Ġgrandma": 2993,
      "teja": 2994,
      "Ġwet": 2995,
      "Ġothers": 2996,
      "ĠKristo": 2997,
      "key": 2998,
      "oring": 2999,
      "ĠKuu": 3000,
      "Ġute": 3001,
      "Ġndoa": 3002,
      "Ġtrying": 3003,
      "Ġkubadili": 3004,
      "Ġcookies": 3005,
      "igi": 3006,
      "ideo": 3007,
      "ĠMwana": 3008,
      "ray": 3009,
      "falme": 3010,
      "Ġkisiasa": 3011,
      "dhibiti": 3012,
      "ZI": 3013,
      "ĠMasha": 3014,
      "chote": 3015,
      "dge": 3016,
      "Ġsometimes": 3017,
      "Ġkw": 3018,
      "sic": 3019,
      "Ġdinner": 3020,
      "Ġfight": 3021,
      "ĠAllah": 3022,
      "Ġturned": 3023,
      "itoa": 3024,
      "ĠPa": 3025,
      "ĠTommy": 3026,
      "Ġdes": 3027,
      "hambi": 3028,
      "201": 3029,
      "Ġ0": 3030,
      "kato": 3031,
      "tua": 3032,
      "Ġpictures": 3033,
      "Ġcream": 3034,
      "Ġwhite": 3035,
      "Ġuchumi": 3036,
      "Ġnia": 3037,
      "utia": 3038,
      "ler": 3039,
      "Ġhungry": 3040,
      "Ġmg": 3041,
      "ndua": 3042,
      "isiti": 3043,
      "jali": 3044,
      "Ġmother": 3045,
      "Ġpoli": 3046,
      "ctor": 3047,
      "Ġanaweza": 3048,
      "Ġsmiles": 3049,
      "Ġhazi": 3050,
      "Ġmakes": 3051,
      "Ġbarabara": 3052,
      "Ġumeme": 3053,
      "Ġmasuala": 3054,
      "bao": 3055,
      "ĠMaybe": 3056,
      "Ġyeyote": 3057,
      "Ġbei": 3058,
      "ĠMataifa": 3059,
      "Ġsekta": 3060,
      "Ġpuppy": 3061,
      "Ġdaddy": 3062,
      "Ġnamba": 3063,
      "usu": 3064,
      "wezekana": 3065,
      "jaa": 3066,
      "Ġgharama": 3067,
      "Ġclimbed": 3068,
      "ĠBilly": 3069,
      "fund": 3070,
      "Ġjoy": 3071,
      "Ġkud": 3072,
      "Ġbro": 3073,
      "Ġtovuti": 3074,
      "Ġuja": 3075,
      "ister": 3076,
      "hama": 3077,
      "ĠSt": 3078,
      "othes": 3079,
      "Ġlililo": 3080,
      "ĠKis": 3081,
      "Ġclothes": 3082,
      "Ġlistened": 3083,
      "tain": 3084,
      "Ġwasn": 3085,
      "Ġballo": 3086,
      "shine": 3087,
      "LA": 3088,
      "pping": 3089,
      "yoto": 3090,
      "wekwa": 3091,
      "Ġmsaada": 3092,
      "land": 3093,
      "ĠTuna": 3094,
      "ilo": 3095,
      "Ġardhi": 3096,
      "Ġstrange": 3097,
      "Ġndugu": 3098,
      "Ġbrought": 3099,
      "ĠKusini": 3100,
      "ombi": 3101,
      "biashara": 3102,
      "ĠZa": 3103,
      "Ġeverything": 3104,
      "bina": 3105,
      "mini": 3106,
      "unti": 3107,
      "MI": 3108,
      "asure": 3109,
      "Ġtum": 3110,
      "ls": 3111,
      "Ġmafuta": 3112,
      "Wakati": 3113,
      "usi": 3114,
      "ĠAll": 3115,
      "Ġrasmi": 3116,
      "kosi": 3117,
      "Ġtail": 3118,
      "chana": 3119,
      "Ġkujenga": 3120,
      "Ġmtandao": 3121,
      "zaliwa": 3122,
      "Alisema": 3123,
      "fisa": 3124,
      "zoezi": 3125,
      "ĠKim": 3126,
      "Ġtalk": 3127,
      "Ġplan": 3128,
      "Ġchochote": 3129,
      "rani": 3130,
      "ffy": 3131,
      "Ġyule": 3132,
      "Ġspark": 3133,
      "leta": 3134,
      "ĠBo": 3135,
      "engwa": 3136,
      "Ġdeep": 3137,
      "Ġndege": 3138,
      "Ġneno": 3139,
      "Ġalone": 3140,
      "fungwa": 3141,
      "Ġmafanikio": 3142,
      "Ġtaasisi": 3143,
      "chagua": 3144,
      "hifadhi": 3145,
      "Ġduck": 3146,
      "ssed": 3147,
      "kiana": 3148,
      "Ġmamlaka": 3149,
      "Ġgrow": 3150,
      "ĠMat": 3151,
      "Ġbaadaye": 3152,
      "Ġkesi": 3153,
      "jika": 3154,
      "lingi": 3155,
      "Ġwoods": 3156,
      "Ġvisit": 3157,
      "Ġmaalum": 3158,
      "boresha": 3159,
      "jo": 3160,
      "Ġhatari": 3161,
      "**": 3162,
      "Aki": 3163,
      "Ġdini": 3164,
      "eli": 3165,
      "!!": 3166,
      "Ġutu": 3167,
      "ĠMw": 3168,
      "lack": 3169,
      "changia": 3170,
      "shukuru": 3171,
      "outh": 3172,
      "Ġswa": 3173,
      "Ġuongozi": 3174,
      "mad": 3175,
      "onesha": 3176,
      "ater": 3177,
      "Ġmaelezo": 3178,
      "Ġhistoria": 3179,
      "Ġkusim": 3180,
      "fungua": 3181,
      "ĠNy": 3182,
      "Ġnois": 3183,
      "Ġbath": 3184,
      "sti": 3185,
      "Ġ12": 3186,
      "Ġamazed": 3187,
      "ĠUlaya": 3188,
      "Ġpie": 3189,
      "atwa": 3190,
      "ige": 3191,
      "Ġride": 3192,
      "Ġmin": 3193,
      "Ġushiriki": 3194,
      "Ġgari": 3195,
      "table": 3196,
      "Ġdisa": 3197,
      "Ġmadara": 3198,
      "luffy": 3199,
      "kus": 3200,
      "Ø±": 3201,
      "Ġkijamii": 3202,
      "jaribu": 3203,
      "Ġkinacho": 3204,
      "cti": 3205,
      "yot": 3206,
      ".)": 3207,
      "Ġasks": 3208,
      "Ġwon": 3209,
      "husiana": 3210,
      "omu": 3211,
      "Ġange": 3212,
      "Ġkiongozi": 3213,
      "Ġwaited": 3214,
      "Ġhalisi": 3215,
      "Oh": 3216,
      "Ġmzuri": 3217,
      "fuli": 3218,
      "Ġtukio": 3219,
      "Ġbike": 3220,
      "Ġpulled": 3221,
      "ongezeka": 3222,
      "Ġleave": 3223,
      "Ġbelie": 3224,
      "jito": 3225,
      "OK": 3226,
      "Ġdanger": 3227,
      "Ġcloud": 3228,
      "Ġfaida": 3229,
      "ino": 3230,
      "ON": 3231,
      "zungumzia": 3232,
      "hili": 3233,
      "Ġcomp": 3234,
      "shiriki": 3235,
      "Ġkikubwa": 3236,
      "ezi": 3237,
      "Ġmfu": 3238,
      "Ġitakuwa": 3239,
      "Ġsafari": 3240,
      "Ġpur": 3241,
      "ĠAn": 3242,
      "kataba": 3243,
      "rud": 3244,
      "isema": 3245,
      "ace": 3246,
      "ĠJim": 3247,
      "ĠTo": 3248,
      "Ġkiny": 3249,
      "Ka": 3250,
      "Ġkitabu": 3251,
      "Ġsud": 3252,
      "zz": 3253,
      "Ġhide": 3254,
      "rikiana": 3255,
      "hamani": 3256,
      "Ġkwao": 3257,
      "Ġtreat": 3258,
      "Ġfield": 3259,
      "Ġland": 3260,
      "Ġpet": 3261,
      "eshwa": 3262,
      "kutana": 3263,
      "ĠMr": 3264,
      "Ġfr": 3265,
      "chungu": 3266,
      "adhali": 3267,
      "ĠWakati": 3268,
      "alamu": 3269,
      "Ġside": 3270,
      "chumi": 3271,
      "Ġkupa": 3272,
      "riri": 3273,
      "Ġdamu": 3274,
      "Ġsec": 3275,
      "Ġmti": 3276,
      "Ġuko": 3277,
      "Ġkuishi": 3278,
      "Ġaliwa": 3279,
      "jui": 3280,
      "thy": 3281,
      "Ġkula": 3282,
      "Ġkima": 3283,
      "Ġmaarufu": 3284,
      "uaji": 3285,
      "Ġkituo": 3286,
      "Ġkupiga": 3287,
      "dio": 3288,
      "Ġmil": 3289,
      "mbelea": 3290,
      "Ġow": 3291,
      "Ġsifa": 3292,
      "Ġasi": 3293,
      "ĠIm": 3294,
      "Ġmacho": 3295,
      "come": 3296,
      "Ġsilly": 3297,
      "Ġkushu": 3298,
      "Ġparty": 3299,
      "Ġ18": 3300,
      "kulima": 3301,
      "hani": 3302,
      "ĠHal": 3303,
      "Ġflying": 3304,
      "mbia": 3305,
      "Ġndogo": 3306,
      "Ġkilimo": 3307,
      "read": 3308,
      "DA": 3309,
      "Ġmoney": 3310,
      "Ġtowards": 3311,
      "Ġsuch": 3312,
      "Ġdhambi": 3313,
      "pende": 3314,
      "julikana": 3315,
      "Ġhoja": 3316,
      "Ġspot": 3317,
      "Ġfox": 3318,
      "mbo": 3319,
      "Max": 3320,
      "Ġnayo": 3321,
      "ĠMagu": 3322,
      "ĠMuungano": 3323,
      "zeti": 3324,
      "Ġruns": 3325,
      "Ġexpl": 3326,
      "ĠMama": 3327,
      "Ġmet": 3328,
      "ĠHo": 3329,
      "Vi": 3330,
      "Ġwachezaji": 3331,
      "Ġataka": 3332,
      "Ġans": 3333,
      "ucky": 3334,
      "dle": 3335,
      "Ġalim": 3336,
      "Ġkure": 3337,
      "amaduni": 3338,
      "Ġmafunzo": 3339,
      "ĠChama": 3340,
      "rib": 3341,
      "Ġowner": 3342,
      "guzi": 3343,
      "elewa": 3344,
      "ek": 3345,
      "Ġsister": 3346,
      "ĠUj": 3347,
      "kiliza": 3348,
      "Ġaliyo": 3349,
      "Ġpromised": 3350,
      "ÙİÙĳ": 3351,
      "Ġwow": 3352,
      "Ġkupunguza": 3353,
      "Ġteddy": 3354,
      "Ġthinks": 3355,
      "ĠAmy": 3356,
      "atilia": 3357,
      "kumu": 3358,
      "ĠBe": 3359,
      "fsiri": 3360,
      "Ġliving": 3361,
      "Ġtak": 3362,
      "wahili": 3363,
      "lla": 3364,
      "ĠSimba": 3365,
      "Ġug": 3366,
      "ĠNo": 3367,
      "Ġnika": 3368,
      "Ġmoto": 3369,
      "19": 3370,
      "raha": 3371,
      "der": 3372,
      "Ġuma": 3373,
      "Ġuhuru": 3374,
      "Ġshared": 3375,
      "eces": 3376,
      "Baada": 3377,
      "isitiza": 3378,
      "Ġuchungu": 3379,
      "ongea": 3380,
      "Ġhumo": 3381,
      "Ġndiye": 3382,
      "ĠIna": 3383,
      "ĠMis": 3384,
      "pinduzi": 3385,
      "Ġmost": 3386,
      "ndishi": 3387,
      "Lakini": 3388,
      "Ġnne": 3389,
      "Ġpieces": 3390,
      "Ġslowly": 3391,
      "unch": 3392,
      "Ġfaster": 3393,
      "--": 3394,
      "cher": 3395,
      "Ġrace": 3396,
      "Ġgrate": 3397,
      "rogramu": 3398,
      "Ġdance": 3399,
      "Ġyaani": 3400,
      "Ġkufa": 3401,
      "Ġblan": 3402,
      "ĠChu": 3403,
      "lii": 3404,
      "Ġklabu": 3405,
      "Ġmiradi": 3406,
      "Ġiliyopita": 3407,
      "illa": 3408,
      "Ġpot": 3409,
      "Ġstar": 3410,
      "Ġwel": 3411,
      "uari": 3412,
      "Ġsiyo": 3413,
      "chool": 3414,
      "Ġworried": 3415,
      "chache": 3416,
      "Ġhea": 3417,
      "ĠWatanzania": 3418,
      "ĠChina": 3419,
      "Ġmusic": 3420,
      "ĠPolisi": 3421,
      "Ġbigger": 3422,
      "ĠPro": 3423,
      "kaa": 3424,
      "Ġbaba": 3425,
      "Ġmkoa": 3426,
      "ĠMagufuli": 3427,
      "Maybe": 3428,
      "Ġbran": 3429,
      "Ġsmart": 3430,
      "Ġgrateful": 3431,
      "Ġsiasa": 3432,
      "Ġgift": 3433,
      "Ġvideo": 3434,
      "ex": 3435,
      "pedia": 3436,
      "Ġjumla": 3437,
      "arajiwa": 3438,
      "Ġquiet": 3439,
      "biki": 3440,
      "Ġjob": 3441,
      "Ġtrain": 3442,
      "Ġexpla": 3443,
      "Ġblack": 3444,
      "Ġkuweza": 3445,
      "Ġreach": 3446,
      "Ġthamani": 3447,
      "ambana": 3448,
      "Ġbott": 3449,
      "Ġcolorful": 3450,
      "sting": 3451,
      "Ġplant": 3452,
      "ifu": 3453,
      "utu": 3454,
      "Ġmagical": 3455,
      "umani": 3456,
      "iling": 3457,
      "Ġkutosha": 3458,
      "Ġmoral": 3459,
      "igg": 3460,
      "Ġsame": 3461,
      "Ġmahitaji": 3462,
      "ghter": 3463,
      "Ġmalipo": 3464,
      "nyama": 3465,
      "Ġmab": 3466,
      "chap": 3467,
      "Ġdragon": 3468,
      "ors": 3469,
      "ĠUta": 3470,
      "Ġwowote": 3471,
      "Ġriver": 3472,
      "Ġkutafuta": 3473,
      "ĠMashariki": 3474,
      "ever": 3475,
      "Ġcandy": 3476,
      "Ġwanaweza": 3477,
      "ute": 3478,
      "Ġugonjwa": 3479,
      "icy": 3480,
      "Ġblanket": 3481,
      "Ġuwanja": 3482,
      "Ġzako": 3483,
      "Ġjoin": 3484,
      "imarisha": 3485,
      "ĠMaka": 3486,
      "jira": 3487,
      "Ġkar": 3488,
      "Okay": 3489,
      "chwa": 3490,
      "ames": 3491,
      "ndari": 3492,
      "Ġusha": 3493,
      "Ġeverywhere": 3494,
      "FA": 3495,
      "gr": 3496,
      "Ġkamili": 3497,
      "bda": 3498,
      "shindwa": 3499,
      "Ġwin": 3500,
      "pema": 3501,
      "hadi": 3502,
      "Ġulimwengu": 3503,
      "Ġnap": 3504,
      "ring": 3505,
      "Ġpers": 3506,
      "sababisha": 3507,
      "Ġpen": 3508,
      "HE": 3509,
      "ored": 3510,
      "iya": 3511,
      "erumani": 3512,
      "Ġushindi": 3513,
      "Ġbas": 3514,
      "Ġuhusiano": 3515,
      "Ġbroke": 3516,
      "Ġnga": 3517,
      "Ġprincess": 3518,
      "Ġmsimu": 3519,
      "Ġpow": 3520,
      "let": 3521,
      "shanga": 3522,
      "far": 3523,
      "hoji": 3524,
      "Ġraia": 3525,
      "ĠJamhuri": 3526,
      "Ġutawala": 3527,
      "Ġspla": 3528,
      "Ġbarua": 3529,
      "ĠRoho": 3530,
      "tually": 3531,
      "ap": 3532,
      "Ġjeshi": 3533,
      "nolojia": 3534,
      "hammad": 3535,
      "nana": 3536,
      "Ġmouth": 3537,
      "atua": 3538,
      "bada": 3539,
      "ĠHalmashauri": 3540,
      "orm": 3541,
      "Ġzita": 3542,
      "zungumzo": 3543,
      "igo": 3544,
      "Ġtano": 3545,
      "Ġacross": 3546,
      "Ġdolls": 3547,
      "Ġmix": 3548,
      "bio": 3549,
      "wakili": 3550,
      "Ġshilingi": 3551,
      "furahi": 3552,
      "Mia": 3553,
      "habu": 3554,
      "ĠBaada": 3555,
      "Ġfarmer": 3556,
      "Ġmonster": 3557,
      "Ġnani": 3558,
      "Ġhuru": 3559,
      "10": 3560,
      "ndano": 3561,
      "Ġhelping": 3562,
      "Ġ30": 3563,
      "Ġ/": 3564,
      "patia": 3565,
      "kuna": 3566,
      "Ġkauli": 3567,
      "Ġmdogo": 3568,
      "Ġuamuzi": 3569,
      "Ġdakika": 3570,
      "Ġcal": 3571,
      "Ġremember": 3572,
      "Ġlol": 3573,
      "Ġscream": 3574,
      "Ġcarrot": 3575,
      "Ġbelieve": 3576,
      "Ġheal": 3577,
      "toka": 3578,
      "ĠSheria": 3579,
      "Si": 3580,
      "Ġmawazo": 3581,
      "lozi": 3582,
      "kofi": 3583,
      "Ġvyama": 3584,
      "Ġdoctor": 3585,
      "Ġwap": 3586,
      "ont": 3587,
      "Una": 3588,
      "Ġwords": 3589,
      "Ġkusaidia": 3590,
      "Ġdangerous": 3591,
      "jea": 3592,
      "inisha": 3593,
      "Ġhit": 3594,
      "dau": 3595,
      "ĠPia": 3596,
      "Ġstepped": 3597,
      "cing": 3598,
      "fikiri": 3599,
      "ĠKamati": 3600,
      "ĠKatibu": 3601,
      "Ġkuv": 3602,
      "iting": 3603,
      "kezo": 3604,
      "Ġmchakato": 3605,
      "ridhi": 3606,
      "ĠKI": 3607,
      "begu": 3608,
      "Ġkumi": 3609,
      "ĠWiki": 3610,
      "Ġacc": 3611,
      "maliza": 3612,
      "Sure": 3613,
      "ĠDaddy": 3614,
      "uba": 3615,
      "Ġheavy": 3616,
      "Ġstre": 3617,
      "Ġhala": 3618,
      "ĠMolly": 3619,
      "eared": 3620,
      "Ġbee": 3621,
      "lace": 3622,
      "amano": 3623,
      "Ġmapenzi": 3624,
      "pha": 3625,
      "Ġmiezi": 3626,
      "Ġhariri": 3627,
      "Ġmkoani": 3628,
      "TU": 3629,
      "sika": 3630,
      "ĠJi": 3631,
      "Ġdisapp": 3632,
      "pt": 3633,
      "Ġfuraha": 3634,
      "ĠJill": 3635,
      "Ġcrying": 3636,
      "Ġmust": 3637,
      "Ġschool": 3638,
      "Ġmata": 3639,
      "Ġfree": 3640,
      "kit": 3641,
      "ĠLo": 3642,
      "Ġhig": 3643,
      "Ġdirty": 3644,
      "Ġthrew": 3645,
      "Ġutaratibu": 3646,
      "siri": 3647,
      "Ġanga": 3648,
      "ĠHivyo": 3649,
      "ĠNd": 3650,
      "Why": 3651,
      "waji": 3652,
      "Ġsauti": 3653,
      "Ġkifo": 3654,
      "fanye": 3655,
      "Ġtower": 3656,
      "ĠAme": 3657,
      "Ġhospitali": 3658,
      "kabili": 3659,
      "Ġstand": 3660,
      "Ġmume": 3661,
      "Ġ11": 3662,
      "Ġmika": 3663,
      "Ġheart": 3664,
      "Ġyata": 3665,
      "bika": 3666,
      "Ġwouldn": 3667,
      "Ġ14": 3668,
      "ĠSha": 3669,
      "ngo": 3670,
      "Ġkutaka": 3671,
      "bble": 3672,
      "ero": 3673,
      "Ġtown": 3674,
      "Ġclosed": 3675,
      "Ġbug": 3676,
      "ust": 3677,
      "ĠMtakatifu": 3678,
      "Ġvyote": 3679,
      "Ġkusoma": 3680,
      "Ġumu": 3681,
      "omb": 3682,
      "Ġwanaume": 3683,
      "iliki": 3684,
      "Ġwall": 3685,
      "Ġulikuwa": 3686,
      "Ġcour": 3687,
      "Ġfruit": 3688,
      "Ġud": 3689,
      "Ġbilioni": 3690,
      "Ġufu": 3691,
      "ĠBaraza": 3692,
      "hakama": 3693,
      "ANA": 3694,
      "Ġstuck": 3695,
      "Ġkushiriki": 3696,
      "pwa": 3697,
      "Ġkulingana": 3698,
      "Ġaliyekuwa": 3699,
      "Ġbite": 3700,
      "Ġwaandishi": 3701,
      "uza": 3702,
      "Ġwafu": 3703,
      "nder": 3704,
      "Ġhakika": 3705,
      "Ġkanuni": 3706,
      "peni": 3707,
      "Ġzenye": 3708,
      "Ġupinzani": 3709,
      "Makofi": 3710,
      "atient": 3711,
      "Ġcup": 3712,
      "ui": 3713,
      "Tuna": 3714,
      "Ġtwins": 3715,
      "Ġwafanyakazi": 3716,
      "qua": 3717,
      "lin": 3718,
      "Ġvitendo": 3719,
      "Ġballoon": 3720,
      "ĠNe": 3721,
      "Ġwasio": 3722,
      "Ġvye": 3723,
      "Ġ25": 3724,
      "Ġnita": 3725,
      "Ġsign": 3726,
      "mbi": 3727,
      "hada": 3728,
      "Ġkuzuia": 3729,
      "etoa": 3730,
      "endeleza": 3731,
      "NI": 3732,
      "tokea": 3733,
      "Ġbasket": 3734,
      "Ġmal": 3735,
      "Ġupendo": 3736,
      "ĠWatu": 3737,
      "gged": 3738,
      "Ġutaka": 3739,
      "Ġkuni": 3740,
      "ney": 3741,
      "Ġkodi": 3742,
      "andi": 3743,
      "ĠBw": 3744,
      "Ġneigh": 3745,
      "Ġwithout": 3746,
      "ĠMary": 3747,
      "Ġkuki": 3748,
      "rusi": 3749,
      "Ġeating": 3750,
      "yansi": 3751,
      "Ġmazungumzo": 3752,
      "Ġimekuwa": 3753,
      "inyi": 3754,
      "ĠUingereza": 3755,
      "Ġmbegu": 3756,
      "ĠDkt": 3757,
      "Ġbowl": 3758,
      "kelezaji": 3759,
      "poteza": 3760,
      "Ġviwanda": 3761,
      "Ġfairy": 3762,
      "ĠMag": 3763,
      "ĠMuhammad": 3764,
      "KO": 3765,
      "bn": 3766,
      "kazini": 3767,
      "Ġwateja": 3768,
      "Ġteacher": 3769,
      "Ġtoday": 3770,
      "ĠPau": 3771,
      "Ġhoped": 3772,
      "Ġndipo": 3773,
      "Ġkasi": 3774,
      "Ġiwe": 3775,
      "Ġushirikiano": 3776,
      "Ġmsi": 3777,
      "Ġneighb": 3778,
      "Ġthi": 3779,
      "Ġjuhudi": 3780,
      "Ġalama": 3781,
      "less": 3782,
      "Ġmare": 3783,
      "Ġmapema": 3784,
      "ĠUislamu": 3785,
      "ĠDe": 3786,
      "Ġsea": 3787,
      "nic": 3788,
      "fanyia": 3789,
      "Ġkuwasili": 3790,
      "Ġyoung": 3791,
      "shinda": 3792,
      "chukuliwa": 3793,
      "Ġkwako": 3794,
      "pira": 3795,
      "odoma": 3796,
      "Ġyenu": 3797,
      "Ġsuddenly": 3798,
      "kuwepo": 3799,
      "Ġhigher": 3800,
      "Ġking": 3801,
      "Ġikiwemo": 3802,
      "Ġmataifa": 3803,
      "Ġcourse": 3804,
      "hibitisha": 3805,
      "Ġwell": 3806,
      "ody": 3807,
      "ĠYeye": 3808,
      "kataa": 3809,
      "MB": 3810,
      "Ġkucheza": 3811,
      "âĢĿ.": 3812,
      "ANI": 3813,
      "Ġclapped": 3814,
      "DI": 3815,
      "panga": 3816,
      "ming": 3817,
      "Ġbrown": 3818,
      "Ġcheered": 3819,
      "Aidha": 3820,
      "Ġkuleta": 3821,
      "Ġyard": 3822,
      "kristo": 3823,
      "ww": 3824,
      "ĠGe": 3825,
      "jeti": 3826,
      "eth": 3827,
      "Ġ[": 3828,
      "ĠLeo": 3829,
      "fisi": 3830,
      "ining": 3831,
      "Ġmkataba": 3832,
      "Ġph": 3833,
      "Ġofisi": 3834,
      "ganda": 3835,
      "Ġgentle": 3836,
      "Ġaccid": 3837,
      "Ġcr": 3838,
      "shambu": 3839,
      "Ġwamekuwa": 3840,
      "Ġkutekeleza": 3841,
      "Ġumuhimu": 3842,
      "tere": 3843,
      "Ġdara": 3844,
      "Wana": 3845,
      "Ġfeels": 3846,
      "ĠMs": 3847,
      "Ġgames": 3848,
      "Ġmv": 3849,
      "Ġpar": 3850,
      "Ġwelcome": 3851,
      "ĠMkurugenzi": 3852,
      "Ġwataka": 3853,
      "Ġchair": 3854,
      "ĠLe": 3855,
      "Se": 3856,
      "ĠTume": 3857,
      "Ġutafiti": 3858,
      "Ġdry": 3859,
      "Ġlonger": 3860,
      "Ġmshi": 3861,
      "Ġpushed": 3862,
      "Ġcray": 3863,
      "ĠGa": 3864,
      "Ġjour": 3865,
      "ĠWikipedia": 3866,
      "Habari": 3867,
      "Ġshirika": 3868,
      "Ġforget": 3869,
      "Ġtreasure": 3870,
      "Ġlinalo": 3871,
      "Ġpocket": 3872,
      "Ġshaka": 3873,
      "Ġ16": 3874,
      "tumiaji": 3875,
      "fia": 3876,
      "Ġkime": 3877,
      "Ġmed": 3878,
      "Ġwenza": 3879,
      "JI": 3880,
      "ĠUm": 3881,
      "Finally": 3882,
      "orrow": 3883,
      "Ġwings": 3884,
      "ĠKili": 3885,
      "blia": 3886,
      "ĠUn": 3887,
      "Ġnzima": 3888,
      "Ġkipa": 3889,
      "husisha": 3890,
      "lazim": 3891,
      "Ġfence": 3892,
      "zoefu": 3893,
      "Ġprogramu": 3894,
      "ĠJan": 3895,
      "Ġdau": 3896,
      "ĠNili": 3897,
      "chafu": 3898,
      "zamo": 3899,
      "umuiya": 3900,
      "Ġmbo": 3901,
      "rusha": 3902,
      "Ġlone": 3903,
      "Ġdrove": 3904,
      "ĠMhe": 3905,
      "Ġwapi": 3906,
      "PA": 3907,
      "jabu": 3908,
      "vered": 3909,
      "22": 3910,
      "Øª": 3911,
      "fafan": 3912,
      "ĠHabari": 3913,
      "ungua": 3914,
      "gua": 3915,
      "Ġmahakama": 3916,
      "ĠAbu": 3917,
      "hita": 3918,
      "ĠMtu": 3919,
      "Ġski": 3920,
      "Ġbus": 3921,
      "zalishaji": 3922,
      "Mo": 3923,
      "Ġ13": 3924,
      "Ġalong": 3925,
      "top": 3926,
      "Ġmli": 3927,
      "Ġmakosa": 3928,
      "Ġlita": 3929,
      "Ġthrow": 3930,
      "ric": 3931,
      "Ġkishe": 3932,
      "Ġlonely": 3933,
      "pitia": 3934,
      "kusu": 3935,
      "umaini": 3936,
      "Ġmwanzo": 3937,
      "Ġswings": 3938,
      "Ġkuo": 3939,
      "Ġham": 3940,
      "Am": 3941,
      "Ġuchunguzi": 3942,
      "Ġsoko": 3943,
      "Ġlett": 3944,
      "Ġkuboresha": 3945,
      "kwete": 3946,
      "Ġdola": 3947,
      "Ġwhe": 3948,
      "Ġmbinu": 3949,
      "ĠId": 3950,
      "sikia": 3951,
      "atiwa": 3952,
      "pang": 3953,
      "ĠKanisa": 3954,
      "Re": 3955,
      "Ġsaba": 3956,
      "Ġshoes": 3957,
      "Ġcorn": 3958,
      "Ġpiece": 3959,
      "acha": 3960,
      "Ġbring": 3961,
      "gani": 3962,
      "ĠWaislamu": 3963,
      "ose": 3964,
      "ES": 3965,
      "Ġant": 3966,
      "Ġ2016": 3967,
      "Ġyear": 3968,
      "jumu": 3969,
      "Ġfit": 3970,
      "Ġulinzi": 3971,
      "Ġnoises": 3972,
      "enta": 3973,
      "ĠJuma": 3974,
      "Ġmazuri": 3975,
      "Ġmuziki": 3976,
      "Ġexplained": 3977,
      "ĠYanga": 3978,
      "ZA": 3979,
      "Ġshida": 3980,
      "ĠIli": 3981,
      "Ġinv": 3982,
      "Ġfall": 3983,
      "imamizi": 3984,
      "fla": 3985,
      "Ġstories": 3986,
      "Lila": 3987,
      "rti": 3988,
      "Ġstars": 3989,
      "Ġsinging": 3990,
      "Ġsecret": 3991,
      "guu": 3992,
      "Ġiko": 3993,
      "Ġbure": 3994,
      "Ġadventures": 3995,
      "Ġisiyo": 3996,
      "zika": 3997,
      "Ġlate": 3998,
      "phant": 3999,
      "hana": 4000,
      "Ġzile": 4001,
      "Ġsang": 4002,
      "Ġmawasili": 4003,
      "ĠDodoma": 4004,
      "Ġwazazi": 4005,
      "Ø¨": 4006,
      "atibabu": 4007,
      "Ġupset": 4008,
      "Mi": 4009,
      "shima": 4010,
      "MU": 4011,
      "ĠMit": 4012,
      "Do": 4013,
      "wishi": 4014,
      "Ġvingine": 4015,
      "stead": 4016,
      "athiri": 4017,
      "Ġ2017": 4018,
      "ambuli": 4019,
      "Ġwadau": 4020,
      "bila": 4021,
      "ĠHA": 4022,
      "Ġbucket": 4023,
      "Ġhugs": 4024,
      "long": 4025,
      "racti": 4026,
      "isaidia": 4027,
      "Ġwish": 4028,
      "uru": 4029,
      "oti": 4030,
      "Ġkuwepo": 4031,
      "bs": 4032,
      "Ġcard": 4033,
      "Ġturns": 4034,
      "Ġapple": 4035,
      "Ġkiuchumi": 4036,
      "Ġgha": 4037,
      "Rais": 4038,
      "Ġjar": 4039,
      "Ġima": 4040,
      "Ġhewa": 4041,
      "Ġtaking": 4042,
      "ER": 4043,
      "ĠOn": 4044,
      "yard": 4045,
      "lahi": 4046,
      "hamia": 4047,
      "Ġtrou": 4048,
      "ĠMar": 4049,
      "Ġwajibu": 4050,
      "ĠGrandma": 4051,
      "Ġswam": 4052,
      "Ġmawasiliano": 4053,
      "ndani": 4054,
      "ĠKit": 4055,
      "YA": 4056,
      "ingawa": 4057,
      "Ġkufuata": 4058,
      "Ġmoved": 4059,
      "Ġrocks": 4060,
      "son": 4061,
      "Ġuni": 4062,
      "jenga": 4063,
      "Ġ199": 4064,
      "Ġheshima": 4065,
      "imbi": 4066,
      "ĠDi": 4067,
      "Ġmnamo": 4068,
      "mok": 4069,
      "Ġwapo": 4070,
      "ample": 4071,
      "Ġkusu": 4072,
      "âĢĶ": 4073,
      "Mwa": 4074,
      "Ġujumla": 4075,
      "Ġelephant": 4076,
      "ĠKuna": 4077,
      "bby": 4078,
      "ĠMwaka": 4079,
      "Ġmipango": 4080,
      "Ġsoup": 4081,
      "Ġutekelezaji": 4082,
      "ĠKatiba": 4083,
      "Ġmadai": 4084,
      "Ġexploring": 4085,
      "Ġupo": 4086,
      "Ġzinaz": 4087,
      "Ġjuice": 4088,
      "Ġkushinda": 4089,
      "25": 4090,
      "Ġwise": 4091,
      "Ġwanachama": 4092,
      "ĠKikwete": 4093,
      "ents": 4094,
      "Ġstreet": 4095,
      "Ġneck": 4096,
      "board": 4097,
      "ansa": 4098,
      "Ġcaught": 4099,
      "ĠCh": 4100,
      "Ġhur": 4101,
      "Ġkisheria": 4102,
      "Ġkuangalia": 4103,
      "ishu": 4104,
      "fused": 4105,
      "Ġalivyo": 4106,
      "Ġamewa": 4107,
      "Ġmatukio": 4108,
      "Ġdrink": 4109,
      "otaka": 4110,
      "ĠEmma": 4111,
      "Ġbusy": 4112,
      "aa": 4113,
      "umika": 4114,
      "ovu": 4115,
      "beba": 4116,
      "soma": 4117,
      "ness": 4118,
      "Ġbackyard": 4119,
      "Ġmalengo": 4120,
      "san": 4121,
      "Ġdropped": 4122,
      "bidhi": 4123,
      "Ġkali": 4124,
      "Ġlunch": 4125,
      "peleka": 4126,
      "Ġmakundi": 4127,
      "ĠShetani": 4128,
      "istan": 4129,
      "Ġkuba": 4130,
      "ones": 4131,
      "ukumu": 4132,
      "vo": 4133,
      "Ġkutengeneza": 4134,
      "21": 4135,
      "Ġwakulima": 4136,
      "bow": 4137,
      "Ġyasi": 4138,
      "Ġlife": 4139,
      "fikiria": 4140,
      "itumia": 4141,
      "Ġuhakika": 4142,
      "Ġmagari": 4143,
      "ĠAr": 4144,
      "âĢ¦âĢ¦": 4145,
      "DE": 4146,
      "Ġbelong": 4147,
      "imiza": 4148,
      "Ġshook": 4149,
      "ĠÙĪ": 4150,
      "Ġob": 4151,
      "Ġnaught": 4152,
      "sie": 4153,
      "Ġajira": 4154,
      "ĠMahakama": 4155,
      "Ġnaughty": 4156,
      "ĠProf": 4157,
      "gombea": 4158,
      "Ġhawana": 4159,
      "Ġkushindwa": 4160,
      "Ġingawa": 4161,
      "Ġkuz": 4162,
      "Ġmay": 4163,
      "Ġhusika": 4164,
      "Ġziara": 4165,
      "Ġsalama": 4166,
      "onya": 4167,
      "Ġmiu": 4168,
      "rious": 4169,
      "Ġmach": 4170,
      "nal": 4171,
      "Ġseemed": 4172,
      "Ġinc": 4173,
      "gundua": 4174,
      "name": 4175,
      "Pia": 4176,
      "faransa": 4177,
      "Ġ17": 4178,
      "Ġshop": 4179,
      "Ġakasema": 4180,
      "zao": 4181,
      "hudia": 4182,
      "ĠCHA": 4183,
      "Ġripoti": 4184,
      "ours": 4185,
      "Ġtiny": 4186,
      "ĠMimi": 4187,
      "Ġnearby": 4188,
      "Ġkuzingatia": 4189,
      "ĠUjerumani": 4190,
      "Ġmana": 4191,
      "mokra": 4192,
      "rasa": 4193,
      "Ġrelie": 4194,
      "Ġorange": 4195,
      "ĠSasa": 4196,
      "Ġtom": 4197,
      "ishaji": 4198,
      "Ġ100": 4199,
      "Ġspe": 4200,
      "Ġ2015": 4201,
      "Ġthough": 4202,
      "Ġowl": 4203,
      "hitajika": 4204,
      "Ġhuge": 4205,
      "tegemea": 4206,
      "Ġkinyume": 4207,
      "Ġhatima": 4208,
      "Ġvilivyo": 4209,
      "nter": 4210,
      "Mu": 4211,
      "LE": 4212,
      "Ġwar": 4213,
      "dhani": 4214,
      "Ġvyema": 4215,
      "Ġwoke": 4216,
      "Waziri": 4217,
      "TO": 4218,
      "wel": 4219,
      "Ġpres": 4220,
      "ted": 4221,
      "Ġubora": 4222,
      "Ġreal": 4223,
      "ĠThank": 4224,
      "ulia": 4225,
      "sing": 4226,
      "sion": 4227,
      "Ġrangi": 4228,
      "Ġkukabili": 4229,
      "buhi": 4230,
      "Ġwaliokuwa": 4231,
      "xi": 4232,
      "Ġmaombi": 4233,
      "Ġtek": 4234,
      "angazo": 4235,
      "ĠAt": 4236,
      "Ġngazi": 4237,
      "Ġkey": 4238,
      "Ġvituo": 4239,
      "ĠTe": 4240,
      "Ġfarm": 4241,
      "Ġresp": 4242,
      "Ġbaina": 4243,
      "cer": 4244,
      "example": 4245,
      "Ġunge": 4246,
      "Ġcir": 4247,
      "Ġmiti": 4248,
      "In": 4249,
      "Ġkite": 4250,
      "Ġmawili": 4251,
      "lay": 4252,
      "Ġkampeni": 4253,
      "ĠKiswahili": 4254,
      "ĠMaendeleo": 4255,
      "bile": 4256,
      "ambuki": 4257,
      "Ġintere": 4258,
      "ue": 4259,
      "lai": 4260,
      "ĠOfisi": 4261,
      "Ġwabunge": 4262,
      "Ġmail": 4263,
      "Ġ50": 4264,
      "Ġsur": 4265,
      "Ġtakes": 4266,
      "ĠShirika": 4267,
      "Ġsick": 4268,
      "Ġforever": 4269,
      "Ġkusababisha": 4270,
      "Ġwatumishi": 4271,
      "Ġmonkey": 4272,
      "Ġpeace": 4273,
      "ĠGo": 4274,
      "fanyi": 4275,
      "Ġmwanaume": 4276,
      "fis": 4277,
      "Ġmine": 4278,
      "Ġmno": 4279,
      "vunja": 4280,
      "Ġmapato": 4281,
      "kat": 4282,
      "Ġround": 4283,
      "Ġkuelekea": 4284,
      "tafuta": 4285,
      "Ġarm": 4286,
      "Lu": 4287,
      "Ġshapes": 4288,
      "ĠFluffy": 4289,
      "Ġva": 4290,
      "Ġwageni": 4291,
      "lenga": 4292,
      "Ġcarry": 4293,
      "Ġtoka": 4294,
      "Ġcomes": 4295,
      "Ġdaughter": 4296,
      "Ġkuk": 4297,
      "kufa": 4298,
      "thday": 4299,
      "ĠIsra": 4300,
      "sive": 4301,
      "Ġmakala": 4302,
      "Ġkununua": 4303,
      "Ġkujifunza": 4304,
      "Ġfan": 4305,
      "Ġarms": 4306,
      "Ġnothing": 4307,
      "ongozwa": 4308,
      "ountain": 4309,
      "Ġvitabu": 4310,
      "Ġcow": 4311,
      "Ġrainbow": 4312,
      "Ġwondered": 4313,
      "nia": 4314,
      "arajia": 4315,
      "Ġkas": 4316,
      "ĠInside": 4317,
      "ĠAfya": 4318,
      "Ġmatibabu": 4319,
      "elekea": 4320,
      "elezea": 4321,
      "oman": 4322,
      "Ġtas": 4323,
      "Ġkushirikiana": 4324,
      "ghulikia": 4325,
      "And": 4326,
      "Ġpurple": 4327,
      "kes": 4328,
      "Ġnye": 4329,
      "Ġhana": 4330,
      "Ġnose": 4331,
      "Ġitaka": 4332,
      "Ġval": 4333,
      "ssa": 4334,
      "zam": 4335,
      "Ġcraw": 4336,
      "tens": 4337,
      "ĠYake": 4338,
      "Ġkip": 4339,
      "Ġuzoefu": 4340,
      "mbea": 4341,
      "Ġdays": 4342,
      "Ġcolle": 4343,
      "Ġboun": 4344,
      "kose": 4345,
      "Ġdriver": 4346,
      "Ġbranch": 4347,
      "Ġnest": 4348,
      "Ġkibina": 4349,
      "Ġsitting": 4350,
      "inika": 4351,
      "Ġushauri": 4352,
      "Ġsounds": 4353,
      "Ġambako": 4354,
      "Ġsail": 4355,
      "wele": 4356,
      "ĠShi": 4357,
      "ĠChuo": 4358,
      "Ġear": 4359,
      "Ġathari": 4360,
      "Ġwhich": 4361,
      "Ġiwapo": 4362,
      "ĠTA": 4363,
      "ĠTV": 4364,
      "ĠSy": 4365,
      "Ġasu": 4366,
      "Ġsera": 4367,
      "aro": 4368,
      "Ġwakazi": 4369,
      "Ġcele": 4370,
      "itishwa": 4371,
      "amp": 4372,
      "imo": 4373,
      "Ġig": 4374,
      "ĠKitu": 4375,
      "Ġuba": 4376,
      "Ġkukubali": 4377,
      "dema": 4378,
      "angany": 4379,
      "Ġlolote": 4380,
      "mokrasia": 4381,
      "nu": 4382,
      "ĠNya": 4383,
      "ndia": 4384,
      "ĠKiingereza": 4385,
      "Ġvinavyo": 4386,
      "Ġcreatu": 4387,
      "Ùĥ": 4388,
      "inya": 4389,
      "kezaji": 4390,
      "ĠMara": 4391,
      "taa": 4392,
      "Ġpatient": 4393,
      "Ġjukumu": 4394,
      "jitokeza": 4395,
      "Ġperson": 4396,
      "Ġhuenda": 4397,
      "Ġnaomba": 4398,
      "mika": 4399,
      "Ġmiwili": 4400,
      "Ġswimming": 4401,
      "11": 4402,
      "Ġsoka": 4403,
      "ĠFinally": 4404,
      "raid": 4405,
      "ĠChe": 4406,
      "Ġmadini": 4407,
      "jari": 4408,
      "ĠNchi": 4409,
      "Ġkno": 4410,
      "Ġtouched": 4411,
      "anishwa": 4412,
      "Ġrelieved": 4413,
      "Ġafraid": 4414,
      "Ġea": 4415,
      "Ġtaratibu": 4416,
      "laha": 4417,
      "TE": 4418,
      "Ġexciting": 4419,
      "Ġhisia": 4420,
      "Ġbench": 4421,
      "Ġkuonyesha": 4422,
      "tle": 4423,
      "Ġwanyama": 4424,
      "kononi": 4425,
      "ĠMapinduzi": 4426,
      "shing": 4427,
      "Ġkulinda": 4428,
      "kamilika": 4429,
      "Ġlift": 4430,
      "ĠNew": 4431,
      "Ġpull": 4432,
      "Ġkupote": 4433,
      "itch": 4434,
      "Ġwaziri": 4435,
      "ĠBar": 4436,
      "Ġhello": 4437,
      "Ġkukaa": 4438,
      "ĠArusha": 4439,
      "ert": 4440,
      "Ġretur": 4441,
      "Ġnusu": 4442,
      "kizo": 4443,
      "Ġcute": 4444,
      "Ġmod": 4445,
      "arabu": 4446,
      "ses": 4447,
      "Ġlicha": 4448,
      "vel": 4449,
      "Ġmasa": 4450,
      "Ġdisco": 4451,
      "lete": 4452,
      "jijini": 4453,
      "kh": 4454,
      "Ġjoto": 4455,
      "tokana": 4456,
      "alili": 4457,
      "Ġmaamuzi": 4458,
      "Ġholding": 4459,
      "Ġcoat": 4460,
      "Ġkuimarisha": 4461,
      "Ġsiri": 4462,
      "Ġzingine": 4463,
      "Ġmajukumu": 4464,
      "Ġkwetu": 4465,
      "Ġpri": 4466,
      "Ġbajeti": 4467,
      "Ġwra": 4468,
      "ĠKas": 4469,
      "Ġamekuwa": 4470,
      "ges": 4471,
      "ĠKila": 4472,
      "kodi": 4473,
      "Ġasubuhi": 4474,
      "Ġmj": 4475,
      "Ġbirthday": 4476,
      "Ġkikao": 4477,
      "Ġvika": 4478,
      "book": 4479,
      "Ġteknolojia": 4480,
      "rge": 4481,
      "Ġkote": 4482,
      "shoto": 4483,
      "tana": 4484,
      "sasi": 4485,
      "ork": 4486,
      "Ġspa": 4487,
      "ishati": 4488,
      "Ġuzalishaji": 4489,
      "bab": 4490,
      "Ġlenye": 4491,
      "Of": 4492,
      "taja": 4493,
      "Ġge": 4494,
      "Ġpromise": 4495,
      "Ġbat": 4496,
      "entally": 4497,
      "ĠKA": 4498,
      "Ġhawaku": 4499,
      "hau": 4500,
      "ingiza": 4501,
      "Ø¹": 4502,
      "amond": 4503,
      "Ġjimbo": 4504,
      "giza": 4505,
      "kamatwa": 4506,
      "Ġkurudi": 4507,
      "ĠSoon": 4508,
      "Ġlaughing": 4509,
      "elele": 4510,
      "Ġaccidentally": 4511,
      "Ġsunshine": 4512,
      "vaa": 4513,
      "Ġwanadamu": 4514,
      "pri": 4515,
      "Ġaliy": 4516,
      "ruhusu": 4517,
      "Ġsilaha": 4518,
      "ĠBaba": 4519,
      "wadi": 4520,
      "Ġpat": 4521,
      "hamini": 4522,
      "Ġkupambana": 4523,
      "Ġmitandao": 4524,
      "Ġchache": 4525,
      "shiri": 4526,
      "Ġfing": 4527,
      "Ġhope": 4528,
      "Ġcook": 4529,
      "SH": 4530,
      "pongeza": 4531,
      "Ġcheese": 4532,
      "Hii": 4533,
      "pili": 4534,
      "Ġnumb": 4535,
      "Ġonto": 4536,
      "ĠUt": 4537,
      "Ġmabao": 4538,
      "Ġkufunga": 4539,
      "imamo": 4540,
      "mail": 4541,
      "ĠCo": 4542,
      "Ġmaswali": 4543,
      "Ġkupokea": 4544,
      "ĠUsa": 4545,
      "idizi": 4546,
      "ĠSiku": 4547,
      "Ġint": 4548,
      "ĠNina": 4549,
      "ĠPeter": 4550,
      "Ġmakini": 4551,
      "fisadi": 4552,
      "Ġmchezaji": 4553,
      "Ġkamati": 4554,
      "Ø¯": 4555,
      "Ġkuomba": 4556,
      "ĠWali": 4557,
      "Ġjourney": 4558,
      "Ġawe": 4559,
      "yahudi": 4560,
      "Ġkisasa": 4561,
      "Ġspin": 4562,
      "Ġkuondoa": 4563,
      "endi": 4564,
      "Ġcave": 4565,
      "enz": 4566,
      "Ġlako": 4567,
      "vile": 4568,
      "Ġmpira": 4569,
      "rudi": 4570,
      "Ġkikosi": 4571,
      "bii": 4572,
      "Ġrafiki": 4573,
      "shambulia": 4574,
      "Ġkuhusiana": 4575,
      "ĠSammy": 4576,
      "Ġkuacha": 4577,
      "Ġcozy": 4578,
      "Ġ2018": 4579,
      "Ġngumu": 4580,
      "ĠSep": 4581,
      "Ġkutokea": 4582,
      "ĠCome": 4583,
      "Ġroho": 4584,
      "Kuna": 4585,
      "Ġmeet": 4586,
      "Ġakawa": 4587,
      "Ġvid": 4588,
      "Ġsupp": 4589,
      "Ġgives": 4590,
      "Ġmasomo": 4591,
      "Ġ24": 4592,
      "omp": 4593,
      "Ġsuc": 4594,
      "Ġvir": 4595,
      "Ġlucky": 4596,
      "Ġsunny": 4597,
      "ĠJeshi": 4598,
      "Ġik": 4599,
      "odha": 4600,
      "Ġgigg": 4601,
      "Hey": 4602,
      "Ġviwango": 4603,
      "Ġnasi": 4604,
      "Ġkanisa": 4605,
      "ĠJumat": 4606,
      "Ġmilk": 4607,
      "Ġproble": 4608,
      "Ġzangu": 4609,
      "hanga": 4610,
      "etea": 4611,
      "Ġkulipa": 4612,
      "Ġhoney": 4613,
      "Ġgather": 4614,
      "Ġzisi": 4615,
      "Ġchuo": 4616,
      "Ġinstead": 4617,
      "anyiko": 4618,
      "Ġwalimu": 4619,
      "pper": 4620,
      "Ġroad": 4621,
      "Ġbread": 4622,
      "ĠOk": 4623,
      "gele": 4624,
      "onal": 4625,
      "Ġmajibu": 4626,
      "up": 4627,
      "Ġsearch": 4628,
      "ĠLigi": 4629,
      "Ġsearched": 4630,
      "isim": 4631,
      "Ġutakuwa": 4632,
      "Ġmajina": 4633,
      "Ġsmiling": 4634,
      "Ø³": 4635,
      "rn": 4636,
      "ĠEven": 4637,
      "Ġpud": 4638,
      "Ġtakrib": 4639,
      "zigo": 4640,
      "ĠIkiwa": 4641,
      "Ġmud": 4642,
      "Ġkumwa": 4643,
      "Ġkukabiliana": 4644,
      "kofu": 4645,
      "Ġanyone": 4646,
      "Ili": 4647,
      "tarajiwa": 4648,
      "Ġbush": 4649,
      "Later": 4650,
      "Ġ2012": 4651,
      "Ġtamaa": 4652,
      "Ġlater": 4653,
      "Ġmifu": 4654,
      "redi": 4655,
      "Ġkubadilisha": 4656,
      "Hu": 4657,
      "ĠMbunge": 4658,
      "Ġbought": 4659,
      "gawa": 4660,
      "Ġaskari": 4661,
      "gha": 4662,
      "poto": 4663,
      "Ġpointed": 4664,
      "do": 4665,
      "vid": 4666,
      "Ġwoman": 4667,
      "tions": 4668,
      "Ġbottle": 4669,
      "juma": 4670,
      "Ġlim": 4671,
      "kubaliano": 4672,
      "Ġusafi": 4673,
      "Ġakisema": 4674,
      "ener": 4675,
      "Ġdata": 4676,
      "Ġhealthy": 4677,
      "epu": 4678,
      "Ġmasi": 4679,
      "12": 4680,
      "Ġwaweze": 4681,
      "Ġrope": 4682,
      "insia": 4683,
      "Ġwide": 4684,
      "shes": 4685,
      "Ġtasty": 4686,
      "fortable": 4687,
      "Ġkufi": 4688,
      "ziwa": 4689,
      "Ġmaalumu": 4690,
      "Ġswali": 4691,
      "Ġent": 4692,
      "Ġputs": 4693,
      "Tommy": 4694,
      "Ġmazoezi": 4695,
      "ĠHar": 4696,
      "Ġmingi": 4697,
      "umini": 4698,
      "Akizungumza": 4699,
      "Ġwatching": 4700,
      "ĠBiblia": 4701,
      "CO": 4702,
      "Ġbutton": 4703,
      "ĠAh": 4704,
      "Ġprote": 4705,
      "Ġzim": 4706,
      "Ġkadi": 4707,
      "Ġumoja": 4708,
      "ball": 4709,
      "Ġques": 4710,
      "ambi": 4711,
      "Ġkumbu": 4712,
      "bra": 4713,
      "Ġmaadili": 4714,
      "had": 4715,
      "Ġtalked": 4716,
      "ĠUganda": 4717,
      "Ġhor": 4718,
      "ĠÙħ": 4719,
      "ĠUhuru": 4720,
      "pigwa": 4721,
      "ank": 4722,
      "Ġmazao": 4723,
      "Ġfl": 4724,
      "Ġwashi": 4725,
      "Ġclouds": 4726,
      "kra": 4727,
      "Ġkuny": 4728,
      "log": 4729,
      "Ġlive": 4730,
      "epe": 4731,
      "Ġimag": 4732,
      "fariki": 4733,
      "otted": 4734,
      "Ġinteresting": 4735,
      "fya": 4736,
      "Ġsura": 4737,
      "kumbuka": 4738,
      "Ġmagonjwa": 4739,
      "ono": 4740,
      "Ġbahati": 4741,
      "Ġpil": 4742,
      "Ġvilla": 4743,
      "Ġmatter": 4744,
      "Ġplane": 4745,
      "Ġmatendo": 4746,
      "Ġziliz": 4747,
      "kamilisha": 4748,
      "ndika": 4749,
      "misha": 4750,
      "mina": 4751,
      "Ġtele": 4752,
      "huria": 4753,
      "Ġtrouble": 4754,
      "ĠFe": 4755,
      "Ġshining": 4756,
      "Kuto": 4757,
      "kisho": 4758,
      "pia": 4759,
      "Mama": 4760,
      "chaguliwa": 4761,
      "Ina": 4762,
      "gizo": 4763,
      "dia": 4764,
      "Ġkulala": 4765,
      "liza": 4766,
      "Ġforgi": 4767,
      "Ġwalipo": 4768,
      "Ġuwezeka": 4769,
      "Ġorgani": 4770,
      "fadhali": 4771,
      "Ġzoom": 4772,
      "ĠWith": 4773,
      "Ġmashindano": 4774,
      "Ġwasiwa": 4775,
      "ĠFran": 4776,
      "Ġvime": 4777,
      "15": 4778,
      "Ġmbing": 4779,
      "Ġjamaa": 4780,
      "Ġunajua": 4781,
      "Ġyasiyo": 4782,
      "24": 4783,
      "Mwenye": 4784,
      "Ġuwezekano": 4785,
      "gle": 4786,
      "Ġpast": 4787,
      "halifu": 4788,
      "mana": 4789,
      "Ġsour": 4790,
      "athmini": 4791,
      "Ġchan": 4792,
      "kin": 4793,
      "Bob": 4794,
      "Ġkufika": 4795,
      "Ġhukumu": 4796,
      "ĠMbe": 4797,
      "Ġsandwi": 4798,
      "Good": 4799,
      "pinga": 4800,
      "undo": 4801,
      "ider": 4802,
      "toba": 4803,
      "Ġsharp": 4804,
      "Ġletu": 4805,
      "ungeni": 4806,
      "Ġmashabiki": 4807,
      "ndpa": 4808,
      "Ġupya": 4809,
      "ie": 4810,
      "Ġhon": 4811,
      "siasa": 4812,
      "Ġkupe": 4813,
      "Basi": 4814,
      "Ġkata": 4815,
      "Ġligi": 4816,
      "Ġtuka": 4817,
      "Ġsca": 4818,
      "orge": 4819,
      "lipa": 4820,
      "?âĢĿ": 4821,
      "cean": 4822,
      "ishara": 4823,
      "panda": 4824,
      "ĠPe": 4825,
      "Ġkuanzisha": 4826,
      "Ġapples": 4827,
      "Ġsmelled": 4828,
      "zunguka": 4829,
      "Ġukurasa": 4830,
      "Ġmfupi": 4831,
      "Ġkukosa": 4832,
      "Ġlile": 4833,
      "ative": 4834,
      "eso": 4835,
      "ĠNye": 4836,
      "ĠQur": 4837,
      "Ġloves": 4838,
      "Ġkosa": 4839,
      "Ġamri": 4840,
      "Ġclever": 4841,
      "umiwa": 4842,
      "chunga": 4843,
      "Ġukiwa": 4844,
      "ĠJimmy": 4845,
      "Ġwhole": 4846,
      "ator": 4847,
      "Ġpile": 4848,
      "Ġwheel": 4849,
      "Ġmaslahi": 4850,
      "hesa": 4851,
      "Ġroar": 4852,
      "Ġhofu": 4853,
      "Ġkutambua": 4854,
      "Ġspoon": 4855,
      "Ġkitaifa": 4856,
      "Ġsnack": 4857,
      "Ġwild": 4858,
      "ĠTwe": 4859,
      "Ġkuondoka": 4860,
      "ongozo": 4861,
      "illi": 4862,
      "ME": 4863,
      "Ġappeared": 4864,
      "Ġanswer": 4865,
      "que": 4866,
      "Ġwasiwasi": 4867,
      "Ġwakuu": 4868,
      "Ġhorse": 4869,
      "Be": 4870,
      "Ġstorm": 4871,
      "ating": 4872,
      "fanyiwa": 4873,
      "Ġcrayons": 4874,
      "zzy": 4875,
      "ĠSA": 4876,
      "Ġhop": 4877,
      "Ġkatikati": 4878,
      "Ġutendaji": 4879,
      "jita": 4880,
      "Ġutamaduni": 4881,
      "ast": 4882,
      "Ġlovely": 4883,
      "Ġkuvu": 4884,
      "Ġpracti": 4885,
      "ĠShu": 4886,
      "oda": 4887,
      "Ġmzima": 4888,
      "rej": 4889,
      "Ġneighbor": 4890,
      "ĠKiislamu": 4891,
      "endelee": 4892,
      "Ġusimamizi": 4893,
      "kwaa": 4894,
      "inti": 4895,
      "Ġmikoa": 4896,
      "line": 4897,
      "Ġmahusiano": 4898,
      "Ġfront": 4899,
      "Ġpass": 4900,
      "Ġipo": 4901,
      "bati": 4902,
      "keo": 4903,
      "ĠFedha": 4904,
      "Ġadhabu": 4905,
      "Ġmgo": 4906,
      "Ġkujiunga": 4907,
      "wekezaji": 4908,
      "Ġap": 4909,
      "Ġce": 4910,
      "Ġmind": 4911,
      "13": 4912,
      "BU": 4913,
      "shaji": 4914,
      "Ġvipa": 4915,
      "ĠJose": 4916,
      "Ġmadhara": 4917,
      "Ġushahidi": 4918,
      "Ġlangu": 4919,
      "chunguza": 4920,
      "Ġkuwapa": 4921,
      "16": 4922,
      "lele": 4923,
      "ĠMwanza": 4924,
      "Lucy": 4925,
      "Ġsafi": 4926,
      "jeshi": 4927,
      "inali": 4928,
      "ction": 4929,
      "Ġbru": 4930,
      "Ġajabu": 4931,
      "eneja": 4932,
      "Ġdanced": 4933,
      "ĠJust": 4934,
      "uduma": 4935,
      "ometimes": 4936,
      "Ġkimoja": 4937,
      "Ġducks": 4938,
      "daiwa": 4939,
      "Ġprotect": 4940,
      "UF": 4941,
      "net": 4942,
      "str": 4943,
      "Ġpuzz": 4944,
      "Ġgiant": 4945,
      "hudhuria": 4946,
      "erry": 4947,
      "Ġspotted": 4948,
      "Ġfeather": 4949,
      "Ġuwekezaji": 4950,
      "Ġkusimamia": 4951,
      "ÅĵI": 4952,
      "ii": 4953,
      "Ġmid": 4954,
      "Ġvingi": 4955,
      "Ġkesho": 4956,
      "Ġatakuwa": 4957,
      "ĠTU": 4958,
      "way": 4959,
      "Mwana": 4960,
      "Ġpour": 4961,
      "Ġmiko": 4962,
      "leo": 4963,
      "ndaoni": 4964,
      "Ġmsimamo": 4965,
      "Ġkutumika": 4966,
      "Ġmauaji": 4967,
      "ANG": 4968,
      "Ġsnowman": 4969,
      "Ġnguo": 4970,
      "Ġkumaliza": 4971,
      "Ġplaces": 4972,
      "Ġahadi": 4973,
      "pengele": 4974,
      "Ġdalili": 4975,
      "ĠKar": 4976,
      "Ġwagonjwa": 4977,
      "ans": 4978,
      "Ġseat": 4979,
      "Ġphone": 4980,
      "Ġkudhibiti": 4981,
      "Ġgoes": 4982,
      "Ġ40": 4983,
      "Ġmaafisa": 4984,
      "itihada": 4985,
      "Every": 4986,
      "ĠElimu": 4987,
      "hakik": 4988,
      "rere": 4989,
      "ĠNeno": 4990,
      "late": 4991,
      "Ġlay": 4992,
      "Ġeas": 4993,
      "toaji": 4994,
      "Ġwingi": 4995,
      "Ġhusu": 4996,
      "Ġwajumbe": 4997,
      "ĠUchaguzi": 4998,
      "Ġfilamu": 4999,
      "Just": 5000,
      "To": 5001,
      "Ġocean": 5002,
      "Ġisipokuwa": 5003,
      "ade": 5004,
      "kamani": 5005,
      "ĠSepte": 5006,
      "HU": 5007,
      "Ġpath": 5008,
      "Ġmikono": 5009,
      "ffi": 5010,
      "ĠPi": 5011,
      "Ġunapo": 5012,
      "waa": 5013,
      "choche": 5014,
      "Ġrolled": 5015,
      "Ġmatumaini": 5016,
      "Jim": 5017,
      "Ġkuti": 5018,
      "ĠJuni": 5019,
      "tuma": 5020,
      "Ġwenu": 5021,
      "ambano": 5022,
      "Ġlit": 5023,
      "ĠKita": 5024,
      "Ġwash": 5025,
      "Ġtasted": 5026,
      "Ġlast": 5027,
      "Ġteach": 5028,
      "ĠNyingine": 5029,
      "kita": 5030,
      "Ġkamwe": 5031,
      "org": 5032,
      "etie": 5033,
      "onga": 5034,
      "Ġkichwa": 5035,
      "Ġwearing": 5036,
      "ĠMoro": 5037,
      "Ġemb": 5038,
      "Molly": 5039,
      "Ġwasanii": 5040,
      "Ġasleep": 5041,
      "ungufu": 5042,
      "lalami": 5043,
      "Ġrespect": 5044,
      "Ġcollect": 5045,
      "Ġmakubaliano": 5046,
      "humiwa": 5047,
      "Ġfara": 5048,
      "fanisi": 5049,
      "ĠMambo": 5050,
      "ive": 5051,
      "Ġthin": 5052,
      "Ġhaina": 5053,
      "Ġwanasema": 5054,
      "unganisha": 5055,
      "anzishwa": 5056,
      "Ġpeke": 5057,
      "buri": 5058,
      "Ġpande": 5059,
      "Ġbark": 5060,
      "uawa": 5061,
      "Ġmtazamo": 5062,
      "Ġscreamed": 5063,
      "arra": 5064,
      "kwisha": 5065,
      "Ġishara": 5066,
      "Ġakaunti": 5067,
      "inted": 5068,
      "Amesema": 5069,
      "ding": 5070,
      "Ġpain": 5071,
      "ĠUfaransa": 5072,
      "Ġbuilding": 5073,
      "Ġ2019": 5074,
      "Ġkatiba": 5075,
      "17": 5076,
      "ĠApri": 5077,
      "wakilishi": 5078,
      "Ġsnake": 5079,
      "Ġcorner": 5080,
      "BC": 5081,
      "tambua": 5082,
      "ĠKig": 5083,
      "ased": 5084,
      "Ġspent": 5085,
      "umivu": 5086,
      "Ġkocha": 5087,
      "hit": 5088,
      "ĠKWA": 5089,
      "Ġoven": 5090,
      "Ġnyota": 5091,
      "Mum": 5092,
      "hile": 5093,
      "ots": 5094,
      "Ġunayo": 5095,
      "ĠRi": 5096,
      "Ġwan": 5097,
      "Ġgently": 5098,
      "yotolewa": 5099,
      "Come": 5100,
      "Ġakim": 5101,
      "Ġwito": 5102,
      "sikiliza": 5103,
      "ĠMka": 5104,
      "Ġkuonekana": 5105,
      "laa": 5106,
      "ĠMwalimu": 5107,
      "Ġwatatu": 5108,
      "Ana": 5109,
      "Ġkijiji": 5110,
      "Ġvibaya": 5111,
      "pas": 5112,
      "ombinu": 5113,
      "ĠMittens": 5114,
      "sc": 5115,
      "Ġziki": 5116,
      "ĠUnited": 5117,
      "Ġkukuza": 5118,
      "Ã©": 5119,
      "Ġhatimaye": 5120,
      "Ġhadithi": 5121,
      "Ġkume": 5122,
      "unuzi": 5123,
      "engi": 5124,
      "ndombinu": 5125,
      "mbulizi": 5126,
      "Ġconfused": 5127,
      "Ġmwenza": 5128,
      "Ġglo": 5129,
      "ĠJanuari": 5130,
      "Ġkuendeleza": 5131,
      "Ġcall": 5132,
      "ÙĤ": 5133,
      "ĠAd": 5134,
      "Ġpicnic": 5135,
      "Ġwrite": 5136,
      "lling": 5137,
      "tumwa": 5138,
      "Ġkupoteza": 5139,
      "Ġkufuatia": 5140,
      "kelezwa": 5141,
      "Ġmot": 5142,
      "Ġuv": 5143,
      "Ġkwangu": 5144,
      "ĠKo": 5145,
      "form": 5146,
      "wazi": 5147,
      "Ġuzito": 5148,
      "omi": 5149,
      "Ġkitendo": 5150,
      "Ġkukutana": 5151,
      "Ġtries": 5152,
      "Ġkufanyika": 5153,
      "Ġfeet": 5154,
      "ishoni": 5155,
      "Ġmakazi": 5156,
      "Ġjoke": 5157,
      "Ġfoot": 5158,
      "Ġnilikuwa": 5159,
      "anzisha": 5160,
      "ĠSyria": 5161,
      "gaji": 5162,
      "Ġkujito": 5163,
      "Ġlilikuwa": 5164,
      "30": 5165,
      "Mat": 5166,
      "zoni": 5167,
      "iroho": 5168,
      "leni": 5169,
      "not": 5170,
      "zza": 5171,
      "ĠKuto": 5172,
      "lder": 5173,
      "Ġrushwa": 5174,
      "Ġign": 5175,
      "gosti": 5176,
      "Ġyalikuwa": 5177,
      "VI": 5178,
      "Ġmarafiki": 5179,
      "Ġzia": 5180,
      "liki": 5181,
      "Ġvig": 5182,
      "Makala": 5183,
      "bidi": 5184,
      "sanya": 5185,
      "Ġkulia": 5186,
      "Ġalipokuwa": 5187,
      "Ġhotuba": 5188,
      "ĠOktoba": 5189,
      "iss": 5190,
      "lies": 5191,
      "ĠKazi": 5192,
      "Al": 5193,
      "ĠUli": 5194,
      "tumika": 5195,
      "Ġdrive": 5196,
      "WE": 5197,
      "kondari": 5198,
      "Ġkifu": 5199,
      "Ġremi": 5200,
      "Ġsmo": 5201,
      "Ġfaces": 5202,
      "Ġdirt": 5203,
      "Ġhote": 5204,
      "Ġtunaweza": 5205,
      "yuo": 5206,
      "Ġproblem": 5207,
      "Ġsack": 5208,
      "Ġmiguu": 5209,
      "chuano": 5210,
      "Ġwafuasi": 5211,
      "Ġwizara": 5212,
      "Ġkuelewa": 5213,
      "fsiriwa": 5214,
      "jengwa": 5215,
      "Ġhawezi": 5216,
      "Ġzoo": 5217,
      "Ġbenki": 5218,
      "ĠJimbo": 5219,
      "keti": 5220,
      "nie": 5221,
      "Ġsmell": 5222,
      "box": 5223,
      "haribu": 5224,
      "chia": 5225,
      "eruhi": 5226,
      "ĠJulai": 5227,
      "Ġkuchagua": 5228,
      "Ġunaona": 5229,
      "Ġcouch": 5230,
      "endwa": 5231,
      "silimali": 5232,
      "otolewa": 5233,
      "ĠFred": 5234,
      "Ġcoin": 5235,
      "Ġdelight": 5236,
      "Ġurais": 5237,
      "port": 5238,
      "lim": 5239,
      "Ġkuisaidia": 5240,
      "pelekea": 5241,
      "Ġmachine": 5242,
      "Ġshirt": 5243,
      "stahili": 5244,
      "Ġnjema": 5245,
      "Ġfurry": 5246,
      "Ġufanisi": 5247,
      "sheni": 5248,
      "ĠZA": 5249,
      "jadili": 5250,
      "Ġanapo": 5251,
      "ĠKaskazini": 5252,
      "Ġforgive": 5253,
      "maanisha": 5254,
      "kuza": 5255,
      "Ġzisizo": 5256,
      "kie": 5257,
      "ĠEmily": 5258,
      "alam": 5259,
      "Ġnet": 5260,
      "Ġjitihada": 5261,
      "Ġring": 5262,
      "ĠHapa": 5263,
      "naji": 5264,
      "kimbia": 5265,
      "23": 5266,
      "Ġspread": 5267,
      "Ġndivyo": 5268,
      "Ġcelebr": 5269,
      "Ġ21": 5270,
      "Ġeventually": 5271,
      "Ġbao": 5272,
      "ĠEl": 5273,
      "Ġmista": 5274,
      "Ġlad": 5275,
      "Ġsala": 5276,
      "ĠMachi": 5277,
      "reen": 5278,
      "Ġrob": 5279,
      "Ġhasi": 5280,
      "Ġchick": 5281,
      "paa": 5282,
      "chambu": 5283,
      "Ġtalking": 5284,
      "Ġteeth": 5285,
      "SE": 5286,
      "Ġself": 5287,
      "tic": 5288,
      "Ġgazeti": 5289,
      "kiza": 5290,
      "Ġhelpful": 5291,
      "Ġajali": 5292,
      "Ġyam": 5293,
      "lance": 5294,
      "fundisha": 5295,
      "Ġzawadi": 5296,
      "Ġwanapo": 5297,
      "Ġcookie": 5298,
      "Ġml": 5299,
      "Ġrude": 5300,
      "iness": 5301,
      "Ġmitatu": 5302,
      "Ġkuandika": 5303,
      "Ġband": 5304,
      "ĠMisri": 5305,
      "kiri": 5306,
      "Ġkupig": 5307,
      "ual": 5308,
      "ĠKampuni": 5309,
      "Ġembarra": 5310,
      "26": 5311,
      "ittle": 5312,
      "Ġpole": 5313,
      "Ġmatunda": 5314,
      "bisho": 5315,
      "Ġngo": 5316,
      "ruki": 5317,
      "lish": 5318,
      "Ġpretended": 5319,
      "Ġpig": 5320,
      "ĠMbeya": 5321,
      "ĠDunia": 5322,
      "Ġziada": 5323,
      "Ġlarge": 5324,
      "Ġwaiting": 5325,
      "ef": 5326,
      "Ġ23": 5327,
      "Ġspider": 5328,
      "Ġblew": 5329,
      "Ġhakuwa": 5330,
      "ufaa": 5331,
      "Ġkiume": 5332,
      "Ġmashu": 5333,
      "Ġjioni": 5334,
      "Ġwave": 5335,
      "Ġuongo": 5336,
      "Ġpush": 5337,
      "mwambia": 5338,
      "Ġpool": 5339,
      "ĠUnaweza": 5340,
      "ĠKimataifa": 5341,
      "ktari": 5342,
      "ĠNyerere": 5343,
      "ridi": 5344,
      "ĠSte": 5345,
      "Ġstra": 5346,
      "ror": 5347,
      "Ġkisi": 5348,
      "Ġhang": 5349,
      "Ġcalm": 5350,
      "haba": 5351,
      "Ġkuzungumza": 5352,
      "Ġtrip": 5353,
      "18": 5354,
      "Ġrasilimali": 5355,
      "engenezwa": 5356,
      "Ġtuki": 5357,
      "lazimika": 5358,
      "rio": 5359,
      "ĠFa": 5360,
      "pekee": 5361,
      "Ġchoco": 5362,
      "Ġ22": 5363,
      "Ġmashirika": 5364,
      "tolewa": 5365,
      "Ġwhenever": 5366,
      "Soon": 5367,
      "Ġzoezi": 5368,
      "ĠUp": 5369,
      "Ġladder": 5370,
      "ĠAbdu": 5371,
      "anda": 5372,
      "irs": 5373,
      "hudumia": 5374,
      "ĠKituo": 5375,
      "Ġvillage": 5376,
      "Ġsol": 5377,
      "14": 5378,
      "ãĥ": 5379,
      "Ġcur": 5380,
      "Ġemp": 5381,
      "Ġsmooth": 5382,
      "Ġibada": 5383,
      "Ġpaw": 5384,
      "ĠAgosti": 5385,
      "Ġcannot": 5386,
      "ĠChadema": 5387,
      "ĠNove": 5388,
      "chungaji": 5389,
      "mber": 5390,
      "Ġmahakamani": 5391,
      "Ġtomorrow": 5392,
      "ambulisho": 5393,
      "Ġwimbo": 5394,
      "SHA": 5395,
      "sisitiza": 5396,
      "Ġwange": 5397,
      "ulu": 5398,
      "Ġwadogo": 5399,
      "Ġkuam": 5400,
      "unza": 5401,
      "Ġuso": 5402,
      "Ġcross": 5403,
      "Ġwapiga": 5404,
      "Ġhiding": 5405,
      "Po": 5406,
      "Ġpasi": 5407,
      "Ra": 5408,
      "flow": 5409,
      "Ġsne": 5410,
      "vana": 5411,
      "Ġsqua": 5412,
      "ĠJamii": 5413,
      "jumuisha": 5414,
      "Me": 5415,
      "Ġatt": 5416,
      "Ġjirani": 5417,
      "ãģ": 5418,
      "Ġvan": 5419,
      "ĠNg": 5420,
      "Ġamet": 5421,
      "Ġfinish": 5422,
      "badilika": 5423,
      "Ġeager": 5424,
      "ĠNI": 5425,
      "ĠAir": 5426,
      "Ġbubble": 5427,
      "Ġmchango": 5428,
      "Ġnim": 5429,
      "taki": 5430,
      "Ġbahari": 5431,
      "ĠDon": 5432,
      "kilia": 5433,
      "Ġbugs": 5434,
      "Ġwafanyabiashara": 5435,
      "Nili": 5436,
      "erv": 5437,
      "unk": 5438,
      "Ġcolour": 5439,
      "Ġkijana": 5440,
      "bla": 5441,
      "mar": 5442,
      "Ġwenz": 5443,
      "ependa": 5444,
      "Ġhifadhi": 5445,
      "Ġfainali": 5446,
      "Ġmchana": 5447,
      "tia": 5448,
      "edi": 5449,
      "Ġwenzake": 5450,
      "CHA": 5451,
      "ĠUrusi": 5452,
      "Ġuliopita": 5453,
      "fisha": 5454,
      "Ġkukata": 5455,
      "ĠKikuu": 5456,
      "Ġvipi": 5457,
      "My": 5458,
      "livu": 5459,
      "ĠTaasisi": 5460,
      "letea": 5461,
      "ĠMsa": 5462,
      "Ġ2013": 5463,
      "ĠSometimes": 5464,
      "ĠHakuna": 5465,
      "jani": 5466,
      "pil": 5467,
      "Ġvisi": 5468,
      "Ġmisa": 5469,
      "lig": 5470,
      "Ġsherehe": 5471,
      "ĠEverywhere": 5472,
      "ĠHam": 5473,
      "à¤": 5474,
      "ern": 5475,
      "Ġshy": 5476,
      "Ġakizungumza": 5477,
      "Ġkike": 5478,
      "Ġ2020": 5479,
      "ĠSeptemba": 5480,
      "ado": 5481,
      "Ġforward": 5482,
      "Ġunataka": 5483,
      "Watu": 5484,
      "lves": 5485,
      "Ġfixed": 5486,
      "Ġansw": 5487,
      "af": 5488,
      "bwe": 5489,
      "Ġmarehemu": 5490,
      "App": 5491,
      "ĠMala": 5492,
      "ishes": 5493,
      "yom": 5494,
      "Ġoffi": 5495,
      "Ġzinaweza": 5496,
      "CCM": 5497,
      "Ġkuuza": 5498,
      "tarajia": 5499,
      "Ġ07": 5500,
      "Ġzilizopo": 5501,
      "hawa": 5502,
      "Ġmaarifa": 5503,
      "ĠKata": 5504,
      "geme": 5505,
      "Ġmasharti": 5506,
      "Ġwatumiaji": 5507,
      "Ġfighting": 5508,
      "Ġwataalamu": 5509,
      "Ġkupewa": 5510,
      "vya": 5511,
      "Ġpuddle": 5512,
      "sty": 5513,
      "Ġstret": 5514,
      "Ġmaumivu": 5515,
      "Ġleaf": 5516,
      "Ġnyakati": 5517,
      "Ġwachache": 5518,
      "ngawa": 5519,
      "kamata": 5520,
      "Ġplate": 5521,
      "aktari": 5522,
      "okoa": 5523,
      "kubaliana": 5524,
      "Ġdhamana": 5525,
      "Ġusajili": 5526,
      "ella": 5527,
      "Ġorodha": 5528,
      "Ġkuche": 5529,
      "Please": 5530,
      "idy": 5531,
      "Ġkuunda": 5532,
      "ahidi": 5533,
      "Ġchased": 5534,
      "jumaa": 5535,
      "izi": 5536,
      "olf": 5537,
      "Ġpeaceful": 5538,
      "Ġkutangaza": 5539,
      "Cha": 5540,
      "elezwa": 5541,
      "Ġsave": 5542,
      "Ġtaste": 5543,
      "ĠJake": 5544,
      "Ġwore": 5545,
      "lezi": 5546,
      "Ġemail": 5547,
      "kishwa": 5548,
      "ley": 5549,
      "jiunga": 5550,
      "FU": 5551,
      "ĠMb": 5552,
      "kusudi": 5553,
      "ĠHow": 5554,
      "Ġmanufaa": 5555,
      "ground": 5556,
      "lio": 5557,
      "most": 5558,
      "Ġsongs": 5559,
      "Ġchicken": 5560,
      "ban": 5561,
      "Ġawamu": 5562,
      "Ġakam": 5563,
      "Ġwhistle": 5564,
      "endekezo": 5565,
      "Ġletter": 5566,
      "pom": 5567,
      "Ġ26": 5568,
      "Ġmisingi": 5569,
      "phi": 5570,
      "zaa": 5571,
      "ungle": 5572,
      "Ġcarrots": 5573,
      "Ġnafsi": 5574,
      "Ġspray": 5575,
      "Ġyuko": 5576,
      "Ġmvua": 5577,
      "lax": 5578,
      "****": 5579,
      "ule": 5580,
      "Ġpresent": 5581,
      "ĠUwanja": 5582,
      "Ġinavyo": 5583,
      "Ġdaraja": 5584,
      "rica": 5585,
      "Ġkiroho": 5586,
      "Ġkambi": 5587,
      "Ġwavuti": 5588,
      "Ġtun": 5589,
      "light": 5590,
      "Ġimara": 5591,
      "Ġknee": 5592,
      "egetable": 5593,
      "Ġchocolate": 5594,
      "50": 5595,
      "ĠHuduma": 5596,
      "ĠJenny": 5597,
      "Ġmwandishi": 5598,
      "Ġcreature": 5599,
      "Ġmoon": 5600,
      "Ġembarrassed": 5601,
      "enti": 5602,
      "Ġstep": 5603,
      "anguka": 5604,
      "RE": 5605,
      "oday": 5606,
      "kwazo": 5607,
      "Ġbarked": 5608,
      "anze": 5609,
      "Ġdeter": 5610,
      "Ġkujadili": 5611,
      "Ġcloth": 5612,
      "Ġtreats": 5613,
      "Ġline": 5614,
      "Ġkulikuwa": 5615,
      "Ġempty": 5616,
      "Ġwazee": 5617,
      "ĠEd": 5618,
      "Ġgrab": 5619,
      "Ġbanana": 5620,
      "Ġcreative": 5621,
      "choki": 5622,
      "Ġhawaja": 5623,
      "ĠPaul": 5624,
      "ĠÂ": 5625,
      "Ġjungle": 5626,
      "Ġchumba": 5627,
      "Ġselfish": 5628,
      "Ġrocket": 5629,
      "Ġkira": 5630,
      "Ġvegetable": 5631,
      "ĠFu": 5632,
      "Ġmiundombinu": 5633,
      "Ġkipekee": 5634,
      "seme": 5635,
      "fuu": 5636,
      "ssan": 5637,
      "Ġkupele": 5638,
      "vyot": 5639,
      "Ġtidy": 5640,
      "Ġkuendesha": 5641,
      "Ġndoto": 5642,
      "faka": 5643,
      "Ġgrew": 5644,
      "ĠMei": 5645,
      "Ġfil": 5646,
      "Ġdig": 5647,
      "Ġalit": 5648,
      "Ġblock": 5649,
      "ĠAka": 5650,
      "Ġchuma": 5651,
      "Ġjua": 5652,
      "Nd": 5653,
      "ĠPlease": 5654,
      "Ġclear": 5655,
      "ates": 5656,
      "ĠMamlaka": 5657,
      "ĠKwanza": 5658,
      "Ġ2010": 5659,
      "Ġusio": 5660,
      "Ġwaliyo": 5661,
      "Ġmaybe": 5662,
      "Ġmipaka": 5663,
      "Ġdhana": 5664,
      "Ġstir": 5665,
      "Ġmgombea": 5666,
      "Ġmimba": 5667,
      "heshimu": 5668,
      "iliwa": 5669,
      "faham": 5670,
      "sisha": 5671,
      "Ġbunge": 5672,
      "Ġstru": 5673,
      "Ġspicy": 5674,
      "ĠKe": 5675,
      "Ġkiss": 5676,
      "ondolewa": 5677,
      "ĠØ£": 5678,
      "Dad": 5679,
      "epuka": 5680,
      "Ġasiye": 5681,
      "jifunza": 5682,
      "Kam": 5683,
      "Ġwand": 5684,
      "Ġalmost": 5685,
      "imbizi": 5686,
      "Ġkuko": 5687,
      "tal": 5688,
      "Ġknocked": 5689,
      "Ġkuongezeka": 5690,
      "ety": 5691,
      "ier": 5692,
      "Ġhalafu": 5693,
      "//": 5694,
      "Ġthese": 5695,
      "ĠNdi": 5696,
      "Ġkil": 5697,
      "enguni": 5698,
      "Ġinge": 5699,
      "Ġkuwe": 5700,
      "ĠHali": 5701,
      "Ġbell": 5702,
      "umpy": 5703,
      "amosi": 5704,
      "ilio": 5705,
      "sihi": 5706,
      "ĠMum": 5707,
      "ĠCity": 5708,
      "Ġmadarakani": 5709,
      "Ġukubwa": 5710,
      "ĠMpango": 5711,
      "Ġviwanja": 5712,
      "Ġgroup": 5713,
      "Ġhaija": 5714,
      "Ġdisappo": 5715,
      "ode": 5716,
      "Ġenzi": 5717,
      "die": 5718,
      "........": 5719,
      "jit": 5720,
      "wapa": 5721,
      "andikwa": 5722,
      "ĠMagharibi": 5723,
      "YO": 5724,
      "Ġtightly": 5725,
      "Ġ:": 5726,
      "rithi": 5727,
      "hubiri": 5728,
      "Ġ27": 5729,
      "Sasa": 5730,
      "kima": 5731,
      "ĠSud": 5732,
      "lau": 5733,
      "Ġutoaji": 5734,
      "Ġpay": 5735,
      "sage": 5736,
      "Ġstone": 5737,
      "Ġnote": 5738,
      "Ġstring": 5739,
      "isheni": 5740,
      "uts": 5741,
      "Ġkif": 5742,
      "oneka": 5743,
      "Ġdecor": 5744,
      "Ġkuunga": 5745,
      "Ġusta": 5746,
      "zunguko": 5747,
      "bunifu": 5748,
      "Ġkumw": 5749,
      "Ġada": 5750,
      "ĠFC": 5751,
      "Ġwatanzania": 5752,
      "angazwa": 5753,
      "Ġharakati": 5754,
      "Now": 5755,
      "Ġhati": 5756,
      "Ġ28": 5757,
      "Ġkuchangia": 5758,
      "Baadhi": 5759,
      "Ġyenyewe": 5760,
      "lex": 5761,
      "Ġmabaya": 5762,
      "ĠChar": 5763,
      "ĠIran": 5764,
      "andy": 5765,
      "Ġgener": 5766,
      "Ġjumping": 5767,
      "biria": 5768,
      "Ġmbunge": 5769,
      "Ġ2011": 5770,
      "Ġujuzi": 5771,
      "Ġusafiri": 5772,
      "WI": 5773,
      "old": 5774,
      "Ġmilele": 5775,
      "Ġimet": 5776,
      "Ġhonest": 5777,
      "Ġanataka": 5778,
      "Ġhears": 5779,
      "ĠMak": 5780,
      "Ġzinazofaa": 5781,
      "JA": 5782,
      "Ġchen": 5783,
      "Ġtells": 5784,
      "yuta": 5785,
      "Ġdaima": 5786,
      "ambukizi": 5787,
      "Ġngozi": 5788,
      "ãĤ": 5789,
      "Ġed": 5790,
      "Ġmitano": 5791,
      "Ġbinti": 5792,
      "Ġkupanda": 5793,
      "spitali": 5794,
      "Mkuu": 5795,
      "ØŃ": 5796,
      "anzia": 5797,
      "ĠImam": 5798,
      "Ġkujit": 5799,
      "YE": 5800,
      "Ġkudumu": 5801,
      "hini": 5802,
      "kezwa": 5803,
      "leased": 5804,
      "Ġiliyopo": 5805,
      "singi": 5806,
      "aluma": 5807,
      "Ġmissed": 5808,
      "iger": 5809,
      "ĠBenki": 5810,
      "Ġque": 5811,
      "Ġlegs": 5812,
      "ĠX": 5813,
      "ĠIta": 5814,
      "Ġmeant": 5815,
      "Ġyanaweza": 5816,
      "Ġkujali": 5817,
      "ĠLisa": 5818,
      "shiria": 5819,
      "Ġhours": 5820,
      "kampuni": 5821,
      "ĠGeorge": 5822,
      "ĠSome": 5823,
      "Ġwakimbizi": 5824,
      "iri": 5825,
      "vuvi": 5826,
      "Ġhospital": 5827,
      "Ġsparkly": 5828,
      "Siku": 5829,
      "amehe": 5830,
      "Ġslid": 5831,
      "Ġfear": 5832,
      "Ġbreath": 5833,
      "??": 5834,
      "Ġsplash": 5835,
      "ogopa": 5836,
      "Ġkitten": 5837,
      "Ġuhai": 5838,
      "Ġtest": 5839,
      "Ġsau": 5840,
      "fuatilia": 5841,
      "ĠEnd": 5842,
      "omaji": 5843,
      "Labda": 5844,
      "Ġunahitaji": 5845,
      "adow": 5846,
      "Ġmwanga": 5847,
      "ĠWake": 5848,
      "Ġmic": 5849,
      "ĠHassan": 5850,
      "HO": 5851,
      "ambamba": 5852,
      "ĠAidha": 5853,
      "Ġsheep": 5854,
      "Ġtuzo": 5855,
      "Ġshelf": 5856,
      "adhalika": 5857,
      "ompyuta": 5858,
      "NE": 5859,
      "taba": 5860,
      "gue": 5861,
      "Ġmichuano": 5862,
      "Ġcarried": 5863,
      "lli": 5864,
      "Ġhar": 5865,
      "ĠIdara": 5866,
      "uwa": 5867,
      "fakari": 5868,
      "Ġvyakula": 5869,
      "Ġniki": 5870,
      "Ġsharing": 5871,
      "shangaza": 5872,
      "Ġyaki": 5873,
      "Ġlao": 5874,
      "Ġmajengo": 5875,
      "Ġkarne": 5876,
      "Ġmeadow": 5877,
      "milifu": 5878,
      "Ġtut": 5879,
      "Ġglow": 5880,
      "Ġkikuu": 5881,
      "Ġhadhi": 5882,
      "Ġmakuu": 5883,
      "Ġhalali": 5884,
      "Ġrobot": 5885,
      "Ġuzazi": 5886,
      "Ġnyimbo": 5887,
      "udhu": 5888,
      "Ġkutimiza": 5889,
      "Ġsuccess": 5890,
      "Ġusawa": 5891,
      "PI": 5892,
      "stic": 5893,
      "Ġkumbukumbu": 5894,
      "'d": 5895,
      "ip": 5896,
      "amaki": 5897,
      "irobi": 5898,
      "Ġungependa": 5899,
      "gar": 5900,
      "Ġlanded": 5901,
      "Ġpizza": 5902,
      "andamano": 5903,
      "cco": 5904,
      "badilisha": 5905,
      "Ġmountain": 5906,
      "Ġufisadi": 5907,
      "ĠGod": 5908,
      "Ġdisappointed": 5909,
      "orry": 5910,
      "Ġseed": 5911,
      "Ġmateso": 5912,
      "Ġ2014": 5913,
      "Ġwakubwa": 5914,
      "ĠGu": 5915,
      "fundisho": 5916,
      "Ġmaba": 5917,
      "Ġrisasi": 5918,
      "Ġgray": 5919,
      "ĠProfesa": 5920,
      "gy": 5921,
      "ĠMaji": 5922,
      "Ġlem": 5923,
      "Ġstood": 5924,
      "Ġpepe": 5925,
      "ĠTheir": 5926,
      "utes": 5927,
      "Ġmema": 5928,
      "Ġmatch": 5929,
      "Ġuzi": 5930,
      "kulu": 5931,
      "ikia": 5932,
      "Ġok": 5933,
      "Ġbur": 5934,
      "Ġkizazi": 5935,
      "zoea": 5936,
      "Ġvirusi": 5937,
      "Ġmwishoni": 5938,
      "Ġkumpa": 5939,
      "ĠUtu": 5940,
      "ĠWananchi": 5941,
      "Ġwhis": 5942,
      "Ġtrust": 5943,
      "fuatayo": 5944,
      "Ġzilikuwa": 5945,
      "pangwa": 5946,
      "Ġwanam": 5947,
      "ĠYangu": 5948,
      "Ġadm": 5949,
      "://": 5950,
      "ject": 5951,
      "Ġclass": 5952,
      "Ġremind": 5953,
      "Ġvyuo": 5954,
      "ĠMbo": 5955,
      "wasiliano": 5956,
      "osa": 5957,
      "ts": 5958,
      "Ġgold": 5959,
      "Ġmgogoro": 5960,
      "Ġshore": 5961,
      "Ġkikamilifu": 5962,
      "zimi": 5963,
      "Ġkusini": 5964,
      "Ùģ": 5965,
      "Ġmala": 5966,
      "Ġmovi": 5967,
      "Ġyupo": 5968,
      "Ġnecklace": 5969,
      "Ġkuhifadhi": 5970,
      "Ġvijiji": 5971,
      "Ġkupita": 5972,
      "Ġkuamua": 5973,
      "Ġonge": 5974,
      "Ġkuwasaidia": 5975,
      "Ġinasema": 5976,
      "zeko": 5977,
      "bel": 5978,
      "Ġmbinguni": 5979,
      "Ġasha": 5980,
      "Ġviungo": 5981,
      "Ġmuundo": 5982,
      "Ġfrustr": 5983,
      "uzaji": 5984,
      "Ġmyste": 5985,
      "Ġsticks": 5986,
      "Ġreturned": 5987,
      "Ġbwana": 5988,
      "ĠSal": 5989,
      "aminifu": 5990,
      "husiwa": 5991,
      "Ġhidden": 5992,
      "onye": 5993,
      "hirisha": 5994,
      "ĠÙģ": 5995,
      "Ġsnacks": 5996,
      "nel": 5997,
      "ĠWhy": 5998,
      "There": 5999,
      "kuaji": 6000,
      "Ġhal": 6001,
      "huma": 6002,
      "Ġlabda": 6003,
      "Ġwo": 6004,
      "Ġbedroom": 6005,
      "Ġnane": 6006,
      "tood": 6007,
      "Ġblow": 6008,
      "Ġitakayo": 6009,
      "bruari": 6010,
      "Ġvyao": 6011,
      "Ġmashine": 6012,
      "Ġmwingi": 6013,
      "Ġgun": 6014,
      "ĠSudan": 6015,
      "last": 6016,
      "chimba": 6017,
      "Ġpoor": 6018,
      "Ġkutafsiriwa": 6019,
      "Ġeasy": 6020,
      "Ġknowing": 6021,
      "Ġprince": 6022,
      "tra": 6023,
      "isikia": 6024,
      "enea": 6025,
      "Ġunderstood": 6026,
      "Ikiwa": 6027,
      "Ġurahisi": 6028,
      "Ġmark": 6029,
      "budu": 6030,
      "Sarah": 6031,
      "ĠMorogoro": 6032,
      "Ġthu": 6033,
      "flower": 6034,
      "Ġdeterm": 6035,
      "ndisi": 6036,
      "Ġwalivyo": 6037,
      "Ġsulu": 6038,
      "RC": 6039,
      "rump": 6040,
      "zard": 6041,
      "Ġnishati": 6042,
      "ĠMali": 6043,
      "otokea": 6044,
      "Ġpolite": 6045,
      "ngine": 6046,
      "Ġyelled": 6047,
      "Ġsleepy": 6048,
      "Ġplants": 6049,
      "kabidhi": 6050,
      "ongezea": 6051,
      "ĠKag": 6052,
      "Ġkusikia": 6053,
      "Ġgas": 6054,
      "ĠAlisema": 6055,
      "Ġpolice": 6056,
      "Ġstanding": 6057,
      "ĠNovemba": 6058,
      "if": 6059,
      "Ġkujibu": 6060,
      "Ġpir": 6061,
      "ĠTeddy": 6062,
      "ĠNairobi": 6063,
      "kabiliwa": 6064,
      "habari": 6065,
      "Ġrec": 6066,
      "Ġvase": 6067,
      "men": 6068,
      "vin": 6069,
      "ĠJumuiya": 6070,
      "Ġwanayo": 6071,
      "fanyakazi": 6072,
      "Ġchombo": 6073,
      "Ġugly": 6074,
      "lic": 6075,
      "eshe": 6076,
      "ĠAg": 6077,
      "Ġupatikana": 6078,
      "Ġdrew": 6079,
      "Hivyo": 6080,
      "simama": 6081,
      "gram": 6082,
      "Ġkijeshi": 6083,
      "ĠPat": 6084,
      "fanikisha": 6085,
      "ĠCa": 6086,
      "DEMA": 6087,
      "Ġpillow": 6088,
      "eshindwa": 6089,
      "Ġuwepo": 6090,
      "igeria": 6091,
      "Ġdetermined": 6092,
      "ĠHawa": 6093,
      "Ġkuzaliwa": 6094,
      "kundu": 6095,
      "ĠJumapili": 6096,
      "Ġpuzzle": 6097,
      "Ġminutes": 6098,
      "ĠJoseph": 6099,
      "rid": 6100,
      "Mw": 6101,
      "Ø©": 6102,
      "ĠMtukufu": 6103,
      "sababu": 6104,
      "Ġneema": 6105,
      "Ġ&": 6106,
      "Ġoften": 6107,
      "Ġhut": 6108,
      "Ġashamed": 6109,
      "ĠMwan": 6110,
      "tta": 6111,
      "sein": 6112,
      "Ġunavyo": 6113,
      "Ġwatakuwa": 6114,
      "rat": 6115,
      "Ġkiti": 6116,
      "Ġupatikanaji": 6117,
      "Ġmpenzi": 6118,
      "RU": 6119,
      "fut": 6120,
      "sali": 6121,
      "Ġmifumo": 6122,
      "esemba": 6123,
      "Ġcirc": 6124,
      "ĠTogether": 6125,
      "poke": 6126,
      "Ġfrustrated": 6127,
      "ird": 6128,
      "pasa": 6129,
      "ĠBasi": 6130,
      "Ġkujaribu": 6131,
      "udhui": 6132,
      "Ġmikutano": 6133,
      "Ġnods": 6134,
      "fadhili": 6135,
      "Ġthankful": 6136,
      "Ġdeer": 6137,
      "ĠAprili": 6138,
      "ĠÙĦ": 6139,
      "ĠLA": 6140,
      "shtaka": 6141,
      "Ġmtandaoni": 6142,
      "Jane": 6143,
      "jenge": 6144,
      "Ġjiji": 6145,
      "ĠAzam": 6146,
      "karibisha": 6147,
      "Ġutulivu": 6148,
      "gwa": 6149,
      "atani": 6150,
      "Ġmessy": 6151,
      "Ġmysterious": 6152,
      "ulizo": 6153,
      "Hapa": 6154,
      "punguza": 6155,
      "Ġamem": 6156,
      "FF": 6157,
      "hose": 6158,
      "Ġsold": 6159,
      "An": 6160,
      "uter": 6161,
      "ĠYo": 6162,
      "ĠHaki": 6163,
      "Ġulimwenguni": 6164,
      "Ġseek": 6165,
      "Ġpin": 6166,
      "Stop": 6167,
      "atoa": 6168,
      "baini": 6169,
      "Ġtaught": 6170,
      "elekeza": 6171,
      "vers": 6172,
      "Ġfigu": 6173,
      "Ġkimya": 6174,
      "Ġ198": 6175,
      "anne": 6176,
      "iru": 6177,
      "endapo": 6178,
      "Ġjelly": 6179,
      "----": 6180,
      "Ġpowerful": 6181,
      "bora": 6182,
      "ĠRwanda": 6183,
      "Ġjuzi": 6184,
      "Ġgenerous": 6185,
      "rejea": 6186,
      "ened": 6187,
      "Ġing": 6188,
      "Ġbored": 6189,
      "suku": 6190,
      "Ġatakaye": 6191,
      "Ġnumber": 6192,
      "Ġmikopo": 6193,
      "ripoti": 6194,
      "Ġtiba": 6195,
      "ĠHospitali": 6196,
      "ĠMtendaji": 6197,
      "Ġujao": 6198,
      "Ġkuihariri": 6199,
      "haribifu": 6200,
      "hub": 6201,
      "ĠIjumaa": 6202,
      "ongamano": 6203,
      "Ġbaraza": 6204,
      "Ġglass": 6205,
      "Ġmadaraka": 6206,
      "Ġexcite": 6207,
      "phone": 6208,
      "Ġhuwezi": 6209,
      "BI": 6210,
      "Ġ+": 6211,
      "Ġgathered": 6212,
      "ĠMark": 6213,
      "Ġwema": 6214,
      "Ġ196": 6215,
      "miliki": 6216,
      "Ġmedic": 6217,
      "wara": 6218,
      "shawishi": 6219,
      "Ġmaambukizi": 6220,
      "ations": 6221,
      "Ġkupatikana": 6222,
      "ervous": 6223,
      "pecia": 6224,
      "Ġpassed": 6225,
      "Ġmummy": 6226,
      "Ġlead": 6227,
      "Ġyourself": 6228,
      "oogle": 6229,
      "hiki": 6230,
      "Ġnervous": 6231,
      "Ġwanataka": 6232,
      "Ġvifo": 6233,
      "Ġworking": 6234,
      "Ġkufurahi": 6235,
      "ĠRex": 6236,
      "rini": 6237,
      "Ġmisaada": 6238,
      "par": 6239,
      "Ġteam": 6240,
      "Ġdancing": 6241,
      "velo": 6242,
      "rank": 6243,
      "ĠAbdul": 6244,
      "Ġfeed": 6245,
      "ndisha": 6246,
      "iliana": 6247,
      "Ġhamu": 6248,
      "Ġanayo": 6249,
      "Ny": 6250,
      "Ġwolf": 6251,
      "Ġwaves": 6252,
      "ĠCom": 6253,
      "tumiwa": 6254,
      "iba": 6255,
      "halifa": 6256,
      "istance": 6257,
      "Ġhalmashauri": 6258,
      "Ġcries": 6259,
      "ĠIf": 6260,
      "ispaa": 6261,
      "raka": 6262,
      "sea": 6263,
      "Ġshell": 6264,
      "KE": 6265,
      "pungua": 6266,
      "mavu": 6267,
      "Ġgate": 6268,
      "ĠBila": 6269,
      "sabab": 6270,
      "Ġviumbe": 6271,
      "Ġtrue": 6272,
      "kum": 6273,
      "amiwa": 6274,
      "Ġbarani": 6275,
      "Ġwawe": 6276,
      "ambiwa": 6277,
      "Ġcrab": 6278,
      "pecially": 6279,
      "Ġfancy": 6280,
      "Ġfinger": 6281,
      "Ġpost": 6282,
      "Ġsighed": 6283,
      "reva": 6284,
      "uth": 6285,
      "Ġcomfortable": 6286,
      "CA": 6287,
      "SHI": 6288,
      "ingilia": 6289,
      "fululizo": 6290,
      "pensive": 6291,
      "kusanya": 6292,
      "Ġmlango": 6293,
      "selves": 6294,
      "ĠRob": 6295,
      "Ġmicro": 6296,
      "Ġkuandaa": 6297,
      "Ġkigeni": 6298,
      "ĠAmerika": 6299,
      "Mungu": 6300,
      "Ġhuja": 6301,
      "pendekeza": 6302,
      "Ġmatangazo": 6303,
      "zimio": 6304,
      "Ġexcitement": 6305,
      "MO": 6306,
      "ĠTanga": 6307,
      "ĠBiashara": 6308,
      "Ġexpensive": 6309,
      "hamiaji": 6310,
      "Ġsandwich": 6311,
      "Ġact": 6312,
      "enendo": 6313,
      "ĠWilli": 6314,
      "Ġmkali": 6315,
      "ZO": 6316,
      "Ġboss": 6317,
      "chukulia": 6318,
      "Ame": 6319,
      "cia": 6320,
      "Ġbridge": 6321,
      "UNG": 6322,
      "hamed": 6323,
      "Ġmojawapo": 6324,
      "Ġhaita": 6325,
      "Ġwad": 6326,
      "Ġbaridi": 6327,
      "Ġwanavyo": 6328,
      "als": 6329,
      "historia": 6330,
      "Ġutalii": 6331,
      "Ġmkakati": 6332,
      "ĠInter": 6333,
      "Ġija": 6334,
      "pillar": 6335,
      "Ġanswered": 6336,
      "Ġmikakati": 6337,
      "thi": 6338,
      "Ġ29": 6339,
      "semaji": 6340,
      "ĠWak": 6341,
      "Ġmsanii": 6342,
      "PO": 6343,
      "Ġboring": 6344,
      "idii": 6345,
      "ambaa": 6346,
      "omas": 6347,
      "ĠAbd": 6348,
      "Ġdada": 6349,
      "kadi": 6350,
      "body": 6351,
      "Ġjam": 6352,
      "Ġmapya": 6353,
      "ĠRose": 6354,
      "Ġtaken": 6355,
      "Where": 6356,
      "amka": 6357,
      "guo": 6358,
      "odu": 6359,
      "Ġespecially": 6360,
      "hirikisho": 6361,
      "ĠFebruari": 6362,
      "loni": 6363,
      "Ġkingine": 6364,
      "ĠBlue": 6365,
      "ship": 6366,
      "Mimi": 6367,
      "tili": 6368,
      "Ġanay": 6369,
      "fafanua": 6370,
      "Ġser": 6371,
      "nati": 6372,
      "Ġsalaam": 6373,
      "Ġcater": 6374,
      "Ġmwele": 6375,
      "Ġkushoto": 6376,
      "lying": 6377,
      "subiri": 6378,
      "pania": 6379,
      "athirika": 6380,
      "udu": 6381,
      "Ġendapo": 6382,
      "Ġfomu": 6383,
      "Ġsaved": 6384,
      "ĠIr": 6385,
      "ĠOK": 6386,
      "Ġhufanya": 6387,
      "Ġleg": 6388,
      "Ġspend": 6389,
      "umbele": 6390,
      "kebisha": 6391,
      "Ġkaya": 6392,
      "nes": 6393,
      "ĠHad": 6394,
      "ĠMas": 6395,
      "Ġmiji": 6396,
      "Ġwashiriki": 6397,
      "disha": 6398,
      "Ġmir": 6399,
      "anua": 6400,
      "Ġgesi": 6401,
      "lub": 6402,
      "ĠKenyatta": 6403,
      "simamia": 6404,
      "Ġesca": 6405,
      "Ġcaterpillar": 6406,
      "Ġroll": 6407,
      "Ġiliyokuwa": 6408,
      "Nina": 6409,
      "yal": 6410,
      "itumi": 6411,
      "Joe": 6412,
      "anganyika": 6413,
      "Ġbungeni": 6414,
      "fuko": 6415,
      "chester": 6416,
      "ĠCUF": 6417,
      "Ġkutokuwa": 6418,
      "Ġscarf": 6419,
      "Ġcloset": 6420,
      "Ġkufungua": 6421,
      "Ġsambamba": 6422,
      "Taarifa": 6423,
      "Ġmedicine": 6424,
      "Ġbody": 6425,
      "Ġchew": 6426,
      "Ġpengine": 6427,
      "angi": 6428,
      "CC": 6429,
      "Ġgrumpy": 6430,
      "Ġmfalme": 6431,
      "gono": 6432,
      "Ġmadawa": 6433,
      "Ġchange": 6434,
      "Ġmwenyekiti": 6435,
      "Ġmashambulizi": 6436,
      "Ġelfu": 6437,
      "Ġchenye": 6438,
      "kupa": 6439,
      "Ġ197": 6440,
      "Ġsim": 6441,
      "Ġkissed": 6442,
      "of": 6443,
      "ion": 6444,
      "Ġlock": 6445,
      "ĠNigeria": 6446,
      "hamasisha": 6447,
      "okovu": 6448,
      "Ġwilayani": 6449,
      "Ġwatakao": 6450,
      "Ġvigumu": 6451,
      "Ġkudai": 6452,
      "Ġvegetables": 6453,
      "kt": 6454,
      "sp": 6455,
      "ĠMil": 6456,
      "Ġmwake": 6457,
      "Ġutajiri": 6458,
      "dom": 6459,
      "pate": 6460,
      "ĠWabunge": 6461,
      "Ġtears": 6462,
      "Ġdrum": 6463,
      "fanana": 6464,
      "shika": 6465,
      "Ġpacked": 6466,
      "ĠBra": 6467,
      "Ġpointi": 6468,
      "Ġmiddle": 6469,
      "Ġkompyuta": 6470,
      "oru": 6471,
      "Ġmafundisho": 6472,
      "Ġnyu": 6473,
      "Ġdhahiri": 6474,
      "enny": 6475,
      "idh": 6476,
      "ĠSisi": 6477,
      "Ġmwao": 6478,
      "Ġgets": 6479,
      "Ġkidini": 6480,
      "kwimu": 6481,
      "ikh": 6482,
      "zwe": 6483,
      "Ġnjaa": 6484,
      "dina": 6485,
      "Ġakina": 6486,
      "ĠDesemba": 6487,
      "Ġworm": 6488,
      "Ġwonder": 6489,
      "ller": 6490,
      "Ġsamaki": 6491,
      "Ġkuongoza": 6492,
      "Ġkiungo": 6493,
      "Ġchest": 6494,
      "Ġkufanikiwa": 6495,
      "ibuka": 6496,
      "bani": 6497,
      "Ġkikundi": 6498,
      "ĠMola": 6499,
      "ĠØ¹": 6500,
      "ĠMaria": 6501,
      "sheria": 6502,
      "Ġexam": 6503,
      "cil": 6504,
      "Ġtam": 6505,
      "Ġpray": 6506,
      "ĠMI": 6507,
      "Ġeg": 6508,
      "Ġchako": 6509,
      "Ġmuungano": 6510,
      "ĠVI": 6511,
      "ĠJohnny": 6512,
      "90": 6513,
      "ĠTrump": 6514,
      "Ġmaandamano": 6515,
      "Ġnews": 6516,
      "hibit": 6517,
      "Ġkupinga": 6518,
      "kiling": 6519,
      "otakiwa": 6520,
      "Ġweak": 6521,
      "ĠÙĬ": 6522,
      "Ġnyama": 6523,
      "Ġqueen": 6524,
      "Ġalitoa": 6525,
      "rura": 6526,
      "ĠBalozi": 6527,
      "ĠØ¨": 6528,
      "lalamiko": 6529,
      "ifanya": 6530,
      "Ġpleased": 6531,
      "buzi": 6532,
      "tii": 6533,
      "Ġhopping": 6534,
      "lest": 6535,
      "adui": 6536,
      "Ġmingine": 6537,
      "Ġbecome": 6538,
      "Ġnafuu": 6539,
      "Ġukuaji": 6540,
      "Ġjengo": 6541,
      "ĠGoogle": 6542,
      "taafu": 6543,
      "Ġhasira": 6544,
      "Ġmajari": 6545,
      "ĠBr": 6546,
      "rembo": 6547,
      "Ġfis": 6548,
      "rian": 6549,
      "Ġrelax": 6550,
      "Ġknight": 6551,
      "ĠPaulo": 6552,
      "Ġquestions": 6553,
      "ĠKisha": 6554,
      "Serikali": 6555,
      "Ġmistake": 6556,
      "gaidi": 6557,
      "ĠFi": 6558,
      "Ġstuff": 6559,
      "Ġmshindi": 6560,
      "Ġwastani": 6561,
      "Ġones": 6562,
      "Ġvyanzo": 6563,
      "Ġmkewe": 6564,
      "yama": 6565,
      "Ġmakampuni": 6566,
      "Ġnywele": 6567,
      "Ġcontent": 6568,
      "handisi": 6569,
      "ĠMy": 6570,
      "Ġwasichana": 6571,
      "ĠKilimo": 6572,
      "adhim": 6573,
      "ĠZaidi": 6574,
      "gina": 6575,
      "Ġlazy": 6576,
      "Ġdinosa": 6577,
      "Ġanam": 6578,
      "Ġdistance": 6579,
      "jue": 6580,
      "Ġaibu": 6581,
      "hul": 6582,
      "Ġkutatua": 6583,
      "ĠJumamosi": 6584,
      "met": 6585,
      "Ġter": 6586,
      "ĠMap": 6587,
      "upe": 6588,
      "Ġkuwasiliana": 6589,
      "ĠTAN": 6590,
      "ĠMawasiliano": 6591,
      "Ġunapaswa": 6592,
      "Ġmstari": 6593,
      "Ġdinosaur": 6594,
      "Ġbone": 6595,
      "zale": 6596,
      "roc": 6597,
      "idie": 6598,
      "Ġmaanda": 6599,
      "Ġbathroom": 6600,
      "Ġeggs": 6601,
      "Are": 6602,
      "work": 6603,
      "ĠKombe": 6604,
      "fafanuzi": 6605,
      "Sorry": 6606,
      "mani": 6607,
      "Ġhutoa": 6608,
      "Ġnazo": 6609,
      "miza": 6610,
      "koni": 6611,
      "Ġufahamu": 6612,
      "Ġpan": 6613,
      "Ġtumbo": 6614,
      "Ġjumuiya": 6615,
      "Ġkutolewa": 6616,
      "Ġvilevile": 6617,
      "hadhari": 6618,
      "resheni": 6619,
      "lastname": 6620,
      "umzi": 6621,
      "Ġdol": 6622,
      "Ġadd": 6623,
      "Ġcomf": 6624,
      "Kila": 6625,
      "Ġcrown": 6626,
      "Ġhuruma": 6627,
      "ĠUsalama": 6628,
      "Ġvyake": 6629,
      "Ġsukari": 6630,
      "\",": 6631,
      "Ġasking": 6632,
      "ĠCO": 6633,
      "ĠUs": 6634,
      "issors": 6635,
      "Ġwaja": 6636,
      "Ġkuamini": 6637,
      "Ġdhati": 6638,
      "funguliwa": 6639,
      "Ġongezeko": 6640,
      "tus": 6641,
      "DO": 6642,
      "Ġfake": 6643,
      "lown": 6644,
      "Ġmakao": 6645,
      "Ġdrawing": 6646,
      "Ġkuch": 6647,
      "ĠJuli": 6648,
      "Ġtaa": 6649,
      "Ġship": 6650,
      "Who": 6651,
      "Ġwanajeshi": 6652,
      "Ġpicks": 6653,
      "Ġscissors": 6654,
      "ĠJaji": 6655,
      "Ġmchang": 6656,
      "arufuku": 6657,
      "Ġsmelly": 6658,
      "Ġsight": 6659,
      "ĠAlex": 6660,
      "ĠEng": 6661,
      "Ġprint": 6662,
      "Ġmwelekeo": 6663,
      "lipwa": 6664,
      "ulingana": 6665,
      "linda": 6666,
      "Ġwalks": 6667,
      "zalendo": 6668,
      "ĠUmma": 6669,
      "inua": 6670,
      "Ġwagged": 6671,
      "Ġkukusanya": 6672,
      "Picha": 6673,
      "Ġsil": 6674,
      "Ġmfululizo": 6675,
      "Ġhasara": 6676,
      "Ġbrush": 6677,
      "kaya": 6678,
      "Ġruined": 6679,
      "Ġmaelekezo": 6680,
      "Ġmtindo": 6681,
      "Ġfruits": 6682,
      "Ġeye": 6683,
      "ĠIsrael": 6684,
      "Ġkuzalisha": 6685,
      "Ġsoar": 6686,
      "Ġhazina": 6687,
      "Ġgiggled": 6688,
      "cou": 6689,
      "kebisho": 6690,
      "Ġkukamilisha": 6691,
      "Leo": 6692,
      "__": 6693,
      "hehe": 6694,
      "Ġsent": 6695,
      "Ġuhalifu": 6696,
      "Ġvijijini": 6697,
      "Ġwatendaji": 6698,
      "Ġutukufu": 6699,
      "Ġkinach": 6700,
      "Ġmarch": 6701,
      "ĠTw": 6702,
      "Ġkutembelea": 6703,
      "os": 6704,
      "Ġnami": 6705,
      "Ġstones": 6706,
      "Ġukumbi": 6707,
      "ĠMakamu": 6708,
      "Ġsplashed": 6709,
      "Ġkibinadamu": 6710,
      "Pamoja": 6711,
      "unda": 6712,
      "takuwa": 6713,
      "ĠMohamed": 6714,
      "Ġkufuatilia": 6715,
      "Ġfather": 6716,
      "Ġclown": 6717,
      "Ġlingine": 6718,
      "Ġkanda": 6719,
      "Ġkaunti": 6720,
      "Ġbaadae": 6721,
      "badala": 6722,
      "Ġlying": 6723,
      "omwa": 6724,
      "Ġmafu": 6725,
      "Ġplayground": 6726,
      "ĠBodi": 6727,
      "ambazaji": 6728,
      "ĠMtwara": 6729,
      "Ġwaa": 6730,
      "Ġmau": 6731,
      "ĠBongo": 6732,
      "fara": 6733,
      "Ġkale": 6734,
      "Jimmy": 6735,
      "Ġkibiashara": 6736,
      "shirika": 6737,
      "ĠWilliam": 6738,
      "Ġcap": 6739,
      "malizika": 6740,
      "sajili": 6741,
      "Gra": 6742,
      "onald": 6743,
      "Ġfold": 6744,
      "Ġidara": 6745,
      "Ġcost": 6746,
      "Ġfal": 6747,
      "âĢĿ,": 6748,
      "ĠPapa": 6749,
      "Ġkipato": 6750,
      "Ġmaandalizi": 6751,
      "Ġkuvutia": 6752,
      "ĠJumatatu": 6753,
      "RO": 6754,
      "pishe": 6755,
      "Ġkukua": 6756,
      "sefu": 6757,
      "Ġtakwimu": 6758,
      "Ġcheck": 6759,
      "Ġtuhuma": 6760,
      "Ġmwenyeji": 6761,
      "Read": 6762,
      "Ġwanafanya": 6763,
      "pelekwa": 6764,
      "vent": 6765,
      "ĠMzee": 6766,
      "Ġmaandishi": 6767,
      "Ġmaudhui": 6768,
      "amali": 6769,
      "ĠOb": 6770,
      "Ġcalling": 6771,
      "Ġnaku": 6772,
      "ĠSoma": 6773,
      "Ġngono": 6774,
      "jikuta": 6775,
      "Ġames": 6776,
      "sani": 6777,
      "Their": 6778,
      "Ġtent": 6779,
      "Ġcam": 6780,
      "gusa": 6781,
      "Ġextra": 6782,
      "ĠEn": 6783,
      "Ġametoa": 6784,
      "Wali": 6785,
      "Ġboard": 6786,
      "Ġkilich": 6787,
      "Ġfeathers": 6788,
      "kawa": 6789,
      "Ġsailed": 6790,
      "Ġmashtaka": 6791,
      "Ġwalim": 6792,
      "vice": 6793,
      "ĠMko": 6794,
      "ĠSI": 6795,
      "ĠPamoja": 6796,
      "epend": 6797,
      "gra": 6798,
      "Ġmeli": 6799,
      "angalie": 6800,
      "ambaza": 6801,
      "ĠUturuki": 6802,
      "Ġuharibifu": 6803,
      "orona": 6804,
      "Ġmadaktari": 6805,
      "Ġshows": 6806,
      "Ġkueleza": 6807,
      "ĠIndia": 6808,
      "ĠAfrica": 6809,
      "Ġwrote": 6810,
      "Ġshoot": 6811,
      "Ġdogs": 6812,
      "Ġkuepuka": 6813,
      "Ġincredi": 6814,
      "Ġve": 6815,
      "Ġsoap": 6816,
      "elfu": 6817,
      "Ġsugar": 6818,
      "Ġkujia": 6819,
      "igogoro": 6820,
      "onyeza": 6821,
      "Ġmate": 6822,
      "sApp": 6823,
      "Ġfluffy": 6824,
      "mal": 6825,
      "Ġpop": 6826,
      "Ġkiwanda": 6827,
      "shirikisha": 6828,
      "Ġzitaka": 6829,
      "Ġtie": 6830,
      "Ġsy": 6831,
      "adri": 6832,
      "fikisha": 6833,
      "Ġsugg": 6834,
      "Ġtisa": 6835,
      "Ġmkononi": 6836,
      "sari": 6837,
      "Ġdisappeared": 6838,
      "Ġmarufuku": 6839,
      "Ġsafu": 6840,
      "Ġmawaziri": 6841,
      "ĠJames": 6842,
      "Mara": 6843,
      "Ġmzee": 6844,
      "ĠAu": 6845,
      "ign": 6846,
      "Ġkulevya": 6847,
      "Ġtuicha": 6848,
      "ĠDr": 6849,
      "hindi": 6850,
      "cept": 6851,
      "itokea": 6852,
      "ĠRaila": 6853,
      "Ġmovie": 6854,
      "ongwe": 6855,
      "LO": 6856,
      "anja": 6857,
      "geuka": 6858,
      "arage": 6859,
      "Ġtuichapishe": 6860,
      "amaha": 6861,
      "Ġwanasiasa": 6862,
      "ficha": 6863,
      "Ġcomple": 6864,
      "yah": 6865,
      "Ġfre": 6866,
      "Ġvip": 6867,
      "hojiano": 6868,
      "ĠMjini": 6869,
      "Ġallow": 6870,
      "Ġvyenye": 6871,
      "cate": 6872,
      "Ġkwasababu": 6873,
      "Ġballs": 6874,
      "shuhudia": 6875,
      "ĠAbi": 6876,
      "otoa": 6877,
      "Ġkwanini": 6878,
      "ram": 6879,
      "baka": 6880,
      "ingizi": 6881,
      "Ġhaiku": 6882,
      "amilia": 6883,
      "Ġonce": 6884,
      "Ġfamous": 6885,
      "Ġmam": 6886,
      "bilia": 6887,
      "Ġtape": 6888,
      "alim": 6889,
      "Ġdaktari": 6890,
      "Ġmalalamiko": 6891,
      "ĠBingwa": 6892,
      "Ġijayo": 6893,
      "Ġref": 6894,
      "Ġjuicy": 6895,
      "Ġmoving": 6896,
      "Ġupe": 6897,
      "Ġmeasure": 6898,
      "Ġsword": 6899,
      "Ġmashariki": 6900,
      "Ġfine": 6901,
      "amisha": 6902,
      "Ġmwan": 6903,
      "Ġmwanafunzi": 6904,
      "Ġkaskazini": 6905,
      "kombo": 6906,
      "Ġbake": 6907,
      "rishaji": 6908,
      "Ġhoteli": 6909,
      "Ġtelev": 6910,
      "isoma": 6911,
      "etolewa": 6912,
      "Ġtakriban": 6913,
      "jitahidi": 6914,
      "Wi": 6915,
      "em": 6916,
      "Ġlose": 6917,
      "Ġinakuwa": 6918,
      "idhamu": 6919,
      "bin": 6920,
      "ĠKing": 6921,
      "Ġelder": 6922,
      "Ġmwalimu": 6923,
      "Ġsweetie": 6924,
      "Ġwahusika": 6925,
      "umisha": 6926,
      "Ġagainst": 6927,
      "Ġmapendekezo": 6928,
      "Ġmarket": 6929,
      "ĠKut": 6930,
      "Ġcage": 6931,
      "Ġ60": 6932,
      "Sally": 6933,
      "Ġcovered": 6934,
      "itegemea": 6935,
      "Ġlicked": 6936,
      "Ġles": 6937,
      "Ġsuit": 6938,
      "Ġunus": 6939,
      "ole": 6940,
      "alous": 6941,
      "ĠDavid": 6942,
      "Ġala": 6943,
      "âĢ¢": 6944,
      "barani": 6945,
      "Ġukosefu": 6946,
      "Ġmirror": 6947,
      "Billy": 6948,
      "Ġmagumu": 6949,
      "Ġkick": 6950,
      "piki": 6951,
      "ĠHivi": 6952,
      "shangaa": 6953,
      "Ġunusual": 6954,
      "omea": 6955,
      "Ġangalau": 6956,
      "Ġgarage": 6957,
      "ressed": 6958,
      "Ġnoisy": 6959,
      "Ġkik": 6960,
      "ision": 6961,
      "Ġujasiri": 6962,
      "40": 6963,
      "Ġbidii": 6964,
      "Ġilipo": 6965,
      "Ġcand": 6966,
      "Ġpindi": 6967,
      "Ġjealous": 6968,
      "Ġdrank": 6969,
      "Ġmakali": 6970,
      "wajibika": 6971,
      "FI": 6972,
      "muni": 6973,
      "Ġmasoko": 6974,
      "umbled": 6975,
      "chapishwa": 6976,
      "ĠShirikisho": 6977,
      "Ġpembe": 6978,
      "katika": 6979,
      "Ġdiscovered": 6980,
      "islam": 6981,
      "potea": 6982,
      "Ġmifugo": 6983,
      "27": 6984,
      "Ġil": 6985,
      "Ġusing": 6986,
      "Ġcrawled": 6987,
      "Ġrealised": 6988,
      "Ġwaumini": 6989,
      "Ġfle": 6990,
      "Ġdecide": 6991,
      "Ġhaiwezi": 6992,
      "vazi": 6993,
      "rence": 6994,
      "Ġthick": 6995,
      "ĠShule": 6996,
      "bas": 6997,
      "cky": 6998,
      "Ġhawawezi": 6999,
      "Ġflag": 7000,
      "aratani": 7001,
      "VU": 7002,
      "pl": 7003,
      "bainisha": 7004,
      "ĠManchester": 7005,
      "ikadi": 7006,
      "Ġkutenda": 7007,
      "lk": 7008,
      "hanzo": 7009,
      "endeshaji": 7010,
      "hema": 7011,
      "Ġjanga": 7012,
      "ĠNje": 7013,
      "Ġboys": 7014,
      "Ġkurej": 7015,
      "Ġmikataba": 7016,
      "ĠIsraeli": 7017,
      "Ġmajaribio": 7018,
      "eper": 7019,
      "Ġrich": 7020,
      "Ġumekuwa": 7021,
      "Ġincredible": 7022,
      "Ġtendo": 7023,
      "muziki": 7024,
      "Ġhususan": 7025,
      "Jill": 7026,
      "Ġskipped": 7027,
      "Ġviwili": 7028,
      "chua": 7029,
      "ĠâĢ¦": 7030,
      "ĠCHADEMA": 7031,
      "itter": 7032,
      "tawala": 7033,
      "Ġsekondari": 7034,
      "urugu": 7035,
      "Ġmgonjwa": 7036,
      "Ġmaziwa": 7037,
      "acebook": 7038,
      "furahia": 7039,
      "lakini": 7040,
      "Ġmapambano": 7041,
      "Ġhappening": 7042,
      "Ġunique": 7043,
      "Ġapo": 7044,
      "Ġinawezekana": 7045,
      "Ġneeds": 7046,
      "Ġflash": 7047,
      "Ġbusara": 7048,
      "inishwa": 7049,
      "Ġwasa": 7050,
      "umbi": 7051,
      "ĠRuto": 7052,
      "Ġtiger": 7053,
      "ĠMna": 7054,
      "ĠMkutano": 7055,
      "inikizo": 7056,
      "Ġkadhalika": 7057,
      "imwa": 7058,
      "pack": 7059,
      "cis": 7060,
      "ĠHI": 7061,
      "ĠKin": 7062,
      "fast": 7063,
      "gawany": 7064,
      "Ġmto": 7065,
      "Ġharamu": 7066,
      "igezo": 7067,
      "Ġvikao": 7068,
      "Ġmotor": 7069,
      "io": 7070,
      "Ġhum": 7071,
      "Ġcolourful": 7072,
      "Ġtowel": 7073,
      "onea": 7074,
      "Ġfirstname": 7075,
      "engenezaji": 7076,
      "Ġwagombea": 7077,
      "Ġkurejea": 7078,
      "puka": 7079,
      "uzu": 7080,
      "Ġmawe": 7081,
      "Ġalifanya": 7082,
      "Ġiliy": 7083,
      "Ġmsha": 7084,
      "ĠAmani": 7085,
      "Ġelderly": 7086,
      "Ġfour": 7087,
      "Ġyours": 7088,
      "imed": 7089,
      "Ġsanaa": 7090,
      "Ġcleaned": 7091,
      "Ġmeans": 7092,
      "Ġpencil": 7093,
      "AM": 7094,
      "Ġhero": 7095,
      "senal": 7096,
      "Ġzenu": 7097,
      "Ġmatatu": 7098,
      "Ġanawa": 7099,
      "ĠMakka": 7100,
      "Ġuzinduzi": 7101,
      "Ġshamba": 7102,
      "Ġwazo": 7103,
      "Ġswala": 7104,
      "unt": 7105,
      "imea": 7106,
      "Ġ#": 7107,
      "Ġfat": 7108,
      "Ġdhahabu": 7109,
      "Ġmzigo": 7110,
      "ested": 7111,
      "Ġtwirl": 7112,
      "Help": 7113,
      "Ġpopote": 7114,
      "potiwa": 7115,
      "rink": 7116,
      "Ġninyi": 7117,
      "Ġinapo": 7118,
      "Ġbranches": 7119,
      "Ġlaw": 7120,
      "Ġkifedha": 7121,
      "Ġmigogoro": 7122,
      "Ġcompet": 7123,
      "Ġwapinzani": 7124,
      "Ġorganized": 7125,
      "ARI": 7126,
      "Ġyat": 7127,
      "Ġzipo": 7128,
      "Ġrare": 7129,
      "Ġborrow": 7130,
      "Ġupungufu": 7131,
      "utiana": 7132,
      "Ġwokovu": 7133,
      "Ġglue": 7134,
      "Ġhekima": 7135,
      "ĠLittle": 7136,
      "ĠKuwa": 7137,
      "Ġyaliy": 7138,
      "audi": 7139,
      "karibia": 7140,
      "Sehemu": 7141,
      "ĠBina": 7142,
      "Ġalicho": 7143,
      "Ġatta": 7144,
      "endea": 7145,
      "Ġniaba": 7146,
      "Ġliki": 7147,
      "Ġwanaot": 7148,
      "Ġlouder": 7149,
      "Ġuji": 7150,
      "Ġtag": 7151,
      "Ġbaraka": 7152,
      "riwa": 7153,
      "ĠDan": 7154,
      "elezo": 7155,
      "shia": 7156,
      "Ġjibu": 7157,
      "shambuliaji": 7158,
      "wekea": 7159,
      "Ġbeha": 7160,
      "ĠIringa": 7161,
      "uo": 7162,
      "fautiana": 7163,
      "Ġdiffi": 7164,
      "Hakuna": 7165,
      "Ġdhami": 7166,
      "Ġmbadala": 7167,
      "ilt": 7168,
      "Ġloyal": 7169,
      "Ġgiving": 7170,
      "Ġbottom": 7171,
      "SS": 7172,
      "rk": 7173,
      "lit": 7174,
      "rage": 7175,
      "Ġhorn": 7176,
      "endelevu": 7177,
      "Ġpower": 7178,
      "hale": 7179,
      "Ġkucha": 7180,
      "Ġmahojiano": 7181,
      "andama": 7182,
      "Ġghafla": 7183,
      "Ġpump": 7184,
      "Ø°": 7185,
      "Ġhtt": 7186,
      "Ġanavyo": 7187,
      "Ġoffered": 7188,
      "Ġabiria": 7189,
      "Ġmwilini": 7190,
      "pambana": 7191,
      "ratibu": 7192,
      "yoo": 7193,
      "Ġserious": 7194,
      "ĠSusie": 7195,
      "Ġmzunguko": 7196,
      "Ġyataka": 7197,
      "Ġstraw": 7198,
      "pan": 7199,
      "Ġmoms": 7200,
      "mbani": 7201,
      "uzwa": 7202,
      "ĠFor": 7203,
      "Ġkibinafsi": 7204,
      "atiba": 7205,
      "Ġuliopo": 7206,
      "Ġfrown": 7207,
      "Ġinaendelea": 7208,
      "peresheni": 7209,
      "ĠNime": 7210,
      "Ġvikwazo": 7211,
      "Ġkusimama": 7212,
      "Ġbubbles": 7213,
      "kilishi": 7214,
      "Well": 7215,
      "Ġfavour": 7216,
      "Ġmanaged": 7217,
      "Ġdifficu": 7218,
      "ndepend": 7219,
      "Ġkufahamu": 7220,
      "endeshwa": 7221,
      "Ġhose": 7222,
      "chambuzi": 7223,
      "jaro": 7224,
      "ĠSE": 7225,
      "ĠSing": 7226,
      "ĠIbn": 7227,
      "Ġrekodi": 7228,
      "wassa": 7229,
      "Ġbalance": 7230,
      "Ġkifaa": 7231,
      "igano": 7232,
      "Ġlog": 7233,
      "berry": 7234,
      "Ġmme": 7235,
      "Ġkuwat": 7236,
      "wanga": 7237,
      "ĠDiamond": 7238,
      "Ġwrapped": 7239,
      "MHE": 7240,
      "kn": 7241,
      "hala": 7242,
      "?\".": 7243,
      "ource": 7244,
      "ĠWakristo": 7245,
      "Ġadventur": 7246,
      "Ġkusikiliza": 7247,
      "Ġcity": 7248,
      "Ġvurugu": 7249,
      "hisho": 7250,
      "kumbusha": 7251,
      "200": 7252,
      "head": 7253,
      "Ġmes": 7254,
      "ĠMji": 7255,
      "une": 7256,
      "umwa": 7257,
      "Ġsaying": 7258,
      "Ġbarn": 7259,
      "Ġbreakfast": 7260,
      "Ġkni": 7261,
      "kaji": 7262,
      "Ġwing": 7263,
      "Ġnor": 7264,
      "Ġkupanga": 7265,
      "idai": 7266,
      "yubu": 7267,
      "adilifu": 7268,
      "ĠBA": 7269,
      "Ġmighty": 7270,
      "ĠTh": 7271,
      "Ġkindness": 7272,
      "rudani": 7273,
      "MBA": 7274,
      "Ġchaguo": 7275,
      "Ġmapigano": 7276,
      "mm": 7277,
      "vutia": 7278,
      "Ġharm": 7279,
      "nyi": 7280,
      "Ġadded": 7281,
      "Ø£": 7282,
      "etro": 7283,
      "Ġboxes": 7284,
      "ĠMusa": 7285,
      "Ġjukwaa": 7286,
      "Ġoffice": 7287,
      "cation": 7288,
      "arth": 7289,
      "bariki": 7290,
      "rans": 7291,
      "Ġuzima": 7292,
      "amasha": 7293,
      "Ġadui": 7294,
      "Ġadventurous": 7295,
      "agiza": 7296,
      "Ġudhibiti": 7297,
      "Ġhafla": 7298,
      "Ġombi": 7299,
      "Ġkando": 7300,
      "hammed": 7301,
      "Ġimpressed": 7302,
      "ĠToday": 7303,
      "ĠUN": 7304,
      "Ġpee": 7305,
      "jaji": 7306,
      "Ġshake": 7307,
      "manjaro": 7308,
      "Ġikawa": 7309,
      "Ġfavourite": 7310,
      "lsea": 7311,
      "logi": 7312,
      "ants": 7313,
      "ready": 7314,
      "Ġtija": 7315,
      "www": 7316,
      "Ġdifficult": 7317,
      "Ġswan": 7318,
      "Ġspun": 7319,
      "ongeze": 7320,
      "angami": 7321,
      "Ġgrandpa": 7322,
      "Hali": 7323,
      "Ġmteja": 7324,
      "faika": 7325,
      "Ġlearning": 7326,
      "Ġvikundi": 7327,
      "Ġinayot": 7328,
      "ĠJumanne": 7329,
      "Ġtimes": 7330,
      "Ġthose": 7331,
      "Ġubina": 7332,
      "Ġkufanikisha": 7333,
      "Ġdemokrasia": 7334,
      "Ġenjoying": 7335,
      "Nime": 7336,
      "tons": 7337,
      "lipo": 7338,
      "Ġbloom": 7339,
      "Ġdharura": 7340,
      "Ġjewel": 7341,
      "ĠWhatsApp": 7342,
      "Ġballoons": 7343,
      "Ġkushughulikia": 7344,
      "angazaji": 7345,
      "LISH": 7346,
      "Mummy": 7347,
      "Ndugu": 7348,
      "endana": 7349,
      "Ġlamp": 7350,
      "shughulikia": 7351,
      "Ġmwenzake": 7352,
      "gen": 7353,
      "ripotiwa": 7354,
      "ĠWata": 7355,
      "Ġhappiness": 7356,
      "fungo": 7357,
      "Ġcart": 7358,
      "ĠOr": 7359,
      "ments": 7360,
      "ĠObama": 7361,
      "Ġmd": 7362,
      "Ġfridge": 7363,
      "pigia": 7364,
      "tern": 7365,
      "mble": 7366,
      "Ġcircle": 7367,
      "ĠIra": 7368,
      "safiri": 7369,
      "âĢĵ": 7370,
      "ĠCar": 7371,
      "Ġtough": 7372,
      "Ġmili": 7373,
      "atima": 7374,
      "ĠUsi": 7375,
      "bove": 7376,
      "Ġimesema": 7377,
      "ĠAlikuwa": 7378,
      "Ġjapo": 7379,
      "krani": 7380,
      "Ġmikononi": 7381,
      "Ġspill": 7382,
      "Ġushindani": 7383,
      "ah": 7384,
      "Ùī": 7385,
      "lat": 7386,
      "huda": 7387,
      "zozo": 7388,
      "Ġchase": 7389,
      "Ġturt": 7390,
      "Ġiliyotolewa": 7391,
      "Ġalready": 7392,
      "Ġdizzy": 7393,
      "orea": 7394,
      "ĠOd": 7395,
      "iwani": 7396,
      "risho": 7397,
      "Ġtrucks": 7398,
      "anyika": 7399,
      "Ġcomputer": 7400,
      "Spot": 7401,
      "Ġalio": 7402,
      "adhani": 7403,
      "ĠYako": 7404,
      "Ġibn": 7405,
      "Ġview": 7406,
      "ndikwa": 7407,
      "Ġsija": 7408,
      "Ġkushika": 7409,
      "Ġsnug": 7410,
      "Ġcompetiti": 7411,
      "à¦": 7412,
      "Hatua": 7413,
      "Mkurugenzi": 7414,
      "ince": 7415,
      "wanjani": 7416,
      "Amy": 7417,
      "Ġtathmini": 7418,
      "ndiko": 7419,
      "Ġradio": 7420,
      "Ġmkopo": 7421,
      "Ġmaelfu": 7422,
      "Ġalimu": 7423,
      "Ġstri": 7424,
      "Ġmaradhi": 7425,
      "Ġlifted": 7426,
      "Ġnk": 7427,
      "Ġurefu": 7428,
      "Ġkuwasilisha": 7429,
      "Ġcoins": 7430,
      "Ġwanne": 7431,
      "Ġegg": 7432,
      "Ġkufanywa": 7433,
      "Ġbanda": 7434,
      "stagram": 7435,
      "Ġmagharibi": 7436,
      "Kutokana": 7437,
      "rea": 7438,
      "Ġwhale": 7439,
      "ĠHili": 7440,
      "Ġanafanya": 7441,
      "Sue": 7442,
      "Ġuchafu": 7443,
      "atana": 7444,
      "Ġushu": 7445,
      "Ġloudly": 7446,
      "Ġkuifanya": 7447,
      "Ġabove": 7448,
      "Ġkuvunja": 7449,
      "ĠRed": 7450,
      "Ġmajira": 7451,
      "Ġpointing": 7452,
      "ĠMrs": 7453,
      "Ġkutoku": 7454,
      "Ġsquee": 7455,
      "Ġfigure": 7456,
      "ndependent": 7457,
      "Ġnur": 7458,
      "endera": 7459,
      "Ġwanapaswa": 7460,
      "Ġinatoa": 7461,
      "Ġhurts": 7462,
      "Ġmbio": 7463,
      "Ġsmoke": 7464,
      "Ġulivyo": 7465,
      "Ġ2022": 7466,
      "Ġchoose": 7467,
      "Ġkutembea": 7468,
      "Ġmjadala": 7469,
      "Ġwagon": 7470,
      "umili": 7471,
      "Ġupas": 7472,
      "Ġgrown": 7473,
      "Ġmiss": 7474,
      "Ġkunywa": 7475,
      "ĠTanganyika": 7476,
      "Ġweird": 7477,
      "Ġmarekebisho": 7478,
      "Ġknife": 7479,
      "Ġcher": 7480,
      "Ġgoat": 7481,
      "Ġicy": 7482,
      "Ġlaughs": 7483,
      "ĠVijana": 7484,
      "Ġmage": 7485,
      "Ġbald": 7486,
      "ishiwa": 7487,
      "Ġ2021": 7488,
      "Naye": 7489,
      "Ġkuwekeza": 7490,
      "Ġupasuaji": 7491,
      "andaa": 7492,
      "zer": 7493,
      "Ġori": 7494,
      "jaliwa": 7495,
      "Ġslipped": 7496,
      "Ġmapinduzi": 7497,
      "ĠSim": 7498,
      "Ġmwanzoni": 7499,
      "Ġbelonged": 7500,
      "rick": 7501,
      "Ġfright": 7502,
      "yi": 7503,
      "Ġrat": 7504,
      "Ġkuokoa": 7505,
      "andaliwa": 7506,
      "Ġaya": 7507,
      "Ġkufungwa": 7508,
      "ĠMay": 7509,
      "otoka": 7510,
      "Ġendelevu": 7511,
      "tajwa": 7512,
      "ĠAra": 7513,
      "Ġkaka": 7514,
      "ĠWayahudi": 7515,
      "Ġmchanganyiko": 7516,
      "ouses": 7517,
      "anganya": 7518,
      "hibitishwa": 7519,
      "ĠMadina": 7520,
      "GO": 7521,
      "nisa": 7522,
      "het": 7523,
      "Ġber": 7524,
      "Ġkusafiri": 7525,
      "Ġnormal": 7526,
      "Ġvema": 7527,
      "rundi": 7528,
      "Ġhelps": 7529,
      "Ġrecord": 7530,
      "dow": 7531,
      "Ġsafely": 7532,
      "cient": 7533,
      "Ġ90": 7534,
      "tiv": 7535,
      "Ġndo": 7536,
      "hamisi": 7537,
      "angulia": 7538,
      "Ġskin": 7539,
      "Ġkinga": 7540,
      "ĠIngawa": 7541,
      "fua": 7542,
      "Ġpipe": 7543,
      "Ġmole": 7544,
      "ĠMichezo": 7545,
      "ginal": 7546,
      "Ġcover": 7547,
      "wat": 7548,
      "Ġpombe": 7549,
      "Ġtakribani": 7550,
      "semekana": 7551,
      "Ġtusi": 7552,
      "Ġcircles": 7553,
      "rs": 7554,
      "Ġlow": 7555,
      "Ġknows": 7556,
      "umbuka": 7557,
      "chochea": 7558,
      "Ġkupeleka": 7559,
      "Em": 7560,
      "Katibu": 7561,
      "kosea": 7562,
      "Ġkuchunguza": 7563,
      "himiza": 7564,
      "hakiki": 7565,
      "anywa": 7566,
      "Ġbarabarani": 7567,
      "ĠPili": 7568,
      "ĠHaya": 7569,
      "Here": 7570,
      "Ġbrilli": 7571,
      "etezi": 7572,
      "ĠTUKO": 7573,
      "ance": 7574,
      "Ġmak": 7575,
      "Ġears": 7576,
      "Ġvisa": 7577,
      "Ġbuttons": 7578,
      "âĢĻ.": 7579,
      "Ġbitter": 7580,
      "Ġmitaa": 7581,
      "ĠKitty": 7582,
      "brahi": 7583,
      "Ġsemina": 7584,
      "Ġaweze": 7585,
      "Ġdiamond": 7586,
      "WANA": 7587,
      "tangaza": 7588,
      "Ġsumu": 7589,
      "ĠFin": 7590,
      "Ġgrace": 7591,
      "Ġfoo": 7592,
      "hudumu": 7593,
      "ĠKigoma": 7594,
      "atic": 7595,
      "Ġhom": 7596,
      "ĠBaadhi": 7597,
      "fahamika": 7598,
      "sababishwa": 7599,
      "soa": 7600,
      "Ġson": 7601,
      "Ġmelt": 7602,
      "nduliwa": 7603,
      "Ġkupo": 7604,
      "Ġnapenda": 7605,
      "ĠENG": 7606,
      "puko": 7607,
      "himili": 7608,
      "ishwe": 7609,
      "liable": 7610,
      "Ġcheerful": 7611,
      "Ġbrilliant": 7612,
      "yoni": 7613,
      "aribu": 7614,
      "Ġpainting": 7615,
      "28": 7616,
      "Ġhisa": 7617,
      "uzulu": 7618,
      "ping": 7619,
      "ĠKanda": 7620,
      "Ġakitoa": 7621,
      "Ġfoolish": 7622,
      "Ġoper": 7623,
      "Ġshinikizo": 7624,
      "Za": 7625,
      "ĠÃ": 7626,
      "Ġsayansi": 7627,
      "Ġweal": 7628,
      "mbulio": 7629,
      "Ġstudy": 7630,
      "wakilisha": 7631,
      "Ġedge": 7632,
      "uzito": 7633,
      "Ġufalme": 7634,
      "Ġshape": 7635,
      "bborn": 7636,
      "Ġdreams": 7637,
      "Ġkazini": 7638,
      "ĠMawa": 7639,
      "Mwaka": 7640,
      "Hivi": 7641,
      "ĠJumatano": 7642,
      "Ġkuthibitisha": 7643,
      "Ġkilikuwa": 7644,
      "Ġdolph": 7645,
      "Bwana": 7646,
      "Ġeti": 7647,
      "ĠIsa": 7648,
      "Ġvikosi": 7649,
      "Ġfalls": 7650,
      "ĠØ§ÙĦÙĦ": 7651,
      "Ġmavazi": 7652,
      "Ġrough": 7653,
      "Ġstubborn": 7654,
      "isimua": 7655,
      "==": 7656,
      "Ġdarasa": 7657,
      "âĢ¦âĢ¦âĢ¦âĢ¦": 7658,
      "itar": 7659,
      "ĠSana": 7660,
      "Ġspace": 7661,
      "hakikishia": 7662,
      "Ġtunnel": 7663,
      "Ġberries": 7664,
      "Ġufafanuzi": 7665,
      "arasi": 7666,
      "Ġsounded": 7667,
      "Ġbandari": 7668,
      "Ġdreamed": 7669,
      "Tume": 7670,
      "omy": 7671,
      "leza": 7672,
      "allah": 7673,
      "Ġuliofanyika": 7674,
      "Ġukaguzi": 7675,
      "Ġmixed": 7676,
      "ungwa": 7677,
      "wezekani": 7678,
      "Ġisland": 7679,
      "Ġhouses": 7680,
      "ĠYour": 7681,
      "ĠHifadhi": 7682,
      "Ġhats": 7683,
      "Ġuseful": 7684,
      "Ġjari": 7685,
      "ĠBobby": 7686,
      "lot": 7687,
      "Ġhuna": 7688,
      "Ġyet": 7689,
      "Ġbossy": 7690,
      "ĠNj": 7691,
      "harani": 7692,
      "TAN": 7693,
      "Ġhumu": 7694,
      "Ġwalls": 7695,
      "Ġkufikiria": 7696,
      "Ġcabin": 7697,
      "ï¼": 7698,
      "erce": 7699,
      "ĠIkulu": 7700,
      "Ġsni": 7701,
      "shion": 7702,
      "Ġkwenu": 7703,
      "ention": 7704,
      "Ġvol": 7705,
      "Ġwamet": 7706,
      "Ġwawekezaji": 7707,
      "ĠPete": 7708,
      "Ġmasaa": 7709,
      "Ġcamera": 7710,
      "Ġkinds": 7711,
      "Ġpor": 7712,
      "Ġreliable": 7713,
      "Ġdead": 7714,
      "ĠWatoto": 7715,
      "Ġnawa": 7716,
      "ĠKorea": 7717,
      "Ġtools": 7718,
      "Ġaccept": 7719,
      "Ġbrothers": 7720,
      "ĠKilimanjaro": 7721,
      "ependable": 7722,
      "Ġmua": 7723,
      "Ġlini": 7724,
      "ĠFacebook": 7725,
      "Ġmsamaha": 7726,
      "anishi": 7727,
      "Ġumbali": 7728,
      "ĠAlice": 7729,
      "ĠMike": 7730,
      "SION": 7731,
      "ron": 7732,
      "tazama": 7733,
      "ĠAyubu": 7734,
      "ĠSan": 7735,
      "tiki": 7736,
      "kimu": 7737,
      "Ġindependent": 7738,
      "Ø§Ø": 7739,
      "dhaifu": 7740,
      "Ġclap": 7741,
      "oe": 7742,
      "Ġalipata": 7743,
      "Ġ2009": 7744,
      "EA": 7745,
      "ĠMfuko": 7746,
      "Ġnambari": 7747,
      "kumba": 7748,
      "Ġmfuko": 7749,
      "ĠKagera": 7750,
      "oyo": 7751,
      "Ġmzazi": 7752,
      "Ġmimea": 7753,
      "Ġubunifu": 7754,
      "Ġchao": 7755,
      "Ġmaskini": 7756,
      "fundi": 7757,
      "Ġscreen": 7758,
      "Ġjacket": 7759,
      "umbua": 7760,
      "Ġkutuma": 7761,
      "chapisha": 7762,
      "EC": 7763,
      "laimed": 7764,
      "Ġshells": 7765,
      "Ġturtle": 7766,
      "habiti": 7767,
      "Ġkuhu": 7768,
      "itto": 7769,
      "yoya": 7770,
      "Ġkifungu": 7771,
      "Ġmisha": 7772,
      "Ġfikra": 7773,
      "ĠNdani": 7774,
      "thman": 7775,
      "wasilisha": 7776,
      "Ġsupport": 7777,
      "Mtu": 7778,
      "elling": 7779,
      "Ġproudly": 7780,
      "DU": 7781,
      "Ġdependable": 7782,
      "ĠJakaya": 7783,
      "Ġkub": 7784,
      "rau": 7785,
      "ĠLowassa": 7786,
      "ssi": 7787,
      "Ġways": 7788,
      "Ġnosy": 7789,
      "ambulisha": 7790,
      "rican": 7791,
      "edient": 7792,
      "Ġjinsia": 7793,
      "Go": 7794,
      "Ġkabila": 7795,
      "rudisha": 7796,
      ":-": 7797,
      "Ġlikizo": 7798,
      "mbeni": 7799,
      "Ġmwongozo": 7800,
      "Ġexclaimed": 7801,
      "ARIFA": 7802,
      "Ġalii": 7803,
      "Ġinaonekana": 7804,
      "ĠVER": 7805,
      "Ġharder": 7806,
      "Ġcrack": 7807,
      "ĠMita": 7808,
      "Ġkihistoria": 7809,
      "Ġstronger": 7810,
      "ĠManispaa": 7811,
      "eknolojia": 7812,
      "Ġutakao": 7813,
      "wers": 7814,
      "Ġgum": 7815,
      "Ġbodi": 7816,
      "Ġfra": 7817,
      "Ġ31": 7818,
      "ĠMadini": 7819,
      "ĠAnt": 7820,
      "Ġreli": 7821,
      "Ġjog": 7822,
      "Ġkipaumbele": 7823,
      "Ġcud": 7824,
      "ĠMaal": 7825,
      "ĠStars": 7826,
      "Ne": 7827,
      "Ġukim": 7828,
      "uty": 7829,
      "Ġunacho": 7830,
      "Ġfierce": 7831,
      "Ġroof": 7832,
      "pid": 7833,
      "pers": 7834,
      "imbaji": 7835,
      "Ġexplored": 7836,
      "Ġescape": 7837,
      "Ġkiji": 7838,
      "Ġstream": 7839,
      "tembelea": 7840,
      "Ġmwenendo": 7841,
      "Ġuwanjani": 7842,
      "Ġleseni": 7843,
      "Li": 7844,
      "Ġwashirika": 7845,
      "Ġshuleni": 7846,
      "adhimisho": 7847,
      "fanyabiashara": 7848,
      "Ġjoined": 7849,
      "Wat": 7850,
      "ĠAma": 7851,
      "ambatana": 7852,
      "ĠArsenal": 7853,
      "Da": 7854,
      "zil": 7855,
      "Ġinafanya": 7856,
      "Ġthemselves": 7857,
      "Ġpana": 7858,
      "Ġuteuzi": 7859,
      "pesi": 7860,
      "isini": 7861,
      "Ġsare": 7862,
      "Ġulipo": 7863,
      "wawa": 7864,
      "Ġstumbled": 7865,
      "uable": 7866,
      "Ġlean": 7867,
      "Ġudongo": 7868,
      "Ġfrightened": 7869,
      "Ġavo": 7870,
      "Ġwapya": 7871,
      "rist": 7872,
      "Ġguitar": 7873,
      "ĠNemo": 7874,
      "Ġ$": 7875,
      "iana": 7876,
      "faulu": 7877,
      "Ġbushes": 7878,
      "ÅĵLet": 7879,
      "Ġfresh": 7880,
      "Ġkuongea": 7881,
      "rabati": 7882,
      "Ġmwanam": 7883,
      "onyesho": 7884,
      "Ġ2008": 7885,
      "Ġkuchang": 7886,
      "Ġvigezo": 7887,
      "Ġhadharani": 7888,
      "Ġnotice": 7889,
      "ĠVita": 7890,
      "Ġuweze": 7891,
      "Ġkuibu": 7892,
      "Ġchuki": 7893,
      "Ġlights": 7894,
      "Ġtrunk": 7895,
      "Bi": 7896,
      "pati": 7897,
      "ĠPwani": 7898,
      "achwa": 7899,
      "Ġinvited": 7900,
      "cka": 7901,
      "ĠAnge": 7902,
      "Ġweek": 7903,
      "Ġmizigo": 7904,
      "ĠElla": 7905,
      "oby": 7906,
      "known": 7907,
      "ĠTra": 7908,
      "host": 7909,
      "Ġbags": 7910,
      "Ġwanaoishi": 7911,
      "Ġrece": 7912,
      "epusha": 7913,
      "real": 7914,
      "ĠCla": 7915,
      "peri": 7916,
      "Ġclay": 7917,
      "Unaweza": 7918,
      "Ġoriginal": 7919,
      "ĠMart": 7920,
      "Ġbuilt": 7921,
      "Ġshowing": 7922,
      "Ġpebble": 7923,
      "ĠHai": 7924,
      "eneza": 7925,
      "Ġmashamba": 7926,
      "ĠBurundi": 7927,
      "Ġvaluable": 7928,
      "Ġyafuatayo": 7929,
      "Ġalip": 7930,
      "Ġalianza": 7931,
      "Ġwizi": 7932,
      "pole": 7933,
      "daka": 7934,
      "kamilifu": 7935,
      "ĠMadrid": 7936,
      "Ġpractice": 7937,
      "haribika": 7938,
      "Ġmadogo": 7939,
      "Ġmatakwa": 7940,
      "Ġsuggested": 7941,
      "Ġsuccessful": 7942,
      "Ġterri": 7943,
      "ĠENGLISH": 7944,
      "ĠVERSION": 7945,
      "Ġsaratani": 7946,
      "ĠMaana": 7947,
      "Ġancient": 7948,
      "chukue": 7949,
      "eruhiwa": 7950,
      "hehebu": 7951,
      "DC": 7952,
      "uro": 7953,
      "Ġujauzito": 7954,
      "Ġobedient": 7955,
      "Ùĭ": 7956,
      "Ġunlo": 7957,
      "Ġhuz": 7958,
      "arajio": 7959,
      "Ġscare": 7960,
      "Ġushawishi": 7961,
      "national": 7962,
      "Ġuny": 7963,
      "Ġcheer": 7964,
      "Ġwenyeji": 7965,
      "ĠWanawake": 7966,
      "atasi": 7967,
      "Ġbrightly": 7968,
      "ĠMiss": 7969,
      "Ġparrot": 7970,
      "Ġkero": 7971,
      "Ġbeet": 7972,
      "Im": 7973,
      "Ġwaasi": 7974,
      "ĠMaj": 7975,
      "chimbaji": 7976,
      "brahim": 7977,
      "hami": 7978,
      "Ġpun": 7979,
      "fuatia": 7980,
      "Ġenorm": 7981,
      "wafanya": 7982,
      "ĠMed": 7983,
      "Ġzima": 7984,
      "Ġcop": 7985,
      "ĠSeif": 7986,
      "Ġhatia": 7987,
      "ĠMikoa": 7988,
      "Ġenormous": 7989,
      "bakia": 7990,
      "Ġregu": 7991,
      "chel": 7992,
      "Ġphoto": 7993,
      "Ġsijui": 7994,
      "Ġmifano": 7995,
      "Ġthoughtful": 7996,
      "ĠChelsea": 7997,
      "Ġfingers": 7998,
      "Ġkelele": 7999,
      "lana": 8000,
      "ĠSun": 8001,
      "Ġtwig": 8002,
      "Ġreminded": 8003,
      "Ġfountain": 8004,
      "ĠSm": 8005,
      "Ġnde": 8006,
      "Ġsmaller": 8007,
      "Ġhaikuwa": 8008,
      "Ġcomfort": 8009,
      "undwa": 8010,
      "Ġtummy": 8011,
      "Ġsomo": 8012,
      "zali": 8013,
      "isted": 8014,
      "Ġnataka": 8015,
      "Ġkidato": 8016,
      "etokea": 8017,
      "Ġspinning": 8018,
      "Ġdelighted": 8019,
      "ĠSomalia": 8020,
      "Ġrescu": 8021,
      "Ġcrayon": 8022,
      "Ġagizo": 8023,
      "Ġexcitedly": 8024,
      "ĠSaid": 8025,
      "Ġjipya": 8026,
      "ĠSophi": 8027,
      "Ġchanged": 8028,
      "age": 8029,
      "ĠTali": 8030,
      "ingizwa": 8031,
      "ishna": 8032,
      "ĠUtawala": 8033,
      "Ġkupende": 8034,
      "Ġwiped": 8035,
      "Ġnalo": 8036,
      "Ġtukufu": 8037,
      "chie": 8038,
      "ĠAskofu": 8039,
      "Ġengine": 8040,
      "Ġkombe": 8041,
      "rop": 8042,
      "Mwandishi": 8043,
      "Ġpoured": 8044,
      "ĠHus": 8045,
      "Ġstatu": 8046,
      "Ġcounted": 8047,
      "Ġspoiled": 8048,
      "Ġbounce": 8049,
      "Ġadmired": 8050,
      "zote": 8051,
      "Ġnikiwa": 8052,
      "ĠBer": 8053,
      "ĠMaa": 8054,
      "gile": 8055,
      "mit": 8056,
      "Ġtafsiri": 8057,
      "ĠUtalii": 8058,
      "Chanzo": 8059,
      "kira": 8060,
      "ĠBet": 8061,
      "ĠCon": 8062,
      "Ġpopu": 8063,
      "Ġushirika": 8064,
      "Ġtuweze": 8065,
      "Ġmiili": 8066,
      "Ġmgumu": 8067,
      "Ġchanjo": 8068,
      "How": 8069,
      "unzi": 8070,
      "ĠKil": 8071,
      "Ġhatuna": 8072,
      "ĠWhenever": 8073,
      "anzibari": 8074,
      "ridhisha": 8075,
      "Ġmsichana": 8076,
      "Uta": 8077,
      "Ġtank": 8078,
      "Ġstove": 8079,
      "Ġ300": 8080,
      "Ġkuzu": 8081,
      "Ġburudani": 8082,
      "Ġmaduka": 8083,
      "Bo": 8084,
      "jam": 8085,
      "ndarasi": 8086,
      "ĠUni": 8087,
      "ĠMus": 8088,
      "Ġdelicate": 8089,
      "gest": 8090,
      "time": 8091,
      "essi": 8092,
      "Ġhutumia": 8093,
      "Ġbeak": 8094,
      "Ġkicked": 8095,
      "Ġkimsingi": 8096,
      "ppo": 8097,
      "Ġalizo": 8098,
      "Ġshone": 8099,
      "hesabu": 8100,
      "80": 8101,
      "keeper": 8102,
      "ĠDuniani": 8103,
      "ĠTaarifa": 8104,
      "Ġmaagizo": 8105,
      "berries": 8106,
      "Ġflute": 8107,
      "hitimu": 8108,
      "Ġmapa": 8109,
      "tuna": 8110,
      "Ġrode": 8111,
      "Ġkuf": 8112,
      "Ġshadow": 8113,
      "ĠFrancis": 8114,
      "Ġwacha": 8115,
      "Ġwapenzi": 8116,
      "Ġlocked": 8117,
      "Source": 8118,
      "vita": 8119,
      "umbile": 8120,
      "Ġwanapata": 8121,
      "Ġchose": 8122,
      "Ġilivyokuwa": 8123,
      "Ġmtihani": 8124,
      "Ġsolve": 8125,
      "onekano": 8126,
      "ai": 8127,
      "Ġnakala": 8128,
      "Ġrose": 8129,
      "roni": 8130,
      "ĠJiji": 8131,
      "ĠOdinga": 8132,
      "Ġnurse": 8133,
      "cus": 8134,
      "corn": 8135,
      "turi": 8136,
      "stani": 8137,
      "Ġmajadili": 8138,
      "ĠVile": 8139,
      "futwa": 8140,
      "KT": 8141,
      "Ġdest": 8142,
      "Ġzama": 8143,
      "gging": 8144,
      "Ġsearching": 8145,
      "hata": 8146,
      "Ġforth": 8147,
      "firisha": 8148,
      "Ġscrat": 8149,
      "alisema": 8150,
      "Ġmagnet": 8151,
      "Kutoka": 8152,
      "57": 8153,
      "umilia": 8154,
      "Ġnyinyi": 8155,
      "ices": 8156,
      "Ġfinding": 8157,
      "Ġorder": 8158,
      "Ġthir": 8159,
      "Ġkubeba": 8160,
      "enry": 8161,
      "Ġclock": 8162,
      "ÙĪØ§": 8163,
      "isu": 8164,
      "kuzwa": 8165,
      "ĠKia": 8166,
      "âĢĺ": 8167,
      "Ġreading": 8168,
      "Ġdoesn": 8169,
      "Ġwealthy": 8170,
      "Ġkuwezesha": 8171,
      "ĠRas": 8172,
      "Ġmk": 8173,
      "Ġbees": 8174,
      "Ġkuwania": 8175,
      "ĠInjili": 8176,
      "hoo": 8177,
      "amuru": 8178,
      "ĠTafadhali": 8179,
      "Ġunknown": 8180,
      "jitolea": 8181,
      "Ġmajadiliano": 8182,
      "Ms": 8183,
      "Ġgoose": 8184,
      "Ġnature": 8185,
      "Ġoc": 8186,
      "Ġraha": 8187,
      "angwa": 8188,
      "Ġhawakuwa": 8189,
      "Ġrushed": 8190,
      "Ġreg": 8191,
      "Ġmwendo": 8192,
      "Ġtasnia": 8193,
      ".âĢĻ": 8194,
      "uel": 8195,
      "Ġua": 8196,
      "pool": 8197,
      "ĠWewe": 8198,
      "ĠMohammed": 8199,
      "Ġsuluhisho": 8200,
      "athi": 8201,
      "Ġshetani": 8202,
      "Ġsina": 8203,
      "Ġraced": 8204,
      "Ġstairs": 8205,
      "Ġcleaning": 8206,
      "Ġblog": 8207,
      "Ġyarn": 8208,
      "Ġuelewa": 8209,
      "Ġiliyot": 8210,
      "atoliki": 8211,
      "Ġminne": 8212,
      "Ġsalad": 8213,
      "Ġstrugg": 8214,
      "ĠApp": 8215,
      "ĠPr": 8216,
      "CT": 8217,
      "skini": 8218,
      "ĠMsi": 8219,
      "Ġwalisema": 8220,
      "Ġshark": 8221,
      "Ġ500": 8222,
      "ĠIraq": 8223,
      "cture": 8224,
      "Ġhalf": 8225,
      "ĠFA": 8226,
      "Ġ70": 8227,
      "Ġpicking": 8228,
      "Ġkuruhusu": 8229,
      "Ġwrap": 8230,
      "Ġstretch": 8231,
      "Ġdist": 8232,
      "Ġwasiliana": 8233,
      "Ġmaadui": 8234,
      "verse": 8235,
      "Ġmicha": 8236,
      "Ġzip": 8237,
      "Ġuliyo": 8238,
      "Ġwakim": 8239,
      "Ġ80": 8240,
      "yya": 8241,
      "Ġyapo": 8242,
      "Ġago": 8243,
      "Ġmbi": 8244,
      "âĢĻ,": 8245,
      "Ġpumpkin": 8246,
      "Ġtooth": 8247,
      "Ġuwazi": 8248,
      "chukia": 8249,
      "Ġrufaa": 8250,
      "Ġsauce": 8251,
      "''": 8252,
      "ĠBan": 8253,
      "Ġtaka": 8254,
      "ĠRes": 8255,
      "Ġgiza": 8256,
      "Ġsnee": 8257,
      "Ġregular": 8258,
      "atter": 8259,
      "ÙĬÙĨ": 8260,
      "ĠWakenya": 8261,
      "Ġfragile": 8262,
      "ens": 8263,
      "Ġmioyo": 8264,
      "dege": 8265,
      "Ġnicely": 8266,
      "Ġwenzao": 8267,
      "Ġallowed": 8268,
      "zanzibari": 8269,
      "ellig": 8270,
      "Ġenvelo": 8271,
      "Ġgrand": 8272,
      "Ġtoast": 8273,
      "Ġiweze": 8274,
      "Ġmarble": 8275,
      "Ġapologi": 8276,
      "Ġmaovu": 8277,
      "Ġukatili": 8278,
      "ĠDola": 8279,
      "stri": 8280,
      "Ġpack": 8281,
      "Ġmgeni": 8282,
      "Ġkuonesha": 8283,
      "Ġninge": 8284,
      "Ġbiggest": 8285,
      "Ġkupima": 8286,
      "Ġmchanga": 8287,
      "opia": 8288,
      "ENYE": 8289,
      "oot": 8290,
      "Ġoperesheni": 8291,
      "ĠItalia": 8292,
      "Ġbeetle": 8293,
      "bishwa": 8294,
      "omita": 8295,
      "ĠAwa": 8296,
      "Ġinawa": 8297,
      "Ġkupum": 8298,
      "swada": 8299,
      "Ġplayful": 8300,
      "ĠNgu": 8301,
      "Ġpotato": 8302,
      "Ġpirate": 8303,
      "Ø¬": 8304,
      "Ġkushangaza": 8305,
      "Ġhay": 8306,
      "atili": 8307,
      "Ġsadaka": 8308,
      "Ġzana": 8309,
      "Ġsuper": 8310,
      "ĠKuhusu": 8311,
      "Ġchirp": 8312,
      "Ġwenzetu": 8313,
      "Ġwander": 8314,
      "Ġkug": 8315,
      "Ġnae": 8316,
      "Ġtani": 8317,
      "Ġmodern": 8318,
      "Ġkuvi": 8319,
      "Ġkufikiri": 8320,
      "Ġclum": 8321,
      "pungu": 8322,
      "Ġdove": 8323,
      "Kuhusu": 8324,
      "staa": 8325,
      "zingatiwa": 8326,
      "Ġmajeshi": 8327,
      "Ġkukamilika": 8328,
      "Ġula": 8329,
      "ĠPicha": 8330,
      "onyeshwa": 8331,
      "ctory": 8332,
      "otajwa": 8333,
      "Ġstupid": 8334,
      "tumikia": 8335,
      "Ġumaarufu": 8336,
      "Ġpopcorn": 8337,
      "ĠNam": 8338,
      "Ġseeds": 8339,
      "Ġsniff": 8340,
      "Ime": 8341,
      "zimu": 8342,
      "ĠAki": 8343,
      "Ġjet": 8344,
      "roy": 8345,
      "Mwenyekiti": 8346,
      "Kwenye": 8347,
      "See": 8348,
      "Ġmwanachama": 8349,
      "ĠNdugu": 8350,
      "Ġkadiri": 8351,
      "ĠLook": 8352,
      "pota": 8353,
      "Ġhairy": 8354,
      "Ġkudumisha": 8355,
      "Ġangel": 8356,
      "rocodi": 8357,
      "IA": 8358,
      "ĠBill": 8359,
      "Ġmetal": 8360,
      "Ġmisitu": 8361,
      "Ġpasipo": 8362,
      "Ġtelling": 8363,
      "Ġucha": 8364,
      "ĠPetro": 8365,
      "Ġpean": 8366,
      "ĠViongozi": 8367,
      "Ġguard": 8368,
      "Kulingana": 8369,
      "Ġer": 8370,
      "issu": 8371,
      "ĠBay": 8372,
      "Ġ35": 8373,
      "fuatavyo": 8374,
      "Ġmumewe": 8375,
      "Ġnuru": 8376,
      "ĠDucky": 8377,
      "nan": 8378,
      "Ġwitch": 8379,
      "Ġuaminifu": 8380,
      "ĠSheikh": 8381,
      "ĠØ¥": 8382,
      "Ġusafirishaji": 8383,
      "ilty": 8384,
      "!\".": 8385,
      "verpool": 8386,
      "Ġlinaweza": 8387,
      "fish": 8388,
      "ĠWale": 8389,
      "Ġdesk": 8390,
      "Tanzania": 8391,
      "Ġkukataa": 8392,
      "Ġumb": 8393,
      "Ġdough": 8394,
      "Ġencou": 8395,
      "Ġrubb": 8396,
      "Ġthirsty": 8397,
      "Ġale": 8398,
      "Ġpige": 8399,
      "lona": 8400,
      "ĠAya": 8401,
      "Ġtunapo": 8402,
      "Ġstage": 8403,
      "rella": 8404,
      "Ġguilty": 8405,
      "Ġdull": 8406,
      "ĠBobo": 8407,
      "Ġpasta": 8408,
      "Ġboats": 8409,
      "Ġcountry": 8410,
      "Ġbak": 8411,
      "Ġpainted": 8412,
      "Ġubingwa": 8413,
      "ĠImamu": 8414,
      "Ġpattern": 8415,
      "Ġzilizopita": 8416,
      "Ġcarrying": 8417,
      "Ġnidhamu": 8418,
      "Ġhavi": 8419,
      "Ġtravel": 8420,
      "Ġdesign": 8421,
      "ither": 8422,
      "rey": 8423,
      "Ġmago": 8424,
      "ĠKina": 8425,
      "Ġanapaswa": 8426,
      "nyasa": 8427,
      "ĠDave": 8428,
      "Ġpopular": 8429,
      "nja": 8430,
      "Ġmakusudi": 8431,
      "humuni": 8432,
      "Ġrug": 8433,
      "Ġhandle": 8434,
      "Ġhammer": 8435,
      "Ġterrible": 8436,
      "heri": 8437,
      "ĠBella": 8438,
      "icket": 8439,
      "Ġending": 8440,
      "ĠMatumizi": 8441,
      "ĠMradi": 8442,
      "choka": 8443,
      "Ġununuzi": 8444,
      "ĠHuu": 8445,
      "Ġprize": 8446,
      "sco": 8447,
      "kete": 8448,
      "Ġlis": 8449,
      "shirikiana": 8450,
      "Ġmissing": 8451,
      "ĠMwandishi": 8452,
      "Ġlollipo": 8453,
      "Ġsnugg": 8454,
      "ZANI": 8455,
      "Ġmachafu": 8456,
      "Ġreward": 8457,
      "Ġclumsy": 8458,
      "ij": 8459,
      "ishio": 8460,
      "Ġwamesema": 8461,
      "Ġtruth": 8462,
      "Ġamewataka": 8463,
      "Ġtomato": 8464,
      "Ġnumbers": 8465,
      "Mbali": 8466,
      "Ġbump": 8467,
      "Ġstops": 8468,
      "Ġwindows": 8469,
      "Ġzinazot": 8470,
      "Ġcrocodi": 8471,
      "ĠMkoani": 8472,
      "Ġscatter": 8473,
      "hitim": 8474,
      "Sh": 8475,
      "bingwa": 8476,
      "Ġheli": 8477,
      "tuko": 8478,
      "shikilia": 8479,
      "Ġinapaswa": 8480,
      "Ġleaving": 8481,
      "SU": 8482,
      "Ġkiini": 8483,
      "ĠEx": 8484,
      "inyanga": 8485,
      "Ġquestion": 8486,
      "Ġmauzo": 8487,
      "Ġaku": 8488,
      "Ġcareless": 8489,
      "Ġjolly": 8490,
      "lestina": 8491,
      "29": 8492,
      "Ġhawata": 8493,
      "Ġbeauty": 8494,
      "Ġmagazeti": 8495,
      "Ġintellig": 8496,
      "Ġingredi": 8497,
      "ghet": 8498,
      "husishwa": 8499,
      "mpa": 8500,
      "Ġinter": 8501,
      "Ġhoop": 8502,
      "Ġpacka": 8503,
      "ĠHiyo": 8504,
      "Ġustawi": 8505,
      "Chu": 8506,
      "ĠMaisha": 8507,
      "Ġze": 8508,
      "Ġwhisp": 8509,
      "Ġcomplete": 8510,
      "ĠTuli": 8511,
      "Ġwashed": 8512,
      "Ġsaini": 8513,
      "ĠUme": 8514,
      "dinary": 8515,
      "DM": 8516,
      "ola": 8517,
      "Ġwaj": 8518,
      "Ġlishe": 8519,
      "Ġdestroy": 8520,
      "!âĢĿ": 8521,
      "saidie": 8522,
      "arafu": 8523,
      "Ġanajua": 8524,
      "Ġfau": 8525,
      "Ġhanded": 8526,
      "Ġdriving": 8527,
      "Ġwhispered": 8528,
      "Ġkumalizika": 8529,
      "zindua": 8530,
      "Ġsofa": 8531,
      "ghetti": 8532,
      "Ġudhaifu": 8533,
      "Ġutapata": 8534,
      "harini": 8535,
      "Ġflexi": 8536,
      "Ġflashlight": 8537,
      "safa": 8538,
      "Ġbirdie": 8539,
      "Ġholds": 8540,
      "Ġsleeping": 8541,
      "chunguzi": 8542,
      "yasema": 8543,
      "rina": 8544,
      "Ġhuman": 8545,
      "Ġmatarajio": 8546,
      "jiriwa": 8547,
      "Ġumbrella": 8548,
      "ĠMazingira": 8549,
      "rdhi": 8550,
      "Pa": 8551,
      "Ġnyo": 8552,
      "Ġharusi": 8553,
      "Ġtaaluma": 8554,
      "Ġkutetea": 8555,
      "Ġten": 8556,
      "omesha": 8557,
      "ween": 8558,
      "Ġkipengele": 8559,
      "liasili": 8560,
      "Ġspeed": 8561,
      "ĠKitabu": 8562,
      "Ġhuzuni": 8563,
      "Ġkuunganisha": 8564,
      "Ġuendeshaji": 8565,
      "Ġearth": 8566,
      "Ġagree": 8567,
      "Ġkuchukuliwa": 8568,
      "ĠIbrahim": 8569,
      "Ġload": 8570,
      "ĠNjia": 8571,
      "Ġarrow": 8572,
      "china": 8573,
      "ĠØª": 8574,
      "ĠCongo": 8575,
      "Ġusambazaji": 8576,
      "Ġcheap": 8577,
      "Ġpersist": 8578,
      "ANGA": 8579,
      "umilivu": 8580,
      "liwe": 8581,
      "ĠAsia": 8582,
      "Ġearly": 8583,
      "Ġthinking": 8584,
      "Ġkipya": 8585,
      "Ġmoyoni": 8586,
      "ÙĪÙĨ": 8587,
      "Ġkujitokeza": 8588,
      "ky": 8589,
      "ĠMada": 8590,
      "ĠAre": 8591,
      "Ġdreaming": 8592,
      "Is": 8593,
      "UN": 8594,
      "Ġot": 8595,
      "Ġcri": 8596,
      "Ġrepa": 8597,
      "Kabla": 8598,
      "you": 8599,
      "Ġclub": 8600,
      "Ġbaya": 8601,
      "gie": 8602,
      "ÅĵWhat": 8603,
      "Ġkushuka": 8604,
      "Ġspaghetti": 8605,
      "Ġkujitolea": 8606,
      "Ġlizard": 8607,
      "ulize": 8608,
      "Ġkitengo": 8609,
      "Ġkupigwa": 8610,
      "Ġmshahara": 8611,
      "ï¼Į": 8612,
      "Ġsink": 8613,
      "right": 8614,
      "Ġexperi": 8615,
      "Ġopens": 8616,
      "kimbilia": 8617,
      "ndami": 8618,
      "Ġblin": 8619,
      "ĠTFF": 8620,
      "mvi": 8621,
      "Ġticket": 8622,
      "ĠTabora": 8623,
      "bal": 8624,
      "Ġkusisimua": 8625,
      "Ġpembeni": 8626,
      "zid": 8627,
      "Ġcone": 8628,
      "Ġhela": 8629,
      "unu": 8630,
      "Ġreturn": 8631,
      "36": 8632,
      "Ya": 8633,
      "Ġkubaki": 8634,
      "ondon": 8635,
      "fuatazo": 8636,
      "ressive": 8637,
      "Ġobject": 8638,
      "nusha": 8639,
      "Ġkuua": 8640,
      "ĠWhile": 8641,
      "robe": 8642,
      "Ġwataalam": 8643,
      "Nyumba": 8644,
      "ĠHere": 8645,
      "sabu": 8646,
      "ĠCA": 8647,
      "Ġcupboard": 8648,
      "wo": 8649,
      "Ġkuit": 8650,
      "ĠPombe": 8651,
      "ĠJijini": 8652,
      "ambie": 8653,
      "Ġlemon": 8654,
      "Ġkufurahia": 8655,
      "UNGU": 8656,
      "Ġpeeked": 8657,
      "aji": 8658,
      "ĠMeneja": 8659,
      "Ġkuwafanya": 8660,
      "Ġtajiri": 8661,
      "Ġmajimbo": 8662,
      "Ġtiketi": 8663,
      "45": 8664,
      "Ġwatano": 8665,
      "Ġadvice": 8666,
      "Ġmailbox": 8667,
      "thiopia": 8668,
      "Ġflexible": 8669,
      "sher": 8670,
      "Ġuhali": 8671,
      "ĠMicha": 8672,
      "CH": 8673,
      "funi": 8674,
      "now": 8675,
      "ĠMO": 8676,
      "Ġcereal": 8677,
      "Ġthunder": 8678,
      "Ġava": 8679,
      "Ġfriendship": 8680,
      "teua": 8681,
      "ĠLindi": 8682,
      "vunjika": 8683,
      "Ye": 8684,
      "pard": 8685,
      "zisha": 8686,
      "Ġsend": 8687,
      "ĠMummy": 8688,
      "ĠKwenye": 8689,
      "stal": 8690,
      "kusudia": 8691,
      "Ġmashuhuri": 8692,
      "Mary": 8693,
      "lafu": 8694,
      "Ġmachache": 8695,
      "Ġaliongeza": 8696,
      "Ġ2007": 8697,
      "ĠEllie": 8698,
      "Ġkimwili": 8699,
      "Ġnut": 8700,
      "Ġzikiwa": 8701,
      "Ġhelmet": 8702,
      "Ġhapana": 8703,
      "ÅĵIt": 8704,
      "etoka": 8705,
      "ĠNyumba": 8706,
      "Ġsudden": 8707,
      "Sha": 8708,
      "basi": 8709,
      "umbo": 8710,
      "Ġtafadhali": 8711,
      "Ġrema": 8712,
      "ĠYork": 8713,
      "Ġwaliot": 8714,
      "ĠAlhamisi": 8715,
      "mikali": 8716,
      "Ġdolphin": 8717,
      "CE": 8718,
      "ĠAk": 8719,
      "jiandaa": 8720,
      "Ġkurasa": 8721,
      "Ġzimekuwa": 8722,
      "If": 8723,
      "Nchi": 8724,
      "Ġmm": 8725,
      "ats": 8726,
      "ĠNishati": 8727,
      "Ġsparkled": 8728,
      "Ġscale": 8729,
      "Ġenvelope": 8730,
      "Ga": 8731,
      "].": 8732,
      "Ġnu": 8733,
      "ĠUki": 8734,
      "Ġzit": 8735,
      "Ġmeal": 8736,
      "ĠZitto": 8737,
      "lalamika": 8738,
      "brary": 8739,
      "Ġwarned": 8740,
      "ĠKutoka": 8741,
      "Ġmishahara": 8742,
      "Ġonline": 8743,
      "Ġstation": 8744,
      "Ġitaendelea": 8745,
      "Ġunya": 8746,
      "Ġmaandiko": 8747,
      "Ġcreate": 8748,
      "Ġmboga": 8749,
      "ĠMapato": 8750,
      "ĠEngland": 8751,
      "Ġgraceful": 8752,
      "Ġwalizo": 8753,
      "ĠMusta": 8754,
      "harakati": 8755,
      "Ġingredients": 8756,
      "'.": 8757,
      "dled": 8758,
      "Ġseli": 8759,
      "ĠDA": 8760,
      "Ġrubbed": 8761,
      "Ġimagined": 8762,
      "Ġbent": 8763,
      "Ġutaona": 8764,
      "Ġcheo": 8765,
      "Ġumaskini": 8766,
      "Mt": 8767,
      "ĠMoja": 8768,
      "ĠWangu": 8769,
      "gonga": 8770,
      "Ġmwema": 8771,
      "Id": 8772,
      "zizi": 8773,
      "irit": 8774,
      "Ġtunayo": 8775,
      "Ġgem": 8776,
      "While": 8777,
      "kitisha": 8778,
      "lioni": 8779,
      "bainika": 8780,
      "Ġvipengele": 8781,
      "ĠSamia": 8782,
      "ungana": 8783,
      "Ġtied": 8784,
      "ĠSingida": 8785,
      "Ġjug": 8786,
      "ĠKiongozi": 8787,
      "funze": 8788,
      "funuo": 8789,
      "Ġcompas": 8790,
      "Ġcrazy": 8791,
      "Ġumakini": 8792,
      "Ġubaguzi": 8793,
      "Ġkilomita": 8794,
      "ĠAbdallah": 8795,
      "SO": 8796,
      "ense": 8797,
      "Ġspilled": 8798,
      "Ġ)": 8799,
      "Ġmpa": 8800,
      "Ġvikuu": 8801,
      "Ġstranger": 8802,
      "PP": 8803,
      "rch": 8804,
      "nayo": 8805,
      "Ġplaced": 8806,
      "Ġkumt": 8807,
      "Ġnilivyo": 8808,
      "letwa": 8809,
      "haha": 8810,
      "Ġtowers": 8811,
      "Ġbase": 8812,
      "Ġradhi": 8813,
      "ĠAfisa": 8814,
      "Ġkutakuwa": 8815,
      "Ġgrowing": 8816,
      "jiza": 8817,
      "Ġspring": 8818,
      "angazia": 8819,
      "Ġuncom": 8820,
      "Ġnyaraka": 8821,
      "Ġkurejesha": 8822,
      "Ġkulipwa": 8823,
      "akimu": 8824,
      "Ġpenny": 8825,
      "ridhika": 8826,
      "Ġvinginevyo": 8827,
      "Ġcelebrate": 8828,
      "cial": 8829,
      "lali": 8830,
      "Ġziko": 8831,
      "fikiwa": 8832,
      "Ġchance": 8833,
      "Ġmel": 8834,
      "ndoa": 8835,
      "Ġhesabu": 8836,
      "ĠRam": 8837,
      "Ġsorts": 8838,
      "Ġwhist": 8839,
      "cop": 8840,
      "ÅĵLetÃ¢": 8841,
      "ĠArdhi": 8842,
      "Ġtuwe": 8843,
      "igizaji": 8844,
      "hadija": 8845,
      "zishi": 8846,
      "orant": 8847,
      "ĠDani": 8848,
      "imaji": 8849,
      "harimu": 8850,
      "Ġmabomu": 8851,
      "Ġcooking": 8852,
      "jengea": 8853,
      "jipanga": 8854,
      "Ġcharm": 8855,
      "eraha": 8856,
      "Ġguess": 8857,
      "Ġcrocodile": 8858,
      "kulia": 8859,
      "Ġkufanyiwa": 8860,
      "Ġjuma": 8861,
      "idemokrasia": 8862,
      "Ġpanda": 8863,
      "ĠGrace": 8864,
      "Ġslides": 8865,
      "Ġuncomfortable": 8866,
      "Ġdar": 8867,
      "Ġduni": 8868,
      "ilable": 8869,
      "Ġshocked": 8870,
      "Ġbarber": 8871,
      "mwengu": 8872,
      "Ġsku": 8873,
      "Ġkuhudhuria": 8874,
      "ĠLondon": 8875,
      "Ġkupungua": 8876,
      "Ġvidogo": 8877,
      "GA": 8878,
      "Ġkugundua": 8879,
      "Ġinahitaji": 8880,
      "Ġshukrani": 8881,
      "Ġimpressive": 8882,
      "Ġkurekebisha": 8883,
      "Ġtwirled": 8884,
      "herehe": 8885,
      "esababisha": 8886,
      "Ġvipaji": 8887,
      "hiyo": 8888,
      "Ġbull": 8889,
      "Ġkubadilika": 8890,
      "ZANIA": 8891,
      "Ġpersistent": 8892,
      "Ġsote": 8893,
      "Ġtoleo": 8894,
      "Ġufungu": 8895,
      "rilla": 8896,
      "ils": 8897,
      "deni": 8898,
      "Ġtulikuwa": 8899,
      "Ġzozote": 8900,
      "celona": 8901,
      "ÅĵYes": 8902,
      "fumbuzi": 8903,
      "Ġpatch": 8904,
      "ĠRobert": 8905,
      "ĠKiarabu": 8906,
      "Ġwamesha": 8907,
      "wasilishwa": 8908,
      "ĠMwili": 8909,
      "Ġmaonyesho": 8910,
      "ĠLee": 8911,
      "sted": 8912,
      "dhifa": 8913,
      "Ġwakiwemo": 8914,
      "Ġgasped": 8915,
      "Ġdhamira": 8916,
      "St": 8917,
      "Ġahead": 8918,
      "Ġinaonyesha": 8919,
      "Ġkumfanya": 8920,
      "vious": 8921,
      "ĠHapo": 8922,
      "kinga": 8923,
      "ĠInstagram": 8924,
      "ĠKutokana": 8925,
      "Ġcompetitive": 8926,
      "Ġhusaidia": 8927,
      "eleze": 8928,
      "Ġchetu": 8929,
      "kwepa": 8930,
      "Ġshut": 8931,
      "simamizi": 8932,
      "ĠUjenzi": 8933,
      "35": 8934,
      "Ġrefused": 8935,
      "Ġubongo": 8936,
      "athiriwa": 8937,
      "Ġwenzangu": 8938,
      "Ġzitakazo": 8939,
      "Man": 8940,
      "Ġ...": 8941,
      "ĠMh": 8942,
      "hood": 8943,
      "Ġwanawa": 8944,
      "Ġtool": 8945,
      "orosho": 8946,
      "Ġkuelezea": 8947,
      "ĠGrandpa": 8948,
      "hai": 8949,
      "Ġspoke": 8950,
      "Ġcreatures": 8951,
      "Ġmig": 8952,
      "Ġitikadi": 8953,
      "ĠPu": 8954,
      "Ġamei": 8955,
      "Ġriwa": 8956,
      "Ġvalue": 8957,
      "Ġsquash": 8958,
      "cado": 8959,
      "ĠMwe": 8960,
      "Ġalidai": 8961,
      "Ġanxi": 8962,
      "diwani": 8963,
      "Ġndilo": 8964,
      "Ġhaswa": 8965,
      "Ġharmless": 8966,
      "Ġstatue": 8967,
      "Ġpants": 8968,
      "ĠToby": 8969,
      "Ġjingine": 8970,
      "Ġratiba": 8971,
      "Ndi": 8972,
      "Ġkuharibu": 8973,
      "mas": 8974,
      "Ġambae": 8975,
      "Ġanatu": 8976,
      "ĠCharles": 8977,
      "Ġsnuggled": 8978,
      "pet": 8979,
      "Ġwakili": 8980,
      "Ġwakam": 8981,
      "Ġneat": 8982,
      "Ġsunflower": 8983,
      "ĠInternational": 8984,
      "60": 8985,
      "bya": 8986,
      "cano": 8987,
      "kuzi": 8988,
      "saka": 8989,
      "Ġpage": 8990,
      "Ġushuru": 8991,
      "rther": 8992,
      "ĠcouldnÃ¢": 8993,
      "Ġvikali": 8994,
      "mis": 8995,
      "tamani": 8996,
      "Ġalieleza": 8997,
      "Ġishi": 8998,
      "Ġsize": 8999,
      "ĠMuda": 9000,
      "Ġhatuwezi": 9001,
      "ĠJuu": 9002,
      "Ġupepo": 9003,
      "cream": 9004,
      "eshu": 9005,
      "ĠEthiopia": 9006,
      "Ġcollar": 9007,
      "Ġcrane": 9008,
      "pasavyo": 9009,
      "dharia": 9010,
      "ines": 9011,
      "Ġdogo": 9012,
      "ĠFlo": 9013,
      "vuta": 9014,
      "Ġbrace": 9015,
      "Ġmtaa": 9016,
      "Ġtrump": 9017,
      "anganyifu": 9018,
      "ĠSmith": 9019,
      "Ġkuvaa": 9020,
      "Ġmeasu": 9021,
      "Ġkumbe": 9022,
      "Ġstickers": 9023,
      "IS": 9024,
      "Ow": 9025,
      "Ġmga": 9026,
      "Ġener": 9027,
      "Ġkisu": 9028,
      "ĠMoshi": 9029,
      "Ġdhaifu": 9030,
      "Ġart": 9031,
      "Ġcounting": 9032,
      "PE": 9033,
      "Ġlikiwa": 9034,
      "ceed": 9035,
      "Ġmush": 9036,
      "Ġcoc": 9037,
      "Ġletters": 9038,
      "áĪ": 9039,
      "Ġwawakilishi": 9040,
      "Ġthread": 9041,
      "ĠYusu": 9042,
      "Ġnyongeza": 9043,
      "Ġtrack": 9044,
      "Ġplanet": 9045,
      "Ġenthusia": 9046,
      "Ġbracelet": 9047,
      "MWI": 9048,
      "Ġmshambuliaji": 9049,
      "Ġhumble": 9050,
      "shuka": 9051,
      "Ġcourage": 9052,
      "klia": 9053,
      "rie": 9054,
      "paswi": 9055,
      "Ġignorant": 9056,
      "Ġintelligent": 9057,
      "gambo": 9058,
      "Ġmeno": 9059,
      "zana": 9060,
      "siona": 9061,
      "tubia": 9062,
      "Ġsadly": 9063,
      "Ġkuanzishwa": 9064,
      "Ġvipimo": 9065,
      "Ġndefu": 9066,
      "Ġpigeon": 9067,
      "Ġotter": 9068,
      "ĠTE": 9069,
      "Ġlibrary": 9070,
      "ofisa": 9071,
      "Ġash": 9072,
      "ongezi": 9073,
      "Ġiliyofanyika": 9074,
      "Ġnuts": 9075,
      "Ġpony": 9076,
      "isani": 9077,
      "Ġuncle": 9078,
      "Ġanxious": 9079,
      "IN": 9080,
      "Ġaj": 9081,
      "Ġmtumishi": 9082,
      "Ġghost": 9083,
      "ummer": 9084,
      "Ġacorn": 9085,
      "Ġnames": 9086,
      "ĠJubile": 9087,
      "Ġtrumpet": 9088,
      "zes": 9089,
      "Ġtawala": 9090,
      "Ġwamiliki": 9091,
      "ĠShinyanga": 9092,
      "ral": 9093,
      "tub": 9094,
      "udia": 9095,
      "Naibu": 9096,
      "Ġtrash": 9097,
      "Ġprov": 9098,
      "ĠAnn": 9099,
      "Ri": 9100,
      "Ġuovu": 9101,
      "Ġfurther": 9102,
      "Ġordinary": 9103,
      "Ġlilil": 9104,
      "Ġsecond": 9105,
      "ishughuli": 9106,
      "ĠTweety": 9107,
      "ĠBrazil": 9108,
      "Ġdug": 9109,
      "Ġaliwahi": 9110,
      "Ġgorilla": 9111,
      "Ġbadly": 9112,
      "Ġmajani": 9113,
      "ĠJulius": 9114,
      "ĠHakika": 9115,
      "Ġtaji": 9116,
      "Ġkatibu": 9117,
      "Ġwheels": 9118,
      "kilinganishwa": 9119,
      "Ġavailable": 9120,
      "Mna": 9121,
      "achi": 9122,
      "adio": 9123,
      "Ġcricket": 9124,
      "azi": 9125,
      "Ġaunt": 9126,
      "Ġkuzungumzia": 9127,
      "ĠAta": 9128,
      "Ġbutterflies": 9129,
      "Ġdisgu": 9130,
      "ĠHussein": 9131,
      "Ġet": 9132,
      "Ġkukamatwa": 9133,
      "Ġniku": 9134,
      "Ġattic": 9135,
      "Ġamesha": 9136,
      "ongezwa": 9137,
      "Ġfupi": 9138,
      "Ġ2005": 9139,
      "34": 9140,
      "Ġtunavyo": 9141,
      "hifadhiwa": 9142,
      "Anasema": 9143,
      "ĠUlinzi": 9144,
      "Ġuadilifu": 9145,
      "udhi": 9146,
      "Ġmachozi": 9147,
      "ĠTwitter": 9148,
      "pendi": 9149,
      "Ġwaku": 9150,
      "Ġkush": 9151,
      "Ġofisini": 9152,
      "ndikisha": 9153,
      "Ġimpro": 9154,
      "Ġtrap": 9155,
      "manuel": 9156,
      "night": 9157,
      "Ġkukimbia": 9158,
      "weli": 9159,
      "ĠAgano": 9160,
      "twa": 9161,
      "Ġnacho": 9162,
      "Ġpengu": 9163,
      "ĠKid": 9164,
      "sahau": 9165,
      "Ġchasing": 9166,
      "rufu": 9167,
      "ĠSehemu": 9168,
      "Ġanywhere": 9169,
      "Ġshiri": 9170,
      "Ġbrighter": 9171,
      "Ġpretending": 9172,
      "eseka": 9173,
      "Ġbathtub": 9174,
      "ESCO": 9175,
      "vyote": 9176,
      "laba": 9177,
      "Ġlika": 9178,
      "Ġniwa": 9179,
      "NGO": 9180,
      "Ġmessage": 9181,
      "ĠSer": 9182,
      "Ġbaharini": 9183,
      "Ġkiko": 9184,
      "Ġipasavyo": 9185,
      "Ġsty": 9186,
      "yotokea": 9187,
      "ĠKATI": 9188,
      "ĠMkapa": 9189,
      "Jinsi": 9190,
      "aroo": 9191,
      "Ġitself": 9192,
      "Ġcase": 9193,
      "Ġjumps": 9194,
      "Ġafterno": 9195,
      "Ġbendera": 9196,
      "Ġcomb": 9197,
      "Kusikiliza": 9198,
      "Ġvyumba": 9199,
      "Ġgloomy": 9200,
      "39": 9201,
      "Ġnaamini": 9202,
      "Ġmaadhimisho": 9203,
      "imama": 9204,
      "oking": 9205,
      "Ġscoot": 9206,
      "Ġtunawa": 9207,
      "urant": 9208,
      "Ġdrop": 9209,
      "ĠNchini": 9210,
      "umiza": 9211,
      "Ġusahihi": 9212,
      "Ġngoma": 9213,
      "kosekana": 9214,
      "llah": 9215,
      "Ġwww": 9216,
      "Ġreco": 9217,
      "ataka": 9218,
      "otokana": 9219,
      "Ġfasihi": 9220,
      "ĠMichael": 9221,
      "Ġduka": 9222,
      "ĠBora": 9223,
      "ĠLiverpool": 9224,
      "siriamali": 9225,
      "TC": 9226,
      "ĠMajaliwa": 9227,
      "wira": 9228,
      "Ġnilipo": 9229,
      "anyi": 9230,
      "Ġkuuliza": 9231,
      "kusaidia": 9232,
      "wever": 9233,
      "bie": 9234,
      "Ġpear": 9235,
      "Ġ45": 9236,
      "Ġhauja": 9237,
      "Ġtamko": 9238,
      "staafu": 9239,
      "vua": 9240,
      "ĠKatoliki": 9241,
      "Ġkana": 9242,
      "Ġvipindi": 9243,
      "Ġwaliwa": 9244,
      "Ġpepper": 9245,
      "inde": 9246,
      "Ġled": 9247,
      "Ġcarto": 9248,
      "zuizi": 9249,
      "Ġhurry": 9250,
      "Ġsarafu": 9251,
      "Ġufumbuzi": 9252,
      "Ġsheet": 9253,
      "Ġkuwawezesha": 9254,
      "Ġsell": 9255,
      "Ġwakawa": 9256,
      "Ġjeep": 9257,
      ".|": 9258,
      "Ġuto": 9259,
      "Ġresta": 9260,
      "fiwa": 9261,
      "Ġshort": 9262,
      "askofu": 9263,
      "lazimisha": 9264,
      "hesabiwa": 9265,
      "Ġfearful": 9266,
      "Ġkilo": 9267,
      "Ġtahadhari": 9268,
      "unganishwa": 9269,
      "hamisha": 9270,
      "Ġcrawl": 9271,
      "cht": 9272,
      "Ġsepar": 9273,
      "Ġseem": 9274,
      "Ġadmi": 9275,
      "dhiri": 9276,
      "ĠKale": 9277,
      "Ġzebra": 9278,
      "ĠBud": 9279,
      "Ġkiafya": 9280,
      "ĠTukufu": 9281,
      "Ġparade": 9282,
      "uu": 9283,
      "Ġmzozo": 9284,
      "Ġkuhamasisha": 9285,
      "Ġshoe": 9286,
      "Ġrules": 9287,
      "Ġwapate": 9288,
      "Sisi": 9289,
      "Ġkang": 9290,
      "ante": 9291,
      "Ġnji": 9292,
      "Ġvia": 9293,
      "ĠAF": 9294,
      "ĠAust": 9295,
      "ondoni": 9296,
      "Ġimpatient": 9297,
      "SIMA": 9298,
      "sante": 9299,
      "versity": 9300,
      "Ġmbwa": 9301,
      "iron": 9302,
      "tosha": 9303,
      "Ġwatawala": 9304,
      "Ġspeak": 9305,
      "Ġafternoon": 9306,
      "Ġviti": 9307,
      "Ġalini": 9308,
      "Ġspirit": 9309,
      "erable": 9310,
      "Ġulemavu": 9311,
      "Shirika": 9312,
      "Ġuwa": 9313,
      "ĠJina": 9314,
      "rg": 9315,
      "una": 9316,
      "susi": 9317,
      "Ġshaking": 9318,
      "Ġdesturi": 9319,
      "Ġcharming": 9320,
      "Ġmako": 9321,
      "Ġwanahitaji": 9322,
      "ongwa": 9323,
      "Ġkumsaidia": 9324,
      "Ġkutunza": 9325,
      "Ġkuingiza": 9326,
      "rehemu": 9327,
      "unis": 9328,
      "ĠRoma": 9329,
      "Ġpiano": 9330,
      "Ġchumvi": 9331,
      "fanyike": 9332,
      "Ġbandage": 9333,
      ".,": 9334,
      "Wak": 9335,
      "Ġtangazo": 9336,
      "Ġwazima": 9337,
      "Ġkujitoa": 9338,
      "ĠTru": 9339,
      "load": 9340,
      "enyeji": 9341,
      "Ġrad": 9342,
      "Ġkujitegemea": 9343,
      "49": 9344,
      "ĠUwekezaji": 9345,
      "Ġinapatikana": 9346,
      "ĠJoey": 9347,
      "Ġgifted": 9348,
      "Ġx": 9349,
      "Ġqua": 9350,
      "ambe": 9351,
      "ngalia": 9352,
      "ĠReal": 9353,
      "ĠAmesema": 9354,
      "Ġugumu": 9355,
      "Ġalert": 9356,
      "eg": 9357,
      "Ġsalt": 9358,
      "ĠViwa": 9359,
      "Ġavocado": 9360,
      "Ġkuingilia": 9361,
      "ingu": 9362,
      "Ġshine": 9363,
      "Ġufundi": 9364,
      "Ġdiscover": 9365,
      "Ġvolcano": 9366,
      "Ġostri": 9367,
      "semwa": 9368,
      "Ġwanaendelea": 9369,
      "pande": 9370,
      "Ġzifuatazo": 9371,
      "Ġtriang": 9372,
      "Tazama": 9373,
      "ĠTalib": 9374,
      "Yay": 9375,
      "Ġ{": 9376,
      "Ġmkurugenzi": 9377,
      "Ġuwi": 9378,
      "adamu": 9379,
      "Ġolder": 9380,
      "ĠÙĥ": 9381,
      "Ġperform": 9382,
      "Ġcards": 9383,
      "Ġflour": 9384,
      "Ġsandwiches": 9385,
      "hino": 9386,
      "Ġkibali": 9387,
      "shindi": 9388,
      "Ġjela": 9389,
[...]
